{
  "version": "1.0",
  "truncation": null,
  "padding": null,
  "added_tokens": [
    {
      "id": 0,
      "content": "<unk>",
      "single_word": false,
      "lstrip": false,
      "rstrip": false,
      "normalized": false,
      "special": true
    },
    {
      "id": 1,
      "content": "<s>",
      "single_word": false,
      "lstrip": false,
      "rstrip": false,
      "normalized": false,
      "special": true
    },
    {
      "id": 2,
      "content": "</s>",
      "single_word": false,
      "lstrip": false,
      "rstrip": false,
      "normalized": false,
      "special": true
    },
    {
      "id": 19999,
      "content": "^",
      "single_word": false,
      "lstrip": false,
      "rstrip": false,
      "normalized": false,
      "special": true
    }
  ],
  "normalizer": {
    "type": "Sequence",
    "normalizers": [
      {
        "type": "Nmt"
      },
      {
        "type": "NFKC"
      }
    ]
  },
  "pre_tokenizer": {
    "type": "Metaspace",
    "replacement": "▁",
    "prepend_scheme": "always",
    "split": true
  },
  "post_processor": {
    "type": "TemplateProcessing",
    "single": [
      {
        "Sequence": {
          "id": "A",
          "type_id": 0
        }
      }
    ],
    "pair": [
      {
        "Sequence": {
          "id": "A",
          "type_id": 0
        }
      },
      {
        "Sequence": {
          "id": "B",
          "type_id": 1
        }
      }
    ],
    "special_tokens": {}
  },
  "decoder": {
    "type": "Metaspace",
    "replacement": "▁",
    "prepend_scheme": "always",
    "split": true
  },
  "model": {
    "type": "Unigram",
    "unk_id": 0,
    "vocab": [
      [
        "<unk>",
        0.0
      ],
      [
        "<s>",
        0.0
      ],
      [
        "</s>",
        0.0
      ],
      [
        "_",
        -2.492575168609619
      ],
      [
        ":",
        -2.7304320335388184
      ],
      [
        "A",
        -3.141566753387451
      ],
      [
        "dr",
        -3.183459997177124
      ],
      [
        ",",
        -3.2544124126434326
      ],
      [
        ")",
        -3.57360577583313
      ],
      [
        "(",
        -3.587648630142212
      ],
      [
        "ATA",
        -3.5933656692504883
      ],
      [
        "DR",
        -3.5933918952941895
      ],
      [
        "AVY",
        -3.5935614109039307
      ],
      [
        ".",
        -4.099628925323486
      ],
      [
        "sk",
        -4.277510643005371
      ],
      [
        "kr",
        -4.284063816070557
      ],
      [
        "▁PR",
        -4.2862067222595215
      ],
      [
        "GUN",
        -4.286629676818848
      ],
      [
        "AKAR",
        -4.2866902351379395
      ],
      [
        "KRI",
        -4.286707401275635
      ],
      [
        "YA",
        -4.29152250289917
      ],
      [
        "eka",
        -4.434300422668457
      ],
      [
        "▁SAM",
        -4.526827335357666
      ],
      [
        "YOG",
        -4.5269365310668945
      ],
      [
        "▁*",
        -4.626157760620117
      ],
      [
        "▁the",
        -4.828703880310059
      ],
      [
        "~",
        -4.912461280822754
      ],
      [
        "s",
        -4.971539497375488
      ],
      [
        "'",
        -4.991083145141602
      ],
      [
        "▁[",
        -5.035193920135498
      ],
      [
        "▁",
        -5.161757469177246
      ],
      [
        "▁(",
        -5.263041019439697
      ],
      [
        "▁{",
        -5.301619052886963
      ],
      [
        "▁]",
        -5.301723957061768
      ],
      [
        "▁}",
        -5.302707672119141
      ],
      [
        "▁)",
        -5.33309268951416
      ],
      [
        "▁a",
        -5.3401103019714355
      ],
      [
        "e",
        -5.37096643447876
      ],
      [
        "\\",
        -5.403520107269287
      ],
      [
        "▁I",
        -5.455618381500244
      ],
      [
        "▁to",
        -5.461273193359375
      ],
      [
        "▁and",
        -5.466017723083496
      ],
      [
        "?",
        -5.477398872375488
      ],
      [
        "CHI",
        -5.525679111480713
      ],
      [
        "a",
        -5.539536476135254
      ],
      [
        "▁you",
        -5.5903706550598145
      ],
      [
        "MOT",
        -5.607273101806641
      ],
      [
        "▁of",
        -5.655818939208984
      ],
      [
        "aH",
        -5.735185623168945
      ],
      [
        "i",
        -5.774530410766602
      ],
      [
        "am",
        -5.819108009338379
      ],
      [
        "▁in",
        -5.819849967956543
      ],
      [
        "▁VIS",
        -5.830427169799805
      ],
      [
        "AY",
        -5.849832534790039
      ],
      [
        "t",
        -5.877847194671631
      ],
      [
        "kar",
        -5.913863182067871
      ],
      [
        "Xi",
        -5.930217266082764
      ],
      [
        "aNa",
        -5.930659294128418
      ],
      [
        "▁it",
        -5.935363292694092
      ],
      [
        "▁that",
        -6.016103744506836
      ],
      [
        "m",
        -6.099095821380615
      ],
      [
        "▁=",
        -6.208155632019043
      ],
      [
        "▁is",
        -6.265522003173828
      ],
      [
        "▁was",
        -6.266538143157959
      ],
      [
        "Y",
        -6.397749423980713
      ],
      [
        "▁he",
        -6.529379367828369
      ],
      [
        "H",
        -6.544139862060547
      ],
      [
        "▁on",
        -6.554422855377197
      ],
      [
        "kf",
        -6.590594291687012
      ],
      [
        "~\\",
        -6.605037689208984
      ],
      [
        "▁for",
        -6.635897159576416
      ],
      [
        "bahu",
        -6.6510820388793945
      ],
      [
        "▁\"",
        -6.663640022277832
      ],
      [
        "▁what",
        -6.717381477355957
      ],
      [
        "~^",
        -6.7777228355407715
      ],
      [
        "!",
        -6.7834014892578125
      ],
      [
        "▁with",
        -6.8399224281311035
      ],
      [
        "]",
        -6.849213123321533
      ],
      [
        "vi",
        -6.868417739868164
      ],
      [
        "▁this",
        -6.936172008514404
      ],
      [
        "▁have",
        -6.975334644317627
      ],
      [
        "-",
        -6.980067253112793
      ],
      [
        "▁be",
        -7.0056867599487305
      ],
      [
        "▁me",
        -7.010248184204102
      ],
      [
        "▁we",
        -7.015161514282227
      ],
      [
        "▁at",
        -7.054953098297119
      ],
      [
        "▁not",
        -7.057406425476074
      ],
      [
        "FAT",
        -7.060135841369629
      ],
      [
        "▁-",
        -7.0616631507873535
      ],
      [
        "▁do",
        -7.073911190032959
      ],
      [
        "▁as",
        -7.112551689147949
      ],
      [
        "▁one",
        -7.116100311279297
      ],
      [
        "▁her",
        -7.128950595855713
      ],
      [
        "▁they",
        -7.129838943481445
      ],
      [
        "...",
        -7.13574743270874
      ],
      [
        "re",
        -7.138991355895996
      ],
      [
        "\\,",
        -7.142385005950928
      ],
      [
        "qu",
        -7.170233249664307
      ],
      [
        "▁his",
        -7.1729278564453125
      ],
      [
        "▁are",
        -7.203617095947266
      ],
      [
        "▁she",
        -7.20642614364624
      ],
      [
        "▁can",
        -7.229565143585205
      ],
      [
        "▁no",
        -7.230085849761963
      ],
      [
        "r",
        -7.251634120941162
      ],
      [
        "▁The",
        -7.253228664398193
      ],
      [
        "ing",
        -7.280863285064697
      ],
      [
        "▁my",
        -7.292617321014404
      ],
      [
        "▁there",
        -7.294461250305176
      ],
      [
        "va",
        -7.30586051940918
      ],
      [
        "▁had",
        -7.316117763519287
      ],
      [
        "▁all",
        -7.316701889038086
      ],
      [
        "▁know",
        -7.330976009368896
      ],
      [
        "ed",
        -7.3561110496521
      ],
      [
        "▁up",
        -7.3677978515625
      ],
      [
        "d",
        -7.368858814239502
      ],
      [
        "O",
        -7.3805718421936035
      ],
      [
        "▁don",
        -7.39180850982666
      ],
      [
        "xvi",
        -7.401741504669189
      ],
      [
        "BU",
        -7.411421298980713
      ],
      [
        "▁but",
        -7.41655683517456
      ],
      [
        "▁like",
        -7.422833442687988
      ],
      [
        "▁so",
        -7.441640377044678
      ],
      [
        "ca",
        -7.44198751449585
      ],
      [
        "▁your",
        -7.452600955963135
      ],
      [
        "▁from",
        -7.461890697479248
      ],
      [
        "▁It",
        -7.489216327667236
      ],
      [
        "AH",
        -7.492291450500488
      ],
      [
        "▁out",
        -7.517473220825195
      ],
      [
        "te",
        -7.538620948791504
      ],
      [
        "ta",
        -7.539315223693848
      ],
      [
        "ll",
        -7.562082290649414
      ],
      [
        "I",
        -7.5621819496154785
      ],
      [
        "▁him",
        -7.577574253082275
      ],
      [
        "▁were",
        -7.591217994689941
      ],
      [
        "asa",
        -7.593669414520264
      ],
      [
        "▁by",
        -7.603569030761719
      ],
      [
        "▁go",
        -7.608547687530518
      ],
      [
        "▁said",
        -7.614778995513916
      ],
      [
        "▁He",
        -7.61728048324585
      ],
      [
        "▁You",
        -7.638336658477783
      ],
      [
        "▁yeah",
        -7.654972076416016
      ],
      [
        "▁here",
        -7.672072887420654
      ],
      [
        "▁about",
        -7.689577102661133
      ],
      [
        "▁an",
        -7.691559314727783
      ],
      [
        "kfqa",
        -7.697874069213867
      ],
      [
        "▁get",
        -7.714286804199219
      ],
      [
        "▁see",
        -7.731818199157715
      ],
      [
        "▁did",
        -7.741622447967529
      ],
      [
        "▁xxx",
        -7.747393131256104
      ],
      [
        "▁just",
        -7.757016181945801
      ],
      [
        "▁them",
        -7.782930850982666
      ],
      [
        "y",
        -7.793094635009766
      ],
      [
        "ve",
        -7.799966335296631
      ],
      [
        "deva",
        -7.801033020019531
      ],
      [
        "▁who",
        -7.806110858917236
      ],
      [
        "dA",
        -7.818908214569092
      ],
      [
        ";",
        -7.821549892425537
      ],
      [
        "▁right",
        -7.828413009643555
      ],
      [
        "▁if",
        -7.829900741577148
      ],
      [
        "▁when",
        -7.850561618804932
      ],
      [
        "▁now",
        -7.864621162414551
      ],
      [
        "▁or",
        -7.865428447723389
      ],
      [
        "da",
        -7.871406078338623
      ],
      [
        "▁think",
        -7.886950016021728
      ],
      [
        "▁oh",
        -7.889598846435547
      ],
      [
        "▁some",
        -7.896529674530029
      ],
      [
        "▁would",
        -7.897955894470215
      ],
      [
        "ja",
        -7.907326221466064
      ],
      [
        "p",
        -7.915416717529297
      ],
      [
        "x",
        -7.927798271179199
      ],
      [
        "R",
        -7.9326090812683105
      ],
      [
        "ly",
        -7.932983875274658
      ],
      [
        "▁little",
        -7.9662346839904785
      ],
      [
        "▁And",
        -7.979021549224853
      ],
      [
        "▁will",
        -7.988472938537598
      ],
      [
        "agni",
        -7.99565315246582
      ],
      [
        "rAjan",
        -7.999878883361816
      ],
      [
        "Am",
        -8.00052547454834
      ],
      [
        "].",
        -8.003586769104004
      ],
      [
        ".\"",
        -8.004016876220703
      ],
      [
        "▁then",
        -8.01446533203125
      ],
      [
        "▁got",
        -8.02709674835205
      ],
      [
        "▁want",
        -8.027634620666504
      ],
      [
        "▁time",
        -8.061676979064941
      ],
      [
        "▁two",
        -8.066461563110352
      ],
      [
        "f",
        -8.068924903869629
      ],
      [
        "▁where",
        -8.071555137634277
      ],
      [
        "▁more",
        -8.072224617004395
      ],
      [
        "▁been",
        -8.077280044555664
      ],
      [
        "▁good",
        -8.079516410827637
      ],
      [
        "▁okay",
        -8.091253280639648
      ],
      [
        "▁how",
        -8.092674255371094
      ],
      [
        "N",
        -8.093293190002441
      ],
      [
        "▁very",
        -8.103659629821777
      ],
      [
        "▁going",
        -8.110591888427734
      ],
      [
        "\"",
        -8.113234519958496
      ],
      [
        "ji",
        -8.117732048034668
      ],
      [
        "▁has",
        -8.123869895935059
      ],
      [
        "▁down",
        -8.137431144714355
      ],
      [
        "▁which",
        -8.138252258300781
      ],
      [
        "▁their",
        -8.147682189941406
      ],
      [
        "▁back",
        -8.153099060058594
      ],
      [
        "MAR",
        -8.159090042114258
      ],
      [
        "▁over",
        -8.187878608703613
      ],
      [
        "er",
        -8.193941116333008
      ],
      [
        "ga",
        -8.209148406982422
      ],
      [
        "▁put",
        -8.21172046661377
      ],
      [
        "▁could",
        -8.214569091796875
      ],
      [
        "▁She",
        -8.21798038482666
      ],
      [
        "▁What",
        -8.221658706665039
      ],
      [
        "▁come",
        -8.232333183288574
      ],
      [
        "ha",
        -8.234119415283203
      ],
      [
        "n",
        -8.236366271972656
      ],
      [
        "▁'",
        -8.237030982971191
      ],
      [
        "na",
        -8.24564266204834
      ],
      [
        "Adi",
        -8.248427391052246
      ],
      [
        "vida",
        -8.24980640411377
      ],
      [
        "▁well",
        -8.258378982543945
      ],
      [
        "asta",
        -8.266063690185547
      ],
      [
        "loka",
        -8.26774787902832
      ],
      [
        "yAm",
        -8.27206039428711
      ],
      [
        "asu",
        -8.27727222442627
      ],
      [
        "▁We",
        -8.29028034210205
      ],
      [
        "pa",
        -8.296529769897461
      ],
      [
        "▁people",
        -8.302825927734375
      ],
      [
        ",\"",
        -8.310125350952148
      ],
      [
        "INV",
        -8.315398216247559
      ],
      [
        "▁say",
        -8.316399574279785
      ],
      [
        "Atman",
        -8.319927215576172
      ],
      [
        "▁look",
        -8.320387840270996
      ],
      [
        "arTa",
        -8.329184532165527
      ],
      [
        "▁other",
        -8.331021308898926
      ],
      [
        "▁But",
        -8.337629318237305
      ],
      [
        "▁make",
        -8.342630386352539
      ],
      [
        "▁too",
        -8.345629692077637
      ],
      [
        "▁into",
        -8.366907119750977
      ],
      [
        "Darma",
        -8.375836372375488
      ],
      [
        "ahi",
        -8.385109901428223
      ],
      [
        "▁gonna",
        -8.38947582244873
      ],
      [
        "▁man",
        -8.391448974609375
      ],
      [
        "▁No",
        -8.393717765808105
      ],
      [
        "u",
        -8.400635719299316
      ],
      [
        "indra",
        -8.41236686706543
      ],
      [
        "▁%",
        -8.448526382446289
      ],
      [
        "oti",
        -8.457422256469727
      ],
      [
        "▁take",
        -8.458105087280273
      ],
      [
        "putra",
        -8.460111618041992
      ],
      [
        "▁first",
        -8.461830139160156
      ],
      [
        "ya",
        -8.463207244873047
      ],
      [
        "▁way",
        -8.468659400939941
      ],
      [
        "--",
        -8.483512878417969
      ],
      [
        "▁In",
        -8.48829174041748
      ],
      [
        "▁off",
        -8.522967338562012
      ],
      [
        "▁any",
        -8.535287857055664
      ],
      [
        "▁let",
        -8.542108535766602
      ],
      [
        "▁tell",
        -8.542519569396973
      ],
      [
        "▁us",
        -8.548822402954102
      ],
      [
        "tva",
        -8.54919147491455
      ],
      [
        "S",
        -8.55355453491211
      ],
      [
        "dAna",
        -8.554130554199219
      ],
      [
        "▁why",
        -8.557448387145996
      ],
      [
        "df",
        -8.56507396697998
      ],
      [
        "▁So",
        -8.574898719787598
      ],
      [
        "jYA",
        -8.578241348266602
      ],
      [
        "▁That",
        -8.579825401306152
      ],
      [
        "D",
        -8.58234691619873
      ],
      [
        "▁didn",
        -8.583527565002441
      ],
      [
        "rasa",
        -8.58859920501709
      ],
      [
        "in",
        -8.591090202331543
      ],
      [
        "karman",
        -8.597051620483398
      ],
      [
        "Si",
        -8.597823143005371
      ],
      [
        "yu",
        -8.598115921020508
      ],
      [
        "brahman",
        -8.602164268493652
      ],
      [
        "▁only",
        -8.603189468383789
      ],
      [
        "z",
        -8.605432510375977
      ],
      [
        "▁because",
        -8.618392944335938
      ],
      [
        "▁something",
        -8.622550010681152
      ],
      [
        "laughs",
        -8.626752853393555
      ],
      [
        "▁They",
        -8.6274995803833
      ],
      [
        "▁made",
        -8.633652687072754
      ],
      [
        "▁Oh",
        -8.644173622131348
      ],
      [
        "k",
        -8.645445823669434
      ],
      [
        "SIS",
        -8.64721393585205
      ],
      [
        "▁after",
        -8.662071228027344
      ],
      [
        "▁Yeah",
        -8.66225528717041
      ],
      [
        "hu",
        -8.665664672851562
      ],
      [
        "▁much",
        -8.668835639953613
      ],
      [
        "▁our",
        -8.675544738769531
      ],
      [
        "▁these",
        -8.682169914245605
      ],
      [
        "jana",
        -8.686613082885742
      ],
      [
        "▁er",
        -8.695291519165039
      ],
      [
        "▁than",
        -8.704155921936035
      ],
      [
        "int",
        -8.710808753967285
      ],
      [
        "▁day",
        -8.724696159362793
      ],
      [
        "BRO",
        -8.727728843688965
      ],
      [
        "▁really",
        -8.729130744934082
      ],
      [
        "rUpa",
        -8.743258476257324
      ],
      [
        "▁three",
        -8.744691848754883
      ],
      [
        "kAla",
        -8.753190040588379
      ],
      [
        "▁went",
        -8.75669002532959
      ],
      [
        "ma",
        -8.759525299072266
      ],
      [
        "▁This",
        -8.768074989318848
      ],
      [
        "▁should",
        -8.774128913879395
      ],
      [
        "▁mean",
        -8.779179573059082
      ],
      [
        "o",
        -8.779646873474121
      ],
      [
        "▁before",
        -8.784734725952148
      ],
      [
        "▁again",
        -8.793307304382324
      ],
      [
        "/",
        -8.799234390258789
      ],
      [
        "▁through",
        -8.800119400024414
      ],
      [
        "aha",
        -8.800549507141113
      ],
      [
        "▁never",
        -8.804344177246094
      ],
      [
        "▁Well",
        -8.807740211486816
      ],
      [
        "mu",
        -8.810554504394531
      ],
      [
        "▁came",
        -8.814384460449219
      ],
      [
        "pitf",
        -8.814421653747559
      ],
      [
        "▁still",
        -8.820523262023926
      ],
      [
        "bala",
        -8.832401275634766
      ],
      [
        "yajYa",
        -8.835546493530273
      ],
      [
        "▁also",
        -8.837516784667969
      ],
      [
        "▁Chi",
        -8.83920669555664
      ],
      [
        "huq",
        -8.847827911376953
      ],
      [
        "?\"",
        -8.848614692687988
      ],
      [
        "carca",
        -8.852266311645508
      ],
      [
        "▁wanna",
        -8.856969833374023
      ],
      [
        "ap",
        -8.86426067352295
      ],
      [
        "▁need",
        -8.868058204650879
      ],
      [
        "▁many",
        -8.87108325958252
      ],
      [
        "▁away",
        -8.872032165527344
      ],
      [
        "▁long",
        -8.875264167785645
      ],
      [
        "▁home",
        -8.877531051635742
      ],
      [
        "▁thing",
        -8.890707969665527
      ],
      [
        "▁kfRut",
        -8.904685020446777
      ],
      [
        "al",
        -8.905447959899902
      ],
      [
        "▁those",
        -8.905791282653809
      ],
      [
        "raTa",
        -8.906049728393555
      ],
      [
        "▁big",
        -8.907123565673828
      ],
      [
        "go",
        -8.914938926696777
      ],
      [
        "▁old",
        -8.915990829467773
      ],
      [
        "▁thought",
        -8.918063163757324
      ],
      [
        "▁yes",
        -8.921971321105957
      ],
      [
        "manas",
        -8.927506446838379
      ],
      [
        "th",
        -8.930547714233398
      ],
      [
        "▁give",
        -8.931488037109375
      ],
      [
        "▁name",
        -8.933917045593262
      ],
      [
        "kAma",
        -8.936702728271484
      ],
      [
        "▁There",
        -8.9412260055542
      ],
      [
        "▁um",
        -8.941863059997559
      ],
      [
        "▁work",
        -8.945988655090332
      ],
      [
        "▁last",
        -8.948931694030762
      ],
      [
        "dx",
        -8.949237823486328
      ],
      [
        "▁another",
        -8.956372261047363
      ],
      [
        "▁does",
        -8.96988582611084
      ],
      [
        "▁doing",
        -8.969988822937012
      ],
      [
        "▁great",
        -8.983489990234375
      ],
      [
        "▁things",
        -8.983741760253906
      ],
      [
        "▁mother",
        -8.990068435668945
      ],
      [
        "Pala",
        -8.99822998046875
      ],
      [
        "▁must",
        -9.011957168579102
      ],
      [
        "puruza",
        -9.016700744628906
      ],
      [
        "▁house",
        -9.020589828491213
      ],
      [
        "c",
        -9.02425765991211
      ],
      [
        "▁play",
        -9.028059005737305
      ],
      [
        "brAhmaRa",
        -9.030061721801758
      ],
      [
        "▁eat",
        -9.030941009521484
      ],
      [
        "▁am",
        -9.031153678894045
      ],
      [
        "▁S",
        -9.031329154968262
      ],
      [
        "graha",
        -9.031831741333008
      ],
      [
        "▁de",
        -9.032798767089844
      ],
      [
        "anta",
        -9.035873413085938
      ],
      [
        "Sru",
        -9.03614902496338
      ],
      [
        "pA",
        -9.041664123535156
      ],
      [
        "Da",
        -9.044801712036133
      ],
      [
        "▁even",
        -9.04534149169922
      ],
      [
        "▁won",
        -9.056103706359863
      ],
      [
        "▁dev",
        -9.06032943725586
      ],
      [
        "iza",
        -9.063810348510742
      ],
      [
        "brU",
        -9.080400466918944
      ],
      [
        "▁called",
        -9.08203411102295
      ],
      [
        "▁Mr",
        -9.085827827453612
      ],
      [
        "manTa",
        -9.095282554626465
      ],
      [
        "▁night",
        -9.09589672088623
      ],
      [
        "brUsa",
        -9.098591804504396
      ],
      [
        "guRa",
        -9.10702419281006
      ],
      [
        "▁kfqat",
        -9.108716011047363
      ],
      [
        "▁kurut",
        -9.111726760864258
      ],
      [
        "▁B",
        -9.112327575683594
      ],
      [
        "Bf",
        -9.11851692199707
      ],
      [
        "▁years",
        -9.122076988220217
      ],
      [
        "l",
        -9.127267837524414
      ],
      [
        "▁find",
        -9.131633758544922
      ],
      [
        "soma",
        -9.136756896972656
      ],
      [
        "URS",
        -9.138245582580566
      ],
      [
        "U",
        -9.138422966003418
      ],
      [
        "▁huh",
        -9.138494491577148
      ],
      [
        "▁Yes",
        -9.138741493225098
      ],
      [
        "di",
        -9.143990516662598
      ],
      [
        "▁better",
        -9.146419525146484
      ],
      [
        "ay",
        -9.149054527282717
      ],
      [
        "prARa",
        -9.149389266967772
      ],
      [
        "▁C",
        -9.150067329406738
      ],
      [
        ".]",
        -9.153375625610352
      ],
      [
        "kzi",
        -9.15531063079834
      ],
      [
        "▁boy",
        -9.159680366516112
      ],
      [
        "nara",
        -9.162686347961426
      ],
      [
        "▁help",
        -9.167808532714844
      ],
      [
        "ra",
        -9.169093132019045
      ],
      [
        "▁done",
        -9.179715156555176
      ],
      [
        "zu",
        -9.18084716796875
      ],
      [
        "▁new",
        -9.18653678894043
      ],
      [
        "▁around",
        -9.189986228942873
      ],
      [
        "▁place",
        -9.191383361816406
      ],
      [
        "▁being",
        -9.200735092163086
      ],
      [
        "▁sure",
        -9.208667755126951
      ],
      [
        "muKa",
        -9.210086822509766
      ],
      [
        "▁four",
        -9.212675094604492
      ],
      [
        "▁such",
        -9.213261604309082
      ],
      [
        "fzi",
        -9.213308334350586
      ],
      [
        "▁Mommy",
        -9.213662147521973
      ],
      [
        "vAc",
        -9.21959400177002
      ],
      [
        "▁kfR",
        -9.220641136169434
      ],
      [
        "▁own",
        -9.221980094909668
      ],
      [
        "▁might",
        -9.223946571350098
      ],
      [
        "▁If",
        -9.22704029083252
      ],
      [
        "▁room",
        -9.22898769378662
      ],
      [
        "▁life",
        -9.229534149169922
      ],
      [
        "Ani",
        -9.229887008666992
      ],
      [
        "ila",
        -9.23029327392578
      ],
      [
        "cara",
        -9.232686042785645
      ],
      [
        "paSu",
        -9.235603332519531
      ],
      [
        "▁head",
        -9.235772132873535
      ],
      [
        "▁told",
        -9.238162994384766
      ],
      [
        "T",
        -9.239999771118164
      ],
      [
        "▁book",
        -9.243521690368652
      ],
      [
        "▁kind",
        -9.25094223022461
      ],
      [
        "▁anything",
        -9.251401901245115
      ],
      [
        "pf",
        -9.253288269042969
      ],
      [
        "▁car",
        -9.253517150878906
      ],
      [
        "namas",
        -9.253878593444824
      ],
      [
        "▁father",
        -9.254435539245604
      ],
      [
        "Bu",
        -9.254874229431152
      ],
      [
        "▁five",
        -9.264741897583008
      ],
      [
        "▁love",
        -9.266327857971191
      ],
      [
        "za",
        -9.2697172164917
      ],
      [
        "▁next",
        -9.270479202270508
      ],
      [
        "▁Do",
        -9.272632598876951
      ],
      [
        "doza",
        -9.272724151611328
      ],
      [
        "vasa",
        -9.278131484985352
      ],
      [
        "tapas",
        -9.278180122375488
      ],
      [
        "SrI",
        -9.279858589172363
      ],
      [
        "▁uh",
        -9.281615257263184
      ],
      [
        "▁baby",
        -9.282478332519531
      ],
      [
        "▁school",
        -9.283831596374512
      ],
      [
        "▁most",
        -9.290369987487791
      ],
      [
        "Sa",
        -9.293291091918944
      ],
      [
        "▁water",
        -9.29423713684082
      ],
      [
        "yoga",
        -9.295388221740724
      ],
      [
        "▁same",
        -9.297054290771484
      ],
      [
        "pati",
        -9.297536849975586
      ],
      [
        "vada",
        -9.30040454864502
      ],
      [
        "nte",
        -9.300542831420898
      ],
      [
        "▁men",
        -9.300637245178224
      ],
      [
        "▁else",
        -9.302160263061523
      ],
      [
        "▁may",
        -9.306130409240724
      ],
      [
        "▁ever",
        -9.306612968444824
      ],
      [
        "▁found",
        -9.315646171569824
      ],
      [
        "▁nice",
        -9.315828323364258
      ],
      [
        "anna",
        -9.318285942077637
      ],
      [
        "▁while",
        -9.322181701660156
      ],
      [
        "▁always",
        -9.323169708251951
      ],
      [
        "▁part",
        -9.323512077331545
      ],
      [
        "▁call",
        -9.32371997833252
      ],
      [
        "▁mhm",
        -9.32522678375244
      ],
      [
        "ate",
        -9.325860977172852
      ],
      [
        "▁How",
        -9.327475547790527
      ],
      [
        "▁saw",
        -9.33240032196045
      ],
      [
        "muni",
        -9.334664344787598
      ],
      [
        "!\"",
        -9.335367202758787
      ],
      [
        "▁doesn",
        -9.335497856140137
      ],
      [
        "▁took",
        -9.337292671203612
      ],
      [
        "▁girl",
        -9.338821411132812
      ],
      [
        "▁s",
        -9.339326858520508
      ],
      [
        "BUta",
        -9.34146213531494
      ],
      [
        "prajA",
        -9.347471237182615
      ],
      [
        "▁talk",
        -9.347710609436035
      ],
      [
        "ru",
        -9.348454475402832
      ],
      [
        "hf",
        -9.35452938079834
      ],
      [
        "▁re",
        -9.35915756225586
      ],
      [
        "▁hand",
        -9.36019515991211
      ],
      [
        "le",
        -9.36337947845459
      ],
      [
        "div",
        -9.365045547485352
      ],
      [
        "ers",
        -9.365641593933104
      ],
      [
        "▁All",
        -9.36820125579834
      ],
      [
        "h",
        -9.377020835876465
      ],
      [
        "yes",
        -9.37704849243164
      ],
      [
        "en",
        -9.380744934082031
      ],
      [
        "▁used",
        -9.381031036376951
      ],
      [
        "vana",
        -9.385201454162598
      ],
      [
        "vIra",
        -9.387330055236816
      ],
      [
        "▁E",
        -9.387701034545898
      ],
      [
        "▁read",
        -9.38847541809082
      ],
      [
        "▁under",
        -9.39198112487793
      ],
      [
        "▁left",
        -9.398287773132324
      ],
      [
        "man",
        -9.399198532104492
      ],
      [
        "ti",
        -9.406132698059082
      ],
      [
        "Sara",
        -9.41140842437744
      ],
      [
        "manu",
        -9.4142484664917
      ],
      [
        "▁BAvayat",
        -9.42043685913086
      ],
      [
        "M",
        -9.42086124420166
      ],
      [
        "w",
        -9.42475128173828
      ],
      [
        "vAta",
        -9.42502212524414
      ],
      [
        "▁un",
        -9.428138732910156
      ],
      [
        "strI",
        -9.430137634277344
      ],
      [
        "tejas",
        -9.43388843536377
      ],
      [
        "▁remember",
        -9.439624786376951
      ],
      [
        "or",
        -9.439826965332031
      ],
      [
        "▁keep",
        -9.440796852111816
      ],
      [
        "it",
        -9.44375228881836
      ],
      [
        "▁its",
        -9.443896293640137
      ],
      [
        "on",
        -9.444494247436523
      ],
      [
        "▁lok",
        -9.445425033569336
      ],
      [
        "▁Why",
        -9.447378158569336
      ],
      [
        "Df",
        -9.448131561279297
      ],
      [
        "▁Bavat",
        -9.453048706054688
      ],
      [
        "▁United",
        -9.453688621520996
      ],
      [
        "▁lot",
        -9.453747749328612
      ],
      [
        "▁number",
        -9.463567733764648
      ],
      [
        "▁money",
        -9.463627815246582
      ],
      [
        "▁T",
        -9.465486526489258
      ],
      [
        "gfha",
        -9.469096183776855
      ],
      [
        "to",
        -9.469173431396484
      ],
      [
        "add",
        -9.470623016357422
      ],
      [
        "pfTivI",
        -9.473776817321776
      ],
      [
        "pAla",
        -9.474122047424316
      ],
      [
        "▁Darm",
        -9.474963188171388
      ],
      [
        "▁end",
        -9.475069046020508
      ],
      [
        "C",
        -9.475119590759276
      ],
      [
        "▁dis",
        -9.480180740356444
      ],
      [
        "▁please",
        -9.48037052154541
      ],
      [
        "▁nothing",
        -9.4827880859375
      ],
      [
        "hula",
        -9.486743927001951
      ],
      [
        "▁world",
        -9.489558219909668
      ],
      [
        "devI",
        -9.489998817443848
      ],
      [
        "sf",
        -9.492265701293944
      ],
      [
        "▁every",
        -9.492316246032717
      ],
      [
        "sattva",
        -9.492375373840332
      ],
      [
        "▁black",
        -9.49328899383545
      ],
      [
        "izu",
        -9.493908882141112
      ],
      [
        "maDya",
        -9.494555473327637
      ],
      [
        "▁show",
        -9.496160507202148
      ],
      [
        "rAma",
        -9.496886253356934
      ],
      [
        "▁hundred",
        -9.500005722045898
      ],
      [
        "▁As",
        -9.501175880432127
      ],
      [
        "▁year",
        -9.502985000610352
      ],
      [
        "▁dat",
        -9.507404327392578
      ],
      [
        "▁course",
        -9.507830619812012
      ],
      [
        "▁Now",
        -9.511277198791504
      ],
      [
        "▁M",
        -9.515981674194336
      ],
      [
        "▁arT",
        -9.51649284362793
      ],
      [
        "▁d",
        -9.51815414428711
      ],
      [
        "diS",
        -9.518486976623535
      ],
      [
        "huqa",
        -9.519211769104004
      ],
      [
        "Ba",
        -9.51987075805664
      ],
      [
        "yA",
        -9.52003574371338
      ],
      [
        "an",
        -9.523149490356444
      ],
      [
        "kula",
        -9.524284362792969
      ],
      [
        "▁try",
        -9.527915000915527
      ],
      [
        "▁When",
        -9.528058052062988
      ],
      [
        "rCA",
        -9.528204917907717
      ],
      [
        "vIrya",
        -9.528264045715332
      ],
      [
        "ion",
        -9.529151916503906
      ],
      [
        "▁together",
        -9.529589653015137
      ],
      [
        "P",
        -9.530295372009276
      ],
      [
        "aNga",
        -9.530403137207031
      ],
      [
        "▁use",
        -9.53193473815918
      ],
      [
        "▁happened",
        -9.532368659973145
      ],
      [
        "▁Okay",
        -9.534000396728516
      ],
      [
        "▁known",
        -9.535658836364746
      ],
      [
        "▁enough",
        -9.536917686462402
      ],
      [
        "guru",
        -9.538692474365234
      ],
      [
        "la",
        -9.539402961730955
      ],
      [
        "suta",
        -9.54157829284668
      ],
      [
        "▁P",
        -9.542269706726074
      ],
      [
        "ba",
        -9.54473876953125
      ],
      [
        "▁until",
        -9.54515266418457
      ],
      [
        "▁vakt",
        -9.547649383544922
      ],
      [
        "ahar",
        -9.54788875579834
      ],
      [
        "ci",
        -9.550728797912598
      ],
      [
        "▁My",
        -9.555669784545898
      ],
      [
        "st",
        -9.558355331420898
      ],
      [
        "vizRu",
        -9.559054374694824
      ],
      [
        "▁best",
        -9.55943202972412
      ],
      [
        "▁died",
        -9.56223964691162
      ],
      [
        "pARqava",
        -9.563039779663086
      ],
      [
        "pAra",
        -9.563959121704102
      ],
      [
        "▁says",
        -9.564912796020508
      ],
      [
        "▁tv",
        -9.565707206726074
      ],
      [
        "▁upon",
        -9.56682300567627
      ],
      [
        "▁Mrs",
        -9.570695877075195
      ],
      [
        "pAda",
        -9.572331428527832
      ],
      [
        "▁vAcayat",
        -9.572345733642578
      ],
      [
        "▁isn",
        -9.57334327697754
      ],
      [
        "prI",
        -9.5736722946167
      ],
      [
        "▁eyes",
        -9.574735641479492
      ],
      [
        "vrata",
        -9.57529067993164
      ],
      [
        "janI",
        -9.576380729675291
      ],
      [
        "sUta",
        -9.577193260192873
      ],
      [
        "▁D",
        -9.577767372131348
      ],
      [
        "pada",
        -9.5783109664917
      ],
      [
        "▁wait",
        -9.578621864318848
      ],
      [
        "li",
        -9.579575538635254
      ],
      [
        "▁silver",
        -9.581486701965332
      ],
      [
        "▁bad",
        -9.58245086669922
      ],
      [
        "▁between",
        -9.583788871765137
      ],
      [
        "▁American",
        -9.584033012390137
      ],
      [
        "b",
        -9.585089683532717
      ],
      [
        "▁though",
        -9.585885047912598
      ],
      [
        "▁Don",
        -9.588478088378906
      ],
      [
        "Siras",
        -9.588950157165527
      ],
      [
        "▁asked",
        -9.589228630065918
      ],
      [
        "us",
        -9.59165859222412
      ],
      [
        "▁hafta",
        -9.591825485229492
      ],
      [
        "the",
        -9.592158317565918
      ],
      [
        "▁sorry",
        -9.59220027923584
      ],
      [
        "sUrya",
        -9.594341278076172
      ],
      [
        "▁morning",
        -9.595111846923828
      ],
      [
        "▁quite",
        -9.595582962036133
      ],
      [
        "▁alright",
        -9.595711708068848
      ],
      [
        "▁himself",
        -9.598740577697754
      ],
      [
        "▁dog",
        -9.60027313232422
      ],
      [
        "aSva",
        -9.6011962890625
      ],
      [
        "▁children",
        -9.60129451751709
      ],
      [
        "gA",
        -9.601862907409668
      ],
      [
        "▁turn",
        -9.603251457214355
      ],
      [
        "suKa",
        -9.60723114013672
      ],
      [
        "jYAna",
        -9.608054161071776
      ],
      [
        "mantra",
        -9.608929634094238
      ],
      [
        "▁hear",
        -9.60942268371582
      ],
      [
        "1:",
        -9.61157512664795
      ],
      [
        "yama",
        -9.613669395446776
      ],
      [
        "▁Then",
        -9.614239692687988
      ],
      [
        "nfpa",
        -9.614367485046388
      ],
      [
        "▁karizya",
        -9.614788055419922
      ],
      [
        "veda",
        -9.61732292175293
      ],
      [
        "agra",
        -9.620633125305176
      ],
      [
        "▁door",
        -9.62107753753662
      ],
      [
        "▁feel",
        -9.622289657592772
      ],
      [
        "▁New",
        -9.622983932495115
      ],
      [
        "rAja",
        -9.62319278717041
      ],
      [
        "▁To",
        -9.623579978942873
      ],
      [
        "▁side",
        -9.632097244262695
      ],
      [
        "mUla",
        -9.63228702545166
      ],
      [
        "varRa",
        -9.636157989501951
      ],
      [
        "▁coming",
        -9.636452674865724
      ],
      [
        "rudra",
        -9.638927459716797
      ],
      [
        "▁face",
        -9.639474868774414
      ],
      [
        "▁hm",
        -9.639680862426758
      ],
      [
        "BAga",
        -9.639958381652832
      ],
      [
        "▁once",
        -9.64031982421875
      ],
      [
        "vasu",
        -9.641608238220217
      ],
      [
        "ar",
        -9.64177131652832
      ],
      [
        "▁both",
        -9.643072128295898
      ],
      [
        "vAyu",
        -9.648127555847168
      ],
      [
        "▁leave",
        -9.651582717895508
      ],
      [
        "varza",
        -9.651847839355469
      ],
      [
        "▁King",
        -9.651885032653809
      ],
      [
        "▁wanted",
        -9.653141975402832
      ],
      [
        "gaRa",
        -9.653268814086914
      ],
      [
        "smf",
        -9.657387733459473
      ],
      [
        "▁open",
        -9.657797813415527
      ],
      [
        "▁mind",
        -9.659683227539062
      ],
      [
        "▁born",
        -9.660133361816406
      ],
      [
        "▁seen",
        -9.660642623901367
      ],
      [
        "▁against",
        -9.66127109527588
      ],
      [
        "▁At",
        -9.661924362182615
      ],
      [
        "▁without",
        -9.662001609802246
      ],
      [
        "▁few",
        -9.663310050964355
      ],
      [
        "karRa",
        -9.663697242736816
      ],
      [
        "▁knew",
        -9.664908409118652
      ],
      [
        "▁hard",
        -9.665342330932615
      ],
      [
        "▁1",
        -9.67076301574707
      ],
      [
        "and",
        -9.672351837158203
      ],
      [
        "\".",
        -9.672718048095703
      ],
      [
        "▁today",
        -9.67311191558838
      ],
      [
        "▁States",
        -9.674370765686035
      ],
      [
        "▁Hey",
        -9.676395416259766
      ],
      [
        "▁pretty",
        -9.676544189453123
      ],
      [
        "▁second",
        -9.676923751831056
      ],
      [
        "▁For",
        -9.677868843078612
      ],
      [
        "▁heard",
        -9.679341316223145
      ],
      [
        "▁looking",
        -9.679463386535645
      ],
      [
        "bAhu",
        -9.680736541748049
      ],
      [
        "devatA",
        -9.684112548828123
      ],
      [
        "est",
        -9.684693336486816
      ],
      [
        "▁story",
        -9.685032844543455
      ],
      [
        "▁Mark",
        -9.68676471710205
      ],
      [
        "▁set",
        -9.687562942504885
      ],
      [
        "▁18",
        -9.688634872436523
      ],
      [
        "▁different",
        -9.688968658447266
      ],
      [
        "▁table",
        -9.689014434814451
      ],
      [
        "Baya",
        -9.690128326416016
      ],
      [
        "▁each",
        -9.690300941467283
      ],
      [
        "▁top",
        -9.69196891784668
      ],
      [
        "BAva",
        -9.697308540344238
      ],
      [
        "indriya",
        -9.697649002075195
      ],
      [
        "▁2",
        -9.698009490966797
      ],
      [
        "nAman",
        -9.700292587280272
      ],
      [
        "Sabda",
        -9.700857162475586
      ],
      [
        "deSa",
        -9.70333480834961
      ],
      [
        "▁bit",
        -9.707140922546388
      ],
      [
        "▁whole",
        -9.708075523376465
      ],
      [
        "▁young",
        -9.7083101272583
      ],
      [
        "▁far",
        -9.710476875305176
      ],
      [
        "▁astayat",
        -9.71064567565918
      ],
      [
        "▁real",
        -9.711912155151367
      ],
      [
        "budDi",
        -9.712361335754396
      ],
      [
        "▁everything",
        -9.713295936584473
      ],
      [
        "▁watch",
        -9.714502334594728
      ],
      [
        "mAtf",
        -9.718790054321287
      ],
      [
        "▁g",
        -9.720100402832031
      ],
      [
        "mana",
        -9.72194004058838
      ],
      [
        "▁getting",
        -9.722073554992676
      ],
      [
        "SarIra",
        -9.72227382659912
      ],
      [
        "Gfta",
        -9.723011016845703
      ],
      [
        "▁yet",
        -9.723918914794922
      ],
      [
        "prajApati",
        -9.724769592285156
      ],
      [
        "▁F",
        -9.725678443908691
      ],
      [
        "ran",
        -9.72946071624756
      ],
      [
        "▁agni",
        -9.73047924041748
      ],
      [
        "dvija",
        -9.733166694641112
      ],
      [
        "BUmi",
        -9.73377799987793
      ],
      [
        "▁3",
        -9.73482894897461
      ],
      [
        "▁looked",
        -9.735986709594728
      ],
      [
        "▁Let",
        -9.736858367919922
      ],
      [
        "The",
        -9.737011909484863
      ],
      [
        "▁stop",
        -9.737207412719728
      ],
      [
        "▁talking",
        -9.737957000732422
      ],
      [
        "▁thank",
        -9.737987518310549
      ],
      [
        "▁bed",
        -9.738405227661133
      ],
      [
        "▁base",
        -9.738576889038086
      ],
      [
        "hari",
        -9.739141464233398
      ],
      [
        "▁God",
        -9.740047454833984
      ],
      [
        "ur",
        -9.740524291992188
      ],
      [
        "▁gave",
        -9.74272918701172
      ],
      [
        "▁shall",
        -9.744840621948242
      ],
      [
        "jala",
        -9.7467041015625
      ],
      [
        "vacana",
        -9.74689483642578
      ],
      [
        "g",
        -9.746905326843262
      ],
      [
        "▁p",
        -9.748726844787598
      ],
      [
        "duHKa",
        -9.749086380004885
      ],
      [
        "▁Ross",
        -9.751428604125977
      ],
      [
        "▁stay",
        -9.752673149108888
      ],
      [
        "vftu",
        -9.753579139709473
      ],
      [
        "satya",
        -9.754195213317873
      ],
      [
        "▁write",
        -9.754743576049805
      ],
      [
        "arha",
        -9.756032943725586
      ],
      [
        "el",
        -9.75687026977539
      ],
      [
        "▁On",
        -9.75715446472168
      ],
      [
        "▁later",
        -9.757376670837402
      ],
      [
        "▁believe",
        -9.75832462310791
      ],
      [
        "▁wasn",
        -9.758506774902344
      ],
      [
        "▁putr",
        -9.761801719665527
      ],
      [
        "▁city",
        -9.76402187347412
      ],
      [
        "▁six",
        -9.765241622924805
      ],
      [
        "ic",
        -9.765318870544434
      ],
      [
        "▁o",
        -9.765416145324709
      ],
      [
        "▁Come",
        -9.76565647125244
      ],
      [
        "▁sit",
        -9.76742172241211
      ],
      [
        "▁food",
        -9.768754005432127
      ],
      [
        "viDi",
        -9.769177436828612
      ],
      [
        "▁Go",
        -9.769536972045898
      ],
      [
        "▁high",
        -9.77195167541504
      ],
      [
        "Aditya",
        -9.772835731506348
      ],
      [
        "viza",
        -9.773821830749512
      ],
      [
        "hasta",
        -9.773955345153809
      ],
      [
        "▁maybe",
        -9.776202201843262
      ],
      [
        "▁light",
        -9.77695369720459
      ],
      [
        "mAtra",
        -9.777582168579102
      ],
      [
        "▁O",
        -9.778937339782717
      ],
      [
        "kArya",
        -9.780113220214844
      ],
      [
        "ne",
        -9.780929565429688
      ],
      [
        "vfkza",
        -9.782081604003906
      ],
      [
        "vAkya",
        -9.78229808807373
      ],
      [
        "ro",
        -9.787935256958008
      ],
      [
        "▁family",
        -9.789277076721191
      ],
      [
        "▁goes",
        -9.790983200073242
      ],
      [
        "de",
        -9.791055679321287
      ],
      [
        "maDu",
        -9.7911376953125
      ],
      [
        "▁Miss",
        -9.79117202758789
      ],
      [
        "▁small",
        -9.79164218902588
      ],
      [
        "▁gacCat",
        -9.791827201843262
      ],
      [
        "▁round",
        -9.79304313659668
      ],
      [
        "pitta",
        -9.794588088989258
      ],
      [
        "▁red",
        -9.796405792236328
      ],
      [
        "vajra",
        -9.797059059143066
      ],
      [
        "▁dear",
        -9.797587394714355
      ],
      [
        "▁zzz",
        -9.797680854797363
      ],
      [
        "▁live",
        -9.799063682556152
      ],
      [
        "▁having",
        -9.799195289611816
      ],
      [
        "E",
        -9.80285930633545
      ],
      [
        "▁G",
        -9.804433822631836
      ],
      [
        "▁voice",
        -9.805092811584473
      ],
      [
        "Sakti",
        -9.809046745300291
      ],
      [
        "ation",
        -9.80947494506836
      ],
      [
        "▁half",
        -9.80986499786377
      ],
      [
        "no",
        -9.812149047851562
      ],
      [
        "Ayus",
        -9.813526153564451
      ],
      [
        "cause",
        -9.815278053283691
      ],
      [
        "▁since",
        -9.815462112426758
      ],
      [
        "▁friend",
        -9.815912246704102
      ],
      [
        "▁care",
        -9.81620979309082
      ],
      [
        "yuH",
        -9.820164680480955
      ],
      [
        "▁days",
        -9.820340156555176
      ],
      [
        "paSa",
        -9.821989059448242
      ],
      [
        "nAga",
        -9.822010040283203
      ],
      [
        "▁erm",
        -9.822046279907228
      ],
      [
        "▁K",
        -9.823522567749023
      ],
      [
        "gati",
        -9.82669162750244
      ],
      [
        "raRa",
        -9.82896614074707
      ],
      [
        "▁Just",
        -9.82996654510498
      ],
      [
        "anti",
        -9.830438613891602
      ],
      [
        "▁N",
        -9.83139705657959
      ],
      [
        "pU",
        -9.832751274108888
      ],
      [
        "syati",
        -9.833114624023438
      ],
      [
        "kfzRa",
        -9.833745956420898
      ],
      [
        "▁Adi",
        -9.833984375
      ],
      [
        "▁gone",
        -9.83504867553711
      ],
      [
        "▁Mom",
        -9.835415840148926
      ],
      [
        "▁girls",
        -9.836886405944824
      ],
      [
        "px",
        -9.837169647216797
      ],
      [
        "asura",
        -9.83745002746582
      ],
      [
        "▁soon",
        -9.837603569030762
      ],
      [
        "pApa",
        -9.841411590576172
      ],
      [
        "▁started",
        -9.841761589050291
      ],
      [
        "garBa",
        -9.843985557556152
      ],
      [
        "em",
        -9.845266342163086
      ],
      [
        "ganDa",
        -9.846779823303224
      ],
      [
        "▁i",
        -9.84861660003662
      ],
      [
        "pUla",
        -9.849627494812012
      ],
      [
        "ter",
        -9.849748611450195
      ],
      [
        "ty",
        -9.850122451782228
      ],
      [
        "▁THE",
        -9.851807594299316
      ],
      [
        "▁aMhat",
        -9.855626106262209
      ],
      [
        "banDa",
        -9.855756759643556
      ],
      [
        "yudDa",
        -9.860285758972168
      ],
      [
        "▁heart",
        -9.860411643981934
      ],
      [
        "▁word",
        -9.861035346984863
      ],
      [
        "▁Can",
        -9.864950180053713
      ],
      [
        "▁hands",
        -9.866079330444336
      ],
      [
        "hetu",
        -9.868602752685549
      ],
      [
        "▁fire",
        -9.870561599731444
      ],
      [
        "darSana",
        -9.870857238769531
      ],
      [
        "svarga",
        -9.871576309204102
      ],
      [
        "▁ready",
        -9.873370170593262
      ],
      [
        "ry",
        -9.874886512756348
      ],
      [
        "▁saying",
        -9.875957489013672
      ],
      [
        "idi",
        -9.877662658691406
      ],
      [
        "▁ras",
        -9.879054069519045
      ],
      [
        "▁ate",
        -9.879435539245604
      ],
      [
        "▁stick",
        -9.882943153381348
      ],
      [
        "▁hungry",
        -9.88344955444336
      ],
      [
        "▁already",
        -9.883841514587402
      ],
      [
        "W",
        -9.884578704833984
      ],
      [
        "▁piece",
        -9.885866165161133
      ],
      [
        "able",
        -9.885950088500977
      ],
      [
        "K",
        -9.886130332946776
      ],
      [
        "lakzaRa",
        -9.887370109558104
      ],
      [
        "▁c",
        -9.888663291931152
      ],
      [
        "jo",
        -9.889562606811523
      ],
      [
        "sTAna",
        -9.890447616577148
      ],
      [
        "▁town",
        -9.891176223754885
      ],
      [
        "ness",
        -9.89260196685791
      ],
      [
        "vfY",
        -9.892904281616213
      ],
      [
        "G",
        -9.893562316894531
      ],
      [
        "▁asti",
        -9.893658638000488
      ],
      [
        "It",
        -9.894010543823242
      ],
      [
        "ka",
        -9.894067764282228
      ],
      [
        "kAraRa",
        -9.895852088928224
      ],
      [
        "▁making",
        -9.89716911315918
      ],
      [
        "sate",
        -9.89744758605957
      ],
      [
        "B",
        -9.898096084594728
      ],
      [
        "nta",
        -9.89885711669922
      ],
      [
        "▁L",
        -9.899406433105469
      ],
      [
        "▁wrong",
        -9.900375366210938
      ],
      [
        "ce",
        -9.902426719665527
      ],
      [
        "▁Bavizyat",
        -9.90284252166748
      ],
      [
        "deha",
        -9.903857231140137
      ],
      [
        "▁son",
        -9.90407371520996
      ],
      [
        "ling",
        -9.90504550933838
      ],
      [
        "paci",
        -9.906527519226074
      ],
      [
        "pAtra",
        -9.907428741455078
      ],
      [
        "▁almost",
        -9.907721519470217
      ],
      [
        "▁Ma",
        -9.90992259979248
      ],
      [
        "yuDizWira",
        -9.910717010498049
      ],
      [
        "dina",
        -9.911483764648438
      ],
      [
        "▁ah",
        -9.913308143615724
      ],
      [
        "tIrTa",
        -9.9146089553833
      ],
      [
        "▁hey",
        -9.915224075317385
      ],
      [
        "▁yajY",
        -9.915578842163086
      ],
      [
        "▁R",
        -9.916693687438965
      ],
      [
        "kzaya",
        -9.91706657409668
      ],
      [
        "▁His",
        -9.918130874633787
      ],
      [
        "co",
        -9.918524742126465
      ],
      [
        "▁t",
        -9.919792175292969
      ],
      [
        "▁W",
        -9.920035362243652
      ],
      [
        "Dana",
        -9.926908493041992
      ],
      [
        "BrAtf",
        -9.927546501159668
      ],
      [
        "▁country",
        -9.92842960357666
      ],
      [
        "▁trying",
        -9.928462982177734
      ],
      [
        "mAsa",
        -9.929306030273438
      ],
      [
        "COL",
        -9.929705619812012
      ],
      [
        "ri",
        -9.93116855621338
      ],
      [
        "Candas",
        -9.93260383605957
      ],
      [
        "kaPa",
        -9.933083534240724
      ],
      [
        "BArata",
        -9.93448543548584
      ],
      [
        "▁person",
        -9.934822082519531
      ],
      [
        "puwa",
        -9.93641471862793
      ],
      [
        "puzpa",
        -9.936982154846191
      ],
      [
        "roga",
        -9.937424659729004
      ],
      [
        "iwa",
        -9.93997287750244
      ],
      [
        "jiri",
        -9.940910339355469
      ],
      [
        "ISvara",
        -9.94101905822754
      ],
      [
        "um",
        -9.94177532196045
      ],
      [
        "▁rUp",
        -9.942731857299805
      ],
      [
        "vacas",
        -9.942914962768556
      ],
      [
        "▁start",
        -9.945587158203123
      ],
      [
        "pi",
        -9.94898796081543
      ],
      [
        "rAjya",
        -9.949041366577148
      ],
      [
        "fzaBa",
        -9.94935417175293
      ],
      [
        "ge",
        -9.949801445007324
      ],
      [
        "You",
        -9.950399398803713
      ],
      [
        "cha",
        -9.950678825378418
      ],
      [
        "▁song",
        -9.950937271118164
      ],
      [
        "igi",
        -9.95213794708252
      ],
      [
        "Bi",
        -9.953561782836914
      ],
      [
        "av",
        -9.95357608795166
      ],
      [
        "rAkzasa",
        -9.95446491241455
      ],
      [
        "▁paSyat",
        -9.954764366149902
      ],
      [
        "▁John",
        -9.957846641540527
      ],
      [
        "ity",
        -9.95785903930664
      ],
      [
        "he",
        -9.959831237792969
      ],
      [
        "▁age",
        -9.9636812210083
      ],
      [
        "▁fine",
        -9.964255332946776
      ],
      [
        "ent",
        -9.964703559875488
      ],
      [
        "▁Are",
        -9.966243743896484
      ],
      [
        "▁run",
        -9.966582298278809
      ],
      [
        "▁St",
        -9.967695236206056
      ],
      [
        "▁became",
        -9.969382286071776
      ],
      [
        "▁means",
        -9.969892501831056
      ],
      [
        "▁paper",
        -9.9707670211792
      ],
      [
        "▁game",
        -9.970898628234863
      ],
      [
        "▁hot",
        -9.97213649749756
      ],
      [
        "▁cat",
        -9.972431182861328
      ],
      [
        "carba",
        -9.972728729248049
      ],
      [
        "▁wouldn",
        -9.973518371582031
      ],
      [
        "▁Not",
        -9.973577499389648
      ],
      [
        "jivi",
        -9.974336624145508
      ],
      [
        "kuru",
        -9.975417137145996
      ],
      [
        "▁woman",
        -9.975494384765623
      ],
      [
        "▁bring",
        -9.976031303405762
      ],
      [
        "▁moment",
        -9.977012634277344
      ],
      [
        "aMSa",
        -9.977654457092283
      ],
      [
        "▁phone",
        -9.977807998657228
      ],
      [
        "ton",
        -9.97812843322754
      ],
      [
        "Ati",
        -9.980228424072266
      ],
      [
        "▁actually",
        -9.980462074279783
      ],
      [
        "tattva",
        -9.981311798095703
      ],
      [
        "ye",
        -9.981945037841797
      ],
      [
        "Siva",
        -9.982532501220703
      ],
      [
        "mAna",
        -9.982943534851074
      ],
      [
        "pUr",
        -9.985977172851562
      ],
      [
        "▁hold",
        -9.98641586303711
      ],
      [
        "vara",
        -9.986993789672852
      ],
      [
        "▁beautiful",
        -9.987848281860352
      ],
      [
        "▁raT",
        -9.988241195678713
      ],
      [
        "▁guess",
        -9.988303184509276
      ],
      [
        "F",
        -9.988404273986816
      ],
      [
        "sidDi",
        -9.989798545837402
      ],
      [
        "muci",
        -9.990315437316896
      ],
      [
        "▁kAm",
        -9.990608215332031
      ],
      [
        "cakzus",
        -9.99203109741211
      ],
      [
        "▁child",
        -9.993426322937012
      ],
      [
        "▁white",
        -9.993852615356444
      ],
      [
        "ivi",
        -9.994621276855469
      ],
      [
        "▁ball",
        -9.995580673217772
      ],
      [
        "mftyu",
        -9.996041297912598
      ],
      [
        "ist",
        -9.99669361114502
      ],
      [
        "▁began",
        -9.997465133666992
      ],
      [
        "▁looks",
        -9.99892807006836
      ],
      [
        "ratna",
        -10.000210762023926
      ],
      [
        "▁twenty",
        -10.00045680999756
      ],
      [
        "▁along",
        -10.001638412475586
      ],
      [
        "mAMsa",
        -10.00226879119873
      ],
      [
        "▁guy",
        -10.004340171813965
      ],
      [
        "pArTa",
        -10.006436347961426
      ],
      [
        "muca",
        -10.008755683898926
      ],
      [
        "▁One",
        -10.010398864746094
      ],
      [
        "bIja",
        -10.010424613952637
      ],
      [
        "▁understand",
        -10.010638236999512
      ],
      [
        "▁mm",
        -10.010663032531738
      ],
      [
        "▁yellow",
        -10.012286186218262
      ],
      [
        "ment",
        -10.016387939453123
      ],
      [
        "▁Where",
        -10.02109718322754
      ],
      [
        "▁idea",
        -10.022244453430176
      ],
      [
        "▁rAjA",
        -10.022453308105469
      ],
      [
        "▁4",
        -10.022994041442873
      ],
      [
        "kzIra",
        -10.023397445678713
      ],
      [
        "▁death",
        -10.02399444580078
      ],
      [
        "be",
        -10.024904251098633
      ],
      [
        "▁rest",
        -10.025808334350586
      ],
      [
        "dravya",
        -10.026141166687012
      ],
      [
        "yata",
        -10.02657699584961
      ],
      [
        "▁Sarah",
        -10.027629852294922
      ],
      [
        "cx",
        -10.029574394226074
      ],
      [
        "BIzma",
        -10.02983570098877
      ],
      [
        "Beda",
        -10.030912399291992
      ],
      [
        "▁U",
        -10.031468391418455
      ],
      [
        "▁guys",
        -10.03152847290039
      ],
      [
        "vadi",
        -10.03396701812744
      ],
      [
        "▁pay",
        -10.0344877243042
      ],
      [
        "lo",
        -10.034567832946776
      ],
      [
        "▁lost",
        -10.036060333251951
      ],
      [
        "▁sound",
        -10.038287162780762
      ],
      [
        "▁blue",
        -10.038631439208984
      ],
      [
        "Oh",
        -10.039724349975586
      ],
      [
        "vf",
        -10.039956092834473
      ],
      [
        "▁move",
        -10.040090560913086
      ],
      [
        "iKi",
        -10.04023265838623
      ],
      [
        "▁party",
        -10.040614128112791
      ],
      [
        "hfdaya",
        -10.040830612182615
      ],
      [
        "nti",
        -10.042323112487791
      ],
      [
        "▁cut",
        -10.042555809020996
      ],
      [
        "▁Thank",
        -10.04293441772461
      ],
      [
        "yoni",
        -10.043508529663086
      ],
      [
        "ch",
        -10.043704986572266
      ],
      [
        "astra",
        -10.044099807739258
      ],
      [
        "2:",
        -10.04465675354004
      ],
      [
        "SIla",
        -10.047529220581056
      ],
      [
        "sa",
        -10.048480987548828
      ],
      [
        "▁turned",
        -10.049199104309082
      ],
      [
        "Barata",
        -10.049272537231444
      ],
      [
        "varuRa",
        -10.050296783447266
      ],
      [
        "▁happy",
        -10.050570487976074
      ],
      [
        "▁friends",
        -10.05126953125
      ],
      [
        "sura",
        -10.051416397094728
      ],
      [
        "il",
        -10.053330421447754
      ],
      [
        "cUrRa",
        -10.053872108459473
      ],
      [
        "arDa",
        -10.054729461669922
      ],
      [
        "▁Mot",
        -10.056754112243652
      ],
      [
        "ted",
        -10.058979034423828
      ],
      [
        "pattra",
        -10.059983253479004
      ],
      [
        "viSeza",
        -10.06106662750244
      ],
      [
        "manuzya",
        -10.06181812286377
      ],
      [
        "ul",
        -10.062536239624023
      ],
      [
        "iKa",
        -10.062751770019531
      ],
      [
        "▁kAl",
        -10.062793731689451
      ],
      [
        "▁hope",
        -10.06335163116455
      ],
      [
        "▁brought",
        -10.06436538696289
      ],
      [
        "Ajya",
        -10.065139770507812
      ],
      [
        "▁Who",
        -10.06624698638916
      ],
      [
        "▁Right",
        -10.066302299499512
      ],
      [
        "▁playing",
        -10.066518783569336
      ],
      [
        "saMvatsara",
        -10.066656112670898
      ],
      [
        "▁poor",
        -10.066770553588867
      ],
      [
        "▁during",
        -10.068714141845703
      ],
      [
        "▁Adam",
        -10.069168090820312
      ],
      [
        "udaka",
        -10.069334983825684
      ],
      [
        "▁brother",
        -10.071121215820312
      ],
      [
        "▁words",
        -10.07142162322998
      ],
      [
        "droRa",
        -10.071741104125977
      ],
      [
        "▁mine",
        -10.072013854980469
      ],
      [
        "havis",
        -10.072454452514648
      ],
      [
        "▁sir",
        -10.07255744934082
      ],
      [
        "▁close",
        -10.072676658630373
      ],
      [
        "kanyA",
        -10.073185920715332
      ],
      [
        "▁full",
        -10.07388687133789
      ],
      [
        "▁week",
        -10.07563304901123
      ],
      [
        "payas",
        -10.076157569885254
      ],
      [
        "vidyA",
        -10.076579093933104
      ],
      [
        "liNga",
        -10.07723331451416
      ],
      [
        "du",
        -10.077842712402344
      ],
      [
        "▁ten",
        -10.078930854797363
      ],
      [
        "▁played",
        -10.079194068908691
      ],
      [
        "▁Look",
        -10.079771041870115
      ],
      [
        "▁uhhuh",
        -10.079833030700684
      ],
      [
        "pe",
        -10.080559730529783
      ],
      [
        "▁matter",
        -10.085206031799316
      ],
      [
        "tEla",
        -10.08645725250244
      ],
      [
        "jIva",
        -10.087930679321287
      ],
      [
        "▁yacCat",
        -10.091070175170898
      ],
      [
        "un",
        -10.09243392944336
      ],
      [
        "▁sleep",
        -10.09256649017334
      ],
      [
        "▁brAhmaR",
        -10.094035148620604
      ],
      [
        "▁Sir",
        -10.09847354888916
      ],
      [
        "parvata",
        -10.098796844482422
      ],
      [
        "▁sort",
        -10.100481033325195
      ],
      [
        "ting",
        -10.101760864257812
      ],
      [
        "mada",
        -10.106016159057615
      ],
      [
        "▁near",
        -10.106239318847656
      ],
      [
        "▁taken",
        -10.108872413635254
      ],
      [
        "▁movie",
        -10.11033821105957
      ],
      [
        "GLO",
        -10.110942840576172
      ],
      [
        "zyati",
        -10.112762451171877
      ],
      [
        "▁comes",
        -10.113752365112305
      ],
      [
        "▁point",
        -10.113947868347168
      ],
      [
        "▁rAjAn",
        -10.114334106445312
      ],
      [
        "saMSaya",
        -10.114435195922852
      ],
      [
        "citta",
        -10.116286277770996
      ],
      [
        "kriyA",
        -10.117857933044434
      ],
      [
        "▁stuff",
        -10.11990737915039
      ],
      [
        "j",
        -10.120142936706545
      ],
      [
        "▁fell",
        -10.121267318725586
      ],
      [
        "▁minute",
        -10.122714042663574
      ],
      [
        "sAman",
        -10.123261451721191
      ],
      [
        "▁boys",
        -10.123529434204102
      ],
      [
        "mitra",
        -10.124919891357422
      ],
      [
        "▁English",
        -10.127245903015137
      ],
      [
        "ies",
        -10.127325057983398
      ],
      [
        "▁able",
        -10.128241539001465
      ],
      [
        "▁times",
        -10.128639221191406
      ],
      [
        "▁vindat",
        -10.130237579345703
      ],
      [
        "pat",
        -10.130520820617676
      ],
      [
        "rAtri",
        -10.131569862365724
      ],
      [
        "▁veda",
        -10.131988525390623
      ],
      [
        "▁herself",
        -10.13540267944336
      ],
      [
        "ut",
        -10.136370658874512
      ],
      [
        "▁e",
        -10.139657974243164
      ],
      [
        "▁st",
        -10.14001178741455
      ],
      [
        "mUtra",
        -10.142311096191406
      ],
      [
        "▁puruz",
        -10.142871856689451
      ],
      [
        "▁felt",
        -10.144108772277832
      ],
      [
        "MEL",
        -10.144556045532228
      ],
      [
        "do",
        -10.144827842712402
      ],
      [
        "▁ma",
        -10.147356986999512
      ],
      [
        "jvara",
        -10.153714179992676
      ],
      [
        "▁hit",
        -10.155938148498535
      ],
      [
        "▁someone",
        -10.15612506866455
      ],
      [
        "▁myself",
        -10.156177520751951
      ],
      [
        "▁hair",
        -10.157116889953612
      ],
      [
        "▁Did",
        -10.15732479095459
      ],
      [
        "heman",
        -10.158053398132324
      ],
      [
        "▁Re",
        -10.15907096862793
      ],
      [
        "▁fun",
        -10.15925407409668
      ],
      [
        "▁Her",
        -10.159890174865724
      ],
      [
        "loha",
        -10.16148853302002
      ],
      [
        "sneha",
        -10.161846160888672
      ],
      [
        "▁gotta",
        -10.16282844543457
      ],
      [
        "▁r",
        -10.163209915161133
      ],
      [
        "▁Ba",
        -10.163668632507324
      ],
      [
        "▁letter",
        -10.163739204406738
      ],
      [
        "pARi",
        -10.166553497314451
      ],
      [
        "▁floor",
        -10.166669845581056
      ],
      [
        "▁hi",
        -10.16677951812744
      ],
      [
        "Su",
        -10.166966438293455
      ],
      [
        "▁couldn",
        -10.170159339904783
      ],
      [
        "tanu",
        -10.170534133911133
      ],
      [
        "▁sent",
        -10.173829078674316
      ],
      [
        "▁seven",
        -10.175033569335938
      ],
      [
        "Cidra",
        -10.175237655639648
      ],
      [
        "L",
        -10.176373481750488
      ],
      [
        "son",
        -10.176658630371094
      ],
      [
        "less",
        -10.177101135253906
      ],
      [
        "pura",
        -10.177858352661133
      ],
      [
        "up",
        -10.178669929504396
      ],
      [
        "▁fact",
        -10.179269790649414
      ],
      [
        "▁De",
        -10.179553031921388
      ],
      [
        "▁seemed",
        -10.179856300354004
      ],
      [
        "arjuna",
        -10.180270195007324
      ],
      [
        "▁drink",
        -10.180590629577637
      ],
      [
        "▁France",
        -10.180747985839844
      ],
      [
        "ati",
        -10.181525230407717
      ],
      [
        "vraja",
        -10.182074546813965
      ],
      [
        "▁ago",
        -10.182329177856444
      ],
      [
        "▁box",
        -10.18262004852295
      ],
      [
        "ous",
        -10.183267593383787
      ],
      [
        "kzaRa",
        -10.184826850891112
      ],
      [
        "▁After",
        -10.185108184814451
      ],
      [
        "rakzas",
        -10.18828010559082
      ],
      [
        "▁10",
        -10.191655158996582
      ],
      [
        "▁color",
        -10.1920747756958
      ],
      [
        "▁asizyat",
        -10.1923828125
      ],
      [
        "▁Me",
        -10.192486763000488
      ],
      [
        "nf",
        -10.192793846130373
      ],
      [
        "▁probably",
        -10.193264961242676
      ],
      [
        "▁pounds",
        -10.193315505981444
      ],
      [
        "▁Good",
        -10.193535804748535
      ],
      [
        "▁front",
        -10.19377899169922
      ],
      [
        "▁hat",
        -10.194162368774414
      ],
      [
        "Sakra",
        -10.194463729858398
      ],
      [
        "▁bear",
        -10.19636058807373
      ],
      [
        "▁sea",
        -10.198186874389648
      ],
      [
        "▁milk",
        -10.198478698730469
      ],
      [
        "▁County",
        -10.199626922607422
      ],
      [
        "bARa",
        -10.200822830200195
      ],
      [
        "▁prAR",
        -10.201716423034668
      ],
      [
        "▁Paul",
        -10.201830863952637
      ],
      [
        "▁dead",
        -10.20472812652588
      ],
      [
        "mo",
        -10.205066680908203
      ],
      [
        "▁state",
        -10.206077575683594
      ],
      [
        "▁con",
        -10.206587791442873
      ],
      [
        "▁behind",
        -10.207282066345217
      ],
      [
        "▁wants",
        -10.208924293518066
      ],
      [
        "▁guR",
        -10.209205627441406
      ],
      [
        "qula",
        -10.209277153015137
      ],
      [
        "▁rather",
        -10.211166381835938
      ],
      [
        "Seza",
        -10.212786674499512
      ],
      [
        "▁question",
        -10.21316146850586
      ],
      [
        "ARi",
        -10.21435832977295
      ],
      [
        "▁Hi",
        -10.21485424041748
      ],
      [
        "patnI",
        -10.214994430541992
      ],
      [
        "BAryA",
        -10.215483665466309
      ],
      [
        "▁m",
        -10.216358184814451
      ],
      [
        "▁green",
        -10.216408729553224
      ],
      [
        "▁inside",
        -10.216486930847168
      ],
      [
        "daRqa",
        -10.216876029968262
      ],
      [
        "▁outside",
        -10.216985702514648
      ],
      [
        "▁makes",
        -10.217656135559082
      ],
      [
        "vaDa",
        -10.218563079833984
      ],
      [
        "▁Bro",
        -10.218910217285156
      ],
      [
        "▁J",
        -10.218976020812988
      ],
      [
        "hotf",
        -10.21951961517334
      ],
      [
        "born",
        -10.219630241394045
      ],
      [
        "▁lived",
        -10.21990966796875
      ],
      [
        "▁fall",
        -10.22091007232666
      ],
      [
        "etAm",
        -10.221652030944824
      ],
      [
        "▁b",
        -10.222562789916992
      ],
      [
        "V",
        -10.222678184509276
      ],
      [
        "▁Be",
        -10.223106384277344
      ],
      [
        "▁wand",
        -10.223432540893556
      ],
      [
        "yaSas",
        -10.224751472473145
      ],
      [
        "▁September",
        -10.227616310119627
      ],
      [
        "▁lady",
        -10.229225158691406
      ],
      [
        "▁ya",
        -10.232367515563965
      ],
      [
        "▁picture",
        -10.23310375213623
      ],
      [
        "nina",
        -10.234496116638184
      ],
      [
        "men",
        -10.234655380249023
      ],
      [
        "bu",
        -10.23546314239502
      ],
      [
        "▁women",
        -10.23587703704834
      ],
      [
        "▁war",
        -10.236262321472168
      ],
      [
        "▁hurt",
        -10.236393928527832
      ],
      [
        "▁meet",
        -10.238256454467772
      ],
      [
        "▁nar",
        -10.238289833068848
      ],
      [
        "▁true",
        -10.23872184753418
      ],
      [
        "▁Dr",
        -10.240208625793455
      ],
      [
        "▁music",
        -10.240350723266602
      ],
      [
        "janman",
        -10.241211891174316
      ],
      [
        "ful",
        -10.242085456848145
      ],
      [
        "Danus",
        -10.244166374206545
      ],
      [
        "▁job",
        -10.2444429397583
      ],
      [
        "▁dIdAMsat",
        -10.24456024169922
      ],
      [
        "pakza",
        -10.245150566101074
      ],
      [
        "▁minutes",
        -10.245978355407717
      ],
      [
        "▁haven",
        -10.246297836303713
      ],
      [
        "▁stand",
        -10.247642517089844
      ],
      [
        "cakra",
        -10.24777889251709
      ],
      [
        "▁yep",
        -10.247982025146484
      ],
      [
        "ary",
        -10.249289512634276
      ],
      [
        "ine",
        -10.250869750976562
      ],
      [
        "▁case",
        -10.251382827758787
      ],
      [
        "▁La",
        -10.251532554626465
      ],
      [
        "arka",
        -10.25190258026123
      ],
      [
        "\",",
        -10.254072189331056
      ],
      [
        "Soka",
        -10.254215240478516
      ],
      [
        "▁pick",
        -10.254419326782228
      ],
      [
        "▁sun",
        -10.254472732543944
      ],
      [
        "▁January",
        -10.255664825439451
      ],
      [
        "▁alone",
        -10.256574630737305
      ],
      [
        "▁van",
        -10.256613731384276
      ],
      [
        "▁pad",
        -10.257316589355469
      ],
      [
        "izyanti",
        -10.25904941558838
      ],
      [
        "amfta",
        -10.259827613830566
      ],
      [
        "▁tape",
        -10.260095596313477
      ],
      [
        "kroDa",
        -10.260337829589844
      ],
      [
        "▁Your",
        -10.261207580566406
      ],
      [
        "rs",
        -10.263517379760742
      ],
      [
        "akza",
        -10.264788627624512
      ],
      [
        "Satru",
        -10.265521049499512
      ],
      [
        "▁eight",
        -10.265533447265623
      ],
      [
        "▁magnet",
        -10.265708923339844
      ],
      [
        "akzara",
        -10.26600456237793
      ],
      [
        "▁change",
        -10.26714324951172
      ],
      [
        "ganDarva",
        -10.26735019683838
      ],
      [
        "▁line",
        -10.26808261871338
      ],
      [
        "ke",
        -10.273303985595703
      ],
      [
        "ish",
        -10.273362159729004
      ],
      [
        "Basman",
        -10.273516654968262
      ],
      [
        "vega",
        -10.274056434631348
      ],
      [
        "sh",
        -10.27707290649414
      ],
      [
        "SAstra",
        -10.278848648071287
      ],
      [
        "▁Daddy",
        -10.278889656066896
      ],
      [
        "▁album",
        -10.279622077941896
      ],
      [
        "jyotis",
        -10.279990196228027
      ],
      [
        "▁air",
        -10.28098487854004
      ],
      [
        "ete",
        -10.28162670135498
      ],
      [
        "▁short",
        -10.28238010406494
      ],
      [
        "▁wish",
        -10.282983779907228
      ],
      [
        "2",
        -10.283602714538574
      ],
      [
        "▁taking",
        -10.28609561920166
      ],
      [
        "▁An",
        -10.287367820739746
      ],
      [
        "▁team",
        -10.289084434509276
      ],
      [
        "tya",
        -10.289380073547363
      ],
      [
        "▁yourself",
        -10.292074203491213
      ],
      [
        "▁sister",
        -10.29295825958252
      ],
      [
        "ftu",
        -10.293730735778809
      ],
      [
        "▁March",
        -10.293806076049805
      ],
      [
        "▁yup",
        -10.293858528137209
      ],
      [
        "AKyA",
        -10.295733451843262
      ],
      [
        "▁Al",
        -10.297226905822754
      ],
      [
        "▁deal",
        -10.29909324645996
      ],
      [
        "▁train",
        -10.299485206604004
      ],
      [
        "▁Is",
        -10.301714897155762
      ],
      [
        "▁funny",
        -10.302313804626465
      ],
      [
        "led",
        -10.303500175476074
      ],
      [
        "tamas",
        -10.30454158782959
      ],
      [
        "vAsas",
        -10.304669380187988
      ],
      [
        "Chi",
        -10.30649185180664
      ],
      [
        "tala",
        -10.307400703430176
      ],
      [
        "▁late",
        -10.307485580444336
      ],
      [
        "▁fifty",
        -10.307772636413574
      ],
      [
        "Bartf",
        -10.308992385864258
      ],
      [
        "▁given",
        -10.310046195983888
      ],
      [
        "mati",
        -10.313117980957031
      ],
      [
        "▁often",
        -10.31367301940918
      ],
      [
        "▁king",
        -10.315031051635742
      ],
      [
        "antarikza",
        -10.317811965942385
      ],
      [
        "os",
        -10.3179292678833
      ],
      [
        "pitAmaha",
        -10.318206787109377
      ],
      [
        "1",
        -10.318787574768066
      ],
      [
        "▁break",
        -10.319069862365724
      ],
      [
        "kzipa",
        -10.319231033325195
      ],
      [
        "we",
        -10.319378852844238
      ],
      [
        "les",
        -10.320672988891602
      ],
      [
        "savitf",
        -10.321924209594728
      ],
      [
        "▁feet",
        -10.32223415374756
      ],
      [
        "▁body",
        -10.324297904968262
      ],
      [
        "vaSa",
        -10.324677467346191
      ],
      [
        "▁vidyat",
        -10.326898574829102
      ],
      [
        "▁vint",
        -10.327326774597168
      ],
      [
        "viS",
        -10.327489852905272
      ],
      [
        "nadI",
        -10.327627182006836
      ],
      [
        "vahni",
        -10.329364776611328
      ],
      [
        "▁brahma",
        -10.329668045043944
      ],
      [
        "▁York",
        -10.33064079284668
      ],
      [
        "nDa",
        -10.331897735595703
      ],
      [
        "▁May",
        -10.33232307434082
      ],
      [
        "What",
        -10.33250617980957
      ],
      [
        "antara",
        -10.334698677062988
      ],
      [
        "▁YOU",
        -10.33515453338623
      ],
      [
        "▁buy",
        -10.33623218536377
      ],
      [
        "DAtu",
        -10.337371826171877
      ],
      [
        "Asana",
        -10.3374662399292
      ],
      [
        "kzatriya",
        -10.338775634765623
      ],
      [
        "kfRot",
        -10.340471267700195
      ],
      [
        "▁Ha",
        -10.340521812438965
      ],
      [
        "giri",
        -10.340883255004885
      ],
      [
        "▁ap",
        -10.341996192932127
      ],
      [
        "▁vedayat",
        -10.342601776123049
      ],
      [
        "tu",
        -10.342646598815918
      ],
      [
        "▁wife",
        -10.342790603637695
      ],
      [
        "▁AtmA",
        -10.344194412231444
      ],
      [
        "samudra",
        -10.344331741333008
      ],
      [
        "BIma",
        -10.344507217407228
      ],
      [
        "▁cold",
        -10.345053672790527
      ],
      [
        "GAI",
        -10.346083641052246
      ],
      [
        "gu",
        -10.346575736999512
      ],
      [
        "▁August",
        -10.3467435836792
      ],
      [
        "yuga",
        -10.34746551513672
      ],
      [
        "way",
        -10.347770690917969
      ],
      [
        "v",
        -10.347883224487305
      ],
      [
        "▁tap",
        -10.350034713745115
      ],
      [
        "▁horse",
        -10.3506498336792
      ],
      [
        "LDES",
        -10.350855827331545
      ],
      [
        "▁French",
        -10.351184844970703
      ],
      [
        "ni",
        -10.351643562316896
      ],
      [
        "▁living",
        -10.352774620056152
      ],
      [
        "rajas",
        -10.353001594543455
      ],
      [
        "SI",
        -10.353975296020508
      ],
      [
        "tAta",
        -10.355445861816406
      ],
      [
        "▁fight",
        -10.355749130249023
      ],
      [
        "▁tea",
        -10.357281684875488
      ],
      [
        "▁childe",
        -10.357820510864258
      ],
      [
        "boDisattva",
        -10.357831001281738
      ],
      [
        "mAyA",
        -10.3580961227417
      ],
      [
        "▁working",
        -10.358134269714355
      ],
      [
        "pala",
        -10.358521461486816
      ],
      [
        "land",
        -10.360527992248535
      ],
      [
        "dakziRA",
        -10.362528800964355
      ],
      [
        "▁least",
        -10.36305046081543
      ],
      [
        "▁toy",
        -10.36311149597168
      ],
      [
        "dvaya",
        -10.364652633666992
      ],
      [
        "SUra",
        -10.365399360656738
      ],
      [
        "▁large",
        -10.366543769836426
      ],
      [
        "▁tree",
        -10.367369651794434
      ],
      [
        "▁Ben",
        -10.368315696716309
      ],
      [
        "▁tried",
        -10.36910629272461
      ],
      [
        "BfS",
        -10.369811058044434
      ],
      [
        "▁Of",
        -10.371999740600586
      ],
      [
        "▁vakzyat",
        -10.372201919555664
      ],
      [
        "▁co",
        -10.373536109924316
      ],
      [
        "pARqu",
        -10.373663902282717
      ],
      [
        "▁var",
        -10.37440586090088
      ],
      [
        "vaska",
        -10.374935150146484
      ],
      [
        "▁lay",
        -10.375926971435549
      ],
      [
        "▁walk",
        -10.376103401184082
      ],
      [
        "▁dad",
        -10.37632942199707
      ],
      [
        "▁named",
        -10.37717628479004
      ],
      [
        "▁Or",
        -10.37724781036377
      ],
      [
        "▁karqizyat",
        -10.378888130187988
      ],
      [
        "pfzWa",
        -10.38050651550293
      ],
      [
        "▁7",
        -10.380508422851562
      ],
      [
        "ian",
        -10.380511283874512
      ],
      [
        "ojas",
        -10.381044387817385
      ],
      [
        "▁mo",
        -10.382027626037598
      ],
      [
        "▁trouble",
        -10.382353782653809
      ],
      [
        "puMs",
        -10.382904052734377
      ],
      [
        "prakfti",
        -10.383556365966797
      ],
      [
        "▁business",
        -10.38381576538086
      ],
      [
        "vastra",
        -10.386237144470217
      ],
      [
        "We",
        -10.38638401031494
      ],
      [
        "ASrama",
        -10.386509895324709
      ],
      [
        "▁l",
        -10.388472557067873
      ],
      [
        "prasAda",
        -10.389256477355955
      ],
      [
        "gaja",
        -10.390419006347656
      ],
      [
        "▁April",
        -10.390896797180176
      ],
      [
        "day",
        -10.391741752624512
      ],
      [
        "traya",
        -10.39254093170166
      ],
      [
        "vftti",
        -10.393424034118652
      ],
      [
        "▁sometimes",
        -10.393465042114258
      ],
      [
        "mArga",
        -10.39372444152832
      ],
      [
        "marut",
        -10.39380168914795
      ],
      [
        "▁Because",
        -10.395649909973145
      ],
      [
        "▁either",
        -10.395868301391602
      ],
      [
        "vizaya",
        -10.396197319030762
      ],
      [
        "▁land",
        -10.398959159851074
      ],
      [
        "▁karma",
        -10.400297164916992
      ],
      [
        "▁BUt",
        -10.400750160217283
      ],
      [
        "Yes",
        -10.400845527648926
      ],
      [
        "▁brUt",
        -10.40085220336914
      ],
      [
        "▁yog",
        -10.401400566101074
      ],
      [
        "▁World",
        -10.40323543548584
      ],
      [
        "ley",
        -10.403242111206056
      ],
      [
        "▁Here",
        -10.403343200683594
      ],
      [
        "▁chair",
        -10.404356956481934
      ],
      [
        "min",
        -10.404516220092772
      ],
      [
        "Sastra",
        -10.404518127441406
      ],
      [
        "▁cup",
        -10.404651641845703
      ],
      [
        "▁October",
        -10.404873847961426
      ],
      [
        "duryoDana",
        -10.405179977416992
      ],
      [
        "▁past",
        -10.4052095413208
      ],
      [
        "pUrRa",
        -10.405933380126951
      ],
      [
        "No",
        -10.40614128112793
      ],
      [
        "dy",
        -10.407941818237305
      ],
      [
        "▁important",
        -10.408747673034668
      ],
      [
        "▁member",
        -10.409381866455078
      ],
      [
        "▁Ro",
        -10.409525871276855
      ],
      [
        "▁chance",
        -10.41067886352539
      ],
      [
        "aDvaryu",
        -10.411108016967772
      ],
      [
        "fc",
        -10.411250114440918
      ],
      [
        "mUrDan",
        -10.411333084106444
      ],
      [
        "SUla",
        -10.41174602508545
      ],
      [
        "ck",
        -10.412579536437988
      ],
      [
        "yava",
        -10.413193702697754
      ],
      [
        "mfga",
        -10.413522720336914
      ],
      [
        "id",
        -10.41355800628662
      ],
      [
        "▁kfRvizyat",
        -10.414090156555176
      ],
      [
        "▁present",
        -10.415884971618652
      ],
      [
        "▁lives",
        -10.416271209716797
      ],
      [
        "pramARa",
        -10.416619300842283
      ],
      [
        "▁area",
        -10.417137145996094
      ],
      [
        "candra",
        -10.41847801208496
      ],
      [
        "ata",
        -10.418719291687012
      ],
      [
        "▁nine",
        -10.418829917907717
      ],
      [
        "▁Please",
        -10.419259071350098
      ],
      [
        "▁kids",
        -10.41966438293457
      ],
      [
        "▁clear",
        -10.421467781066896
      ],
      [
        "▁glad",
        -10.423234939575195
      ],
      [
        "ozaDi",
        -10.423452377319336
      ],
      [
        "▁single",
        -10.42434310913086
      ],
      [
        "pata",
        -10.425138473510742
      ],
      [
        "dAti",
        -10.4254732131958
      ],
      [
        "maRi",
        -10.42648983001709
      ],
      [
        "▁mom",
        -10.42739200592041
      ],
      [
        "▁till",
        -10.427416801452637
      ],
      [
        "▁animals",
        -10.427864074707031
      ],
      [
        "▁become",
        -10.427910804748535
      ],
      [
        "▁road",
        -10.42800521850586
      ],
      [
        "▁strong",
        -10.42917251586914
      ],
      [
        "▁thousand",
        -10.431197166442873
      ],
      [
        "praBA",
        -10.433259963989258
      ],
      [
        "▁free",
        -10.433674812316896
      ],
      [
        "▁fish",
        -10.434256553649902
      ],
      [
        "maRqala",
        -10.435302734375
      ],
      [
        "wa",
        -10.436212539672852
      ],
      [
        "▁With",
        -10.436416625976562
      ],
      [
        "mf",
        -10.43820095062256
      ],
      [
        "Bakti",
        -10.44016456604004
      ],
      [
        "▁company",
        -10.440215110778809
      ],
      [
        "▁Le",
        -10.440370559692385
      ],
      [
        "vatsa",
        -10.440690994262695
      ],
      [
        "▁5",
        -10.440984725952148
      ],
      [
        "▁tomorrow",
        -10.442903518676758
      ],
      [
        "▁muK",
        -10.442904472351074
      ],
      [
        "▁order",
        -10.44337558746338
      ],
      [
        "▁killed",
        -10.443476676940918
      ],
      [
        "▁sing",
        -10.443690299987791
      ],
      [
        "rAtra",
        -10.443902969360352
      ],
      [
        "ari",
        -10.445096969604492
      ],
      [
        "▁pitar",
        -10.44736385345459
      ],
      [
        "▁across",
        -10.451830863952637
      ],
      [
        "rati",
        -10.45278549194336
      ],
      [
        "▁caterpillar",
        -10.45284938812256
      ],
      [
        "▁David",
        -10.453557968139648
      ],
      [
        "br",
        -10.453781127929688
      ],
      [
        "▁17",
        -10.453864097595217
      ],
      [
        "▁manaH",
        -10.45486545562744
      ],
      [
        "pAna",
        -10.456743240356444
      ],
      [
        "▁happen",
        -10.458106994628906
      ],
      [
        "saMjYA",
        -10.45922565460205
      ],
      [
        "▁early",
        -10.460122108459473
      ],
      [
        "▁speak",
        -10.460270881652832
      ],
      [
        "▁others",
        -10.460511207580566
      ],
      [
        "▁held",
        -10.460750579833984
      ],
      [
        "japa",
        -10.461599349975586
      ],
      [
        "krama",
        -10.462231636047363
      ],
      [
        "▁cried",
        -10.462799072265623
      ],
      [
        "paTin",
        -10.4635009765625
      ],
      [
        "▁moon",
        -10.46365451812744
      ],
      [
        "▁problem",
        -10.463738441467283
      ],
      [
        "▁noise",
        -10.464066505432127
      ],
      [
        "3",
        -10.464349746704102
      ],
      [
        "▁Man",
        -10.46489429473877
      ],
      [
        "sEnya",
        -10.464957237243652
      ],
      [
        "▁reason",
        -10.465131759643556
      ],
      [
        "▁akfqat",
        -10.465463638305664
      ],
      [
        "▁toys",
        -10.466656684875488
      ],
      [
        "▁Ah",
        -10.466763496398926
      ],
      [
        "▁19",
        -10.467123031616213
      ],
      [
        "▁birthday",
        -10.46780490875244
      ],
      [
        "Ci",
        -10.469013214111328
      ],
      [
        "age",
        -10.470133781433104
      ],
      [
        "▁answer",
        -10.47036075592041
      ],
      [
        "bfhaspati",
        -10.470775604248049
      ],
      [
        "▁Sa",
        -10.471494674682615
      ],
      [
        "▁6",
        -10.471794128417969
      ],
      [
        "▁group",
        -10.47313404083252
      ],
      [
        "▁worked",
        -10.473583221435549
      ],
      [
        "▁War",
        -10.474050521850586
      ],
      [
        "▁thinking",
        -10.474712371826172
      ],
      [
        "ring",
        -10.476147651672363
      ],
      [
        "▁ground",
        -10.476490020751951
      ],
      [
        "hfd",
        -10.477027893066406
      ],
      [
        "▁brUsayat",
        -10.477267265319824
      ],
      [
        "▁government",
        -10.478781700134276
      ],
      [
        "dAnava",
        -10.478900909423828
      ],
      [
        "▁released",
        -10.478939056396484
      ],
      [
        "▁Mm",
        -10.47942066192627
      ],
      [
        "▁ran",
        -10.479659080505373
      ],
      [
        "aSvin",
        -10.481012344360352
      ],
      [
        "▁power",
        -10.482842445373535
      ],
      [
        "▁University",
        -10.482972145080566
      ],
      [
        "And",
        -10.484623908996582
      ],
      [
        "▁cake",
        -10.485197067260742
      ],
      [
        "▁eating",
        -10.48523235321045
      ],
      [
        "DI",
        -10.48557186126709
      ],
      [
        "▁som",
        -10.485812187194824
      ],
      [
        "▁frog",
        -10.48629665374756
      ],
      [
        "samara",
        -10.488543510437012
      ],
      [
        "▁la",
        -10.489870071411133
      ],
      [
        "ant",
        -10.491048812866213
      ],
      [
        "▁somebody",
        -10.491050720214844
      ],
      [
        "▁Marky",
        -10.491580963134766
      ],
      [
        "Bava",
        -10.491632461547852
      ],
      [
        "▁finished",
        -10.49299430847168
      ],
      [
        "▁BAvayizya",
        -10.493425369262695
      ],
      [
        "rAga",
        -10.497037887573242
      ],
      [
        "▁SfR",
        -10.499652862548828
      ],
      [
        "▁vIr",
        -10.499926567077637
      ],
      [
        "▁Mother",
        -10.500523567199709
      ],
      [
        "▁daddy",
        -10.500636100769045
      ],
      [
        "pArTiva",
        -10.50086498260498
      ],
      [
        "▁20",
        -10.503199577331545
      ],
      [
        "▁TO",
        -10.503873825073242
      ],
      [
        "▁married",
        -10.504313468933104
      ],
      [
        "ING",
        -10.504680633544922
      ],
      [
        "jf",
        -10.504780769348145
      ],
      [
        "▁afraid",
        -10.505959510803224
      ],
      [
        "SaNKa",
        -10.506651878356934
      ],
      [
        "▁carcat",
        -10.50694465637207
      ],
      [
        "vfka",
        -10.508480072021484
      ],
      [
        "▁Ar",
        -10.511272430419922
      ],
      [
        "▁dark",
        -10.513997077941896
      ],
      [
        "ak",
        -10.514806747436523
      ],
      [
        "▁books",
        -10.517132759094238
      ],
      [
        "kzam",
        -10.517464637756348
      ],
      [
        "▁deve",
        -10.518439292907717
      ],
      [
        "▁coffee",
        -10.518543243408203
      ],
      [
        "▁dAsyat",
        -10.51874828338623
      ],
      [
        "music",
        -10.51895523071289
      ],
      [
        "pUja",
        -10.51921844482422
      ],
      [
        "▁12",
        -10.52103042602539
      ],
      [
        "▁hour",
        -10.523419380187988
      ],
      [
        "pUrva",
        -10.52385139465332
      ],
      [
        "▁England",
        -10.524596214294434
      ],
      [
        "▁Ad",
        -10.524635314941406
      ],
      [
        "siMha",
        -10.524884223937988
      ],
      [
        "▁band",
        -10.52698802947998
      ],
      [
        "ze",
        -10.527398109436035
      ],
      [
        "mother",
        -10.528860092163086
      ],
      [
        "▁ones",
        -10.529211044311523
      ],
      [
        "ho",
        -10.529950141906738
      ],
      [
        "AUN",
        -10.530006408691406
      ],
      [
        "▁daughter",
        -10.530661582946776
      ],
      [
        "▁listen",
        -10.530994415283203
      ],
      [
        "▁dinner",
        -10.5337495803833
      ],
      [
        "▁national",
        -10.534451484680176
      ],
      [
        "▁eye",
        -10.53531551361084
      ],
      [
        "vya",
        -10.536377906799316
      ],
      [
        "▁Some",
        -10.536916732788086
      ],
      [
        "▁8",
        -10.538782119750977
      ],
      [
        "Ahuti",
        -10.538908004760742
      ],
      [
        "kara",
        -10.539888381958008
      ],
      [
        "▁Co",
        -10.54079818725586
      ],
      [
        "▁V",
        -10.540863990783691
      ],
      [
        "▁pre",
        -10.541726112365724
      ],
      [
        "▁fast",
        -10.541987419128418
      ],
      [
        "▁win",
        -10.542854309082031
      ],
      [
        "▁Christmas",
        -10.54298210144043
      ],
      [
        "▁honey",
        -10.542991638183594
      ],
      [
        "Sukra",
        -10.54323387145996
      ],
      [
        "▁egg",
        -10.543702125549316
      ],
      [
        "you",
        -10.543704986572266
      ],
      [
        "Atmaja",
        -10.544421195983888
      ],
      [
        "▁kept",
        -10.544528007507324
      ],
      [
        "kAya",
        -10.5445556640625
      ],
      [
        "▁Sar",
        -10.546717643737791
      ],
      [
        "ster",
        -10.547646522521973
      ],
      [
        "▁sat",
        -10.54772663116455
      ],
      [
        "▁v",
        -10.549386024475098
      ],
      [
        "hanti",
        -10.549826622009276
      ],
      [
        "▁British",
        -10.550742149353027
      ],
      [
        "▁several",
        -10.550742149353027
      ],
      [
        "stun",
        -10.550907135009766
      ],
      [
        "time",
        -10.551258087158203
      ],
      [
        "jaya",
        -10.55235195159912
      ],
      [
        "AhAra",
        -10.552641868591309
      ],
      [
        "dahi",
        -10.55268669128418
      ],
      [
        "▁ice",
        -10.552812576293944
      ],
      [
        "asi",
        -10.554244995117188
      ],
      [
        "▁office",
        -10.555869102478027
      ],
      [
        "▁special",
        -10.557778358459473
      ],
      [
        "▁window",
        -10.558741569519045
      ],
      [
        "▁16",
        -10.559391975402832
      ],
      [
        "kzatra",
        -10.559396743774414
      ],
      [
        "padma",
        -10.559553146362305
      ],
      [
        "▁themselves",
        -10.560134887695312
      ],
      [
        "kaTA",
        -10.561580657958984
      ],
      [
        "laughing",
        -10.561724662780762
      ],
      [
        "SUdra",
        -10.562936782836914
      ],
      [
        "vAra",
        -10.564739227294922
      ],
      [
        "▁Uh",
        -10.565600395202637
      ],
      [
        "ah",
        -10.565783500671388
      ],
      [
        "prIti",
        -10.566604614257812
      ],
      [
        "▁These",
        -10.567340850830078
      ],
      [
        "pUza",
        -10.56764030456543
      ],
      [
        "ble",
        -10.56813144683838
      ],
      [
        "▁mouth",
        -10.568732261657717
      ],
      [
        "▁Palam",
        -10.569469451904297
      ],
      [
        "BImasena",
        -10.56988525390625
      ],
      [
        "▁AtmAn",
        -10.570245742797852
      ],
      [
        "sarpis",
        -10.570629119873049
      ],
      [
        "▁months",
        -10.57073211669922
      ],
      [
        "AkASa",
        -10.57102870941162
      ],
      [
        "▁Ra",
        -10.57149600982666
      ],
      [
        "ated",
        -10.571778297424316
      ],
      [
        "▁ride",
        -10.572515487670898
      ],
      [
        "ance",
        -10.572837829589844
      ],
      [
        "▁bus",
        -10.57337474822998
      ],
      [
        "mala",
        -10.573442459106444
      ],
      [
        "▁en",
        -10.575119018554688
      ],
      [
        "ism",
        -10.575186729431152
      ],
      [
        "NA",
        -10.575331687927246
      ],
      [
        "▁15",
        -10.575944900512695
      ],
      [
        "But",
        -10.57654857635498
      ],
      [
        "▁within",
        -10.57737636566162
      ],
      [
        "praBu",
        -10.57835292816162
      ],
      [
        "om",
        -10.578449249267578
      ],
      [
        "▁July",
        -10.578947067260742
      ],
      [
        "▁mommy",
        -10.579212188720703
      ],
      [
        "vESampAyana",
        -10.579665184020996
      ],
      [
        "kowi",
        -10.57997226715088
      ],
      [
        "▁kitchen",
        -10.57999324798584
      ],
      [
        "▁n",
        -10.580214500427246
      ],
      [
        "by",
        -10.58022689819336
      ],
      [
        "▁9",
        -10.580939292907717
      ],
      [
        "mokza",
        -10.581485748291016
      ],
      [
        "▁less",
        -10.582054138183594
      ],
      [
        "ISa",
        -10.58571720123291
      ],
      [
        "tion",
        -10.585741996765137
      ],
      [
        "▁easy",
        -10.586431503295898
      ],
      [
        "sy",
        -10.587167739868164
      ],
      [
        "▁send",
        -10.587475776672363
      ],
      [
        "▁goin",
        -10.587602615356444
      ],
      [
        "▁aren",
        -10.58793830871582
      ],
      [
        "vayas",
        -10.5886869430542
      ],
      [
        "rakta",
        -10.589363098144531
      ],
      [
        "one",
        -10.589519500732422
      ],
      [
        "▁gets",
        -10.590048789978027
      ],
      [
        "▁Dad",
        -10.590794563293455
      ],
      [
        "▁Er",
        -10.591456413269045
      ],
      [
        "anila",
        -10.592164039611816
      ],
      [
        "▁sattv",
        -10.5934476852417
      ],
      [
        "gada",
        -10.593469619750977
      ],
      [
        "▁stood",
        -10.593725204467772
      ],
      [
        "▁bag",
        -10.59408187866211
      ],
      [
        "▁President",
        -10.594684600830078
      ],
      [
        "vfRa",
        -10.59617805480957
      ],
      [
        "▁City",
        -10.59719944000244
      ],
      [
        "hiraRya",
        -10.597559928894045
      ],
      [
        "vo",
        -10.598064422607422
      ],
      [
        "▁running",
        -10.598145484924316
      ],
      [
        "▁among",
        -10.59819221496582
      ],
      [
        "vfS",
        -10.598421096801758
      ],
      [
        "moha",
        -10.599336624145508
      ],
      [
        "▁f",
        -10.599923133850098
      ],
      [
        "▁whether",
        -10.601893424987791
      ],
      [
        "cy",
        -10.602622032165527
      ],
      [
        "▁met",
        -10.603337287902832
      ],
      [
        "netra",
        -10.60391616821289
      ],
      [
        "▁forget",
        -10.605148315429688
      ],
      [
        "vfN",
        -10.605713844299316
      ],
      [
        "▁doctor",
        -10.60600471496582
      ],
      [
        "▁everybody",
        -10.60683250427246
      ],
      [
        "▁sitting",
        -10.606922149658203
      ],
      [
        "pAka",
        -10.609806060791016
      ],
      [
        "points",
        -10.609834671020508
      ],
      [
        "▁perhaps",
        -10.6104097366333
      ],
      [
        "▁ex",
        -10.610533714294434
      ],
      [
        "kalpa",
        -10.612607955932615
      ],
      [
        "aBAva",
        -10.612958908081056
      ],
      [
        "aBra",
        -10.614736557006836
      ],
      [
        "rAvaRa",
        -10.61546230316162
      ],
      [
        "jIvita",
        -10.615537643432615
      ],
      [
        "▁above",
        -10.615931510925291
      ],
      [
        "vAnara",
        -10.61651611328125
      ],
      [
        "kumAra",
        -10.617742538452148
      ],
      [
        "kuzWa",
        -10.618027687072754
      ],
      [
        "▁wonder",
        -10.618648529052734
      ],
      [
        "HS",
        -10.619261741638184
      ],
      [
        "▁sut",
        -10.619972229003906
      ],
      [
        "▁pro",
        -10.621861457824709
      ],
      [
        "▁gfhRIt",
        -10.627922058105469
      ],
      [
        "▁Phil",
        -10.628512382507324
      ],
      [
        "han",
        -10.628875732421877
      ],
      [
        "ganDaka",
        -10.629165649414062
      ],
      [
        "lu",
        -10.629467010498049
      ],
      [
        "Boga",
        -10.6306791305542
      ],
      [
        "datte",
        -10.630691528320312
      ],
      [
        "udara",
        -10.63080596923828
      ],
      [
        "haya",
        -10.631014823913574
      ],
      [
        "▁page",
        -10.631032943725586
      ],
      [
        "▁kfRvat",
        -10.631318092346191
      ],
      [
        "bi",
        -10.631609916687012
      ],
      [
        "samaya",
        -10.63170051574707
      ],
      [
        "Dvaja",
        -10.633935928344728
      ],
      [
        "▁series",
        -10.63440990447998
      ],
      [
        "▁warm",
        -10.634422302246094
      ],
      [
        "dAha",
        -10.634562492370604
      ],
      [
        "tanU",
        -10.635568618774414
      ],
      [
        "hU",
        -10.636120796203612
      ],
      [
        "▁Bar",
        -10.636642456054688
      ],
      [
        "▁Sis",
        -10.637757301330566
      ],
      [
        "▁foot",
        -10.63789176940918
      ],
      [
        "▁wrote",
        -10.638639450073242
      ],
      [
        "▁mantr",
        -10.639751434326172
      ],
      [
        "dvAra",
        -10.639896392822266
      ],
      [
        "▁public",
        -10.641366004943848
      ],
      [
        "▁per",
        -10.64138126373291
      ],
      [
        "Bojana",
        -10.641729354858398
      ],
      [
        "▁By",
        -10.641742706298828
      ],
      [
        "▁National",
        -10.642048835754396
      ],
      [
        "▁vAcayizya",
        -10.64253044128418
      ],
      [
        "aSa",
        -10.642849922180176
      ],
      [
        "▁longer",
        -10.642870903015137
      ],
      [
        "▁muYcat",
        -10.642901420593262
      ],
      [
        "▁South",
        -10.643147468566896
      ],
      [
        "▁tonight",
        -10.64324951171875
      ],
      [
        "toya",
        -10.64346408843994
      ],
      [
        "yuD",
        -10.643478393554688
      ],
      [
        "▁Mar",
        -10.643925666809082
      ],
      [
        "▁Get",
        -10.644051551818848
      ],
      [
        "ph",
        -10.644644737243652
      ],
      [
        "▁rAm",
        -10.644786834716797
      ],
      [
        "▁seems",
        -10.645033836364746
      ],
      [
        "lin",
        -10.645508766174316
      ],
      [
        "▁h",
        -10.645814895629885
      ],
      [
        "HV",
        -10.646135330200195
      ],
      [
        "▁sounds",
        -10.6464204788208
      ],
      [
        "varcas",
        -10.648362159729004
      ],
      [
        "▁evening",
        -10.648868560791016
      ],
      [
        "▁Ta",
        -10.650186538696287
      ],
      [
        "▁y",
        -10.651453018188477
      ],
      [
        "yogin",
        -10.652729988098145
      ],
      [
        "tfn",
        -10.653221130371094
      ],
      [
        "Bikzu",
        -10.653626441955566
      ],
      [
        "dEtya",
        -10.654657363891602
      ],
      [
        "but",
        -10.654790878295898
      ],
      [
        "vfD",
        -10.655704498291016
      ],
      [
        "▁boat",
        -10.655905723571776
      ],
      [
        "LLD",
        -10.656746864318848
      ],
      [
        "q",
        -10.658087730407717
      ],
      [
        "▁Se",
        -10.658442497253418
      ],
      [
        "pASa",
        -10.6589937210083
      ],
      [
        "▁Car",
        -10.659225463867188
      ],
      [
        "▁George",
        -10.660201072692873
      ],
      [
        "▁river",
        -10.66110897064209
      ],
      [
        "▁instead",
        -10.661495208740234
      ],
      [
        "▁bal",
        -10.66205883026123
      ],
      [
        "▁third",
        -10.662155151367188
      ],
      [
        "▁doz",
        -10.662535667419434
      ],
      [
        "▁whose",
        -10.662619590759276
      ],
      [
        "▁street",
        -10.662813186645508
      ],
      [
        "gadA",
        -10.662960052490234
      ],
      [
        "▁save",
        -10.663655281066896
      ],
      [
        "▁jAyat",
        -10.663756370544434
      ],
      [
        "▁however",
        -10.663796424865724
      ],
      [
        "▁space",
        -10.664794921875
      ],
      [
        "▁Con",
        -10.665359497070312
      ],
      [
        "▁Have",
        -10.666674613952637
      ],
      [
        "▁telling",
        -10.66671657562256
      ],
      [
        "▁ahn",
        -10.666841506958008
      ],
      [
        "suvarRa",
        -10.66697120666504
      ],
      [
        "▁television",
        -10.667113304138184
      ],
      [
        "tAmra",
        -10.667421340942385
      ],
      [
        "▁(19",
        -10.667797088623049
      ],
      [
        "▁hours",
        -10.668091773986816
      ],
      [
        "tvac",
        -10.669678688049316
      ],
      [
        "▁rock",
        -10.670506477355955
      ],
      [
        "▁...",
        -10.670682907104492
      ],
      [
        "▁varz",
        -10.670817375183104
      ],
      [
        "Well",
        -10.671823501586914
      ],
      [
        "▁November",
        -10.671907424926758
      ],
      [
        "▁drive",
        -10.673757553100586
      ],
      [
        "kfRuta",
        -10.675223350524902
      ],
      [
        "sAgara",
        -10.675766944885254
      ],
      [
        "▁di",
        -10.67607307434082
      ],
      [
        "▁varR",
        -10.676112174987791
      ],
      [
        "▁k",
        -10.676763534545898
      ],
      [
        "▁sur",
        -10.676775932312012
      ],
      [
        "▁June",
        -10.67762565612793
      ],
      [
        "saMjaya",
        -10.677669525146484
      ],
      [
        "▁village",
        -10.677672386169434
      ],
      [
        "▁February",
        -10.678942680358888
      ],
      [
        "nce",
        -10.679929733276367
      ],
      [
        "▁Ri",
        -10.68044090270996
      ],
      [
        "kurut",
        -10.680615425109863
      ],
      [
        "▁Ho",
        -10.680689811706545
      ],
      [
        "▁kurvat",
        -10.680691719055176
      ],
      [
        "▁Mary",
        -10.68104648590088
      ],
      [
        "▁ahead",
        -10.68193244934082
      ],
      [
        "Urj",
        -10.682758331298828
      ],
      [
        "cetas",
        -10.68299674987793
      ],
      [
        "▁anymore",
        -10.68306827545166
      ],
      [
        "▁nfp",
        -10.683259963989258
      ],
      [
        "gr",
        -10.683857917785645
      ],
      [
        "▁sUry",
        -10.684346199035645
      ],
      [
        "▁built",
        -10.684774398803713
      ],
      [
        "den",
        -10.685502052307127
      ],
      [
        "▁jan",
        -10.686418533325195
      ],
      [
        "SilA",
        -10.686999320983888
      ],
      [
        "4",
        -10.687166213989258
      ],
      [
        "▁paSu",
        -10.68720245361328
      ],
      [
        "sidDa",
        -10.687609672546388
      ],
      [
        "gAyatrI",
        -10.688058853149414
      ],
      [
        "▁kfqant",
        -10.68819808959961
      ],
      [
        "▁thirty",
        -10.68834400177002
      ],
      [
        "▁building",
        -10.690999031066896
      ],
      [
        "Slezman",
        -10.69102954864502
      ],
      [
        "puz",
        -10.691179275512695
      ],
      [
        "▁Vi",
        -10.691696166992188
      ],
      [
        "▁Great",
        -10.692243576049805
      ],
      [
        "ol",
        -10.692310333251951
      ],
      [
        "if",
        -10.69279670715332
      ],
      [
        "ig",
        -10.692952156066896
      ],
      [
        "▁wear",
        -10.693385124206545
      ],
      [
        "grAma",
        -10.69379997253418
      ],
      [
        "▁11",
        -10.694082260131836
      ],
      [
        "▁December",
        -10.694185256958008
      ],
      [
        "▁whatever",
        -10.694446563720703
      ],
      [
        "▁mad",
        -10.694717407226562
      ],
      [
        "▁aBavat",
        -10.69556999206543
      ],
      [
        "retas",
        -10.695603370666504
      ],
      [
        "▁Po",
        -10.696280479431152
      ],
      [
        "▁anyone",
        -10.697547912597656
      ],
      [
        "▁From",
        -10.697608947753906
      ],
      [
        "▁See",
        -10.697675704956056
      ],
      [
        "rakza",
        -10.698260307312012
      ],
      [
        "mahI",
        -10.698742866516112
      ],
      [
        "pArSva",
        -10.699089050292969
      ],
      [
        "▁hole",
        -10.699186325073242
      ],
      [
        "▁cool",
        -10.700078964233398
      ],
      [
        "ambu",
        -10.700114250183104
      ],
      [
        "▁aBAvaya",
        -10.700443267822266
      ],
      [
        "SAnti",
        -10.701202392578123
      ],
      [
        "bo",
        -10.70124340057373
      ],
      [
        "▁finish",
        -10.70143699645996
      ],
      [
        "▁Maybe",
        -10.701607704162598
      ],
      [
        "vyADi",
        -10.70163345336914
      ],
      [
        "▁Li",
        -10.70256519317627
      ],
      [
        "▁broke",
        -10.70260238647461
      ],
      [
        "▁London",
        -10.702752113342283
      ],
      [
        "▁sweet",
        -10.70364475250244
      ],
      [
        "▁Mi",
        -10.704625129699709
      ],
      [
        "per",
        -10.704757690429688
      ],
      [
        "▁doll",
        -10.70477294921875
      ],
      [
        "▁truck",
        -10.70548152923584
      ],
      [
        "▁store",
        -10.705869674682615
      ],
      [
        "AcArya",
        -10.70676040649414
      ],
      [
        "▁human",
        -10.706779479980469
      ],
      [
        "▁Da",
        -10.707269668579102
      ],
      [
        "ng",
        -10.70849323272705
      ],
      [
        "▁written",
        -10.708497047424316
      ],
      [
        "▁moved",
        -10.708520889282228
      ],
      [
        "▁kfRvant",
        -10.70860195159912
      ],
      [
        "▁BAvayet",
        -10.70868682861328
      ],
      [
        "Bfqa",
        -10.70880889892578
      ],
      [
        "snAna",
        -10.709878921508787
      ],
      [
        "▁standing",
        -10.710009574890137
      ],
      [
        "lakzmaRa",
        -10.71078872680664
      ],
      [
        "vyAGra",
        -10.710939407348633
      ],
      [
        "▁House",
        -10.71096134185791
      ],
      [
        "▁tired",
        -10.711210250854492
      ],
      [
        "ber",
        -10.711888313293455
      ],
      [
        "▁agn",
        -10.712395668029783
      ],
      [
        "ler",
        -10.712562561035156
      ],
      [
        "▁writing",
        -10.7135009765625
      ],
      [
        "▁lunch",
        -10.713702201843262
      ],
      [
        "▁passed",
        -10.71414852142334
      ],
      [
        "▁Ka",
        -10.714310646057127
      ],
      [
        "▁news",
        -10.71437931060791
      ],
      [
        "▁sp",
        -10.714482307434082
      ],
      [
        "▁Ga",
        -10.715020179748535
      ],
      [
        "vfdDi",
        -10.71712589263916
      ],
      [
        "tAm",
        -10.717577934265137
      ],
      [
        "bali",
        -10.717997550964355
      ],
      [
        "▁million",
        -10.718154907226562
      ],
      [
        "samBava",
        -10.718236923217772
      ],
      [
        "▁El",
        -10.718280792236328
      ],
      [
        "▁couple",
        -10.718413352966309
      ],
      [
        "bAla",
        -10.719311714172363
      ],
      [
        "00",
        -10.722026824951172
      ],
      [
        "▁2022",
        -10.722771644592283
      ],
      [
        "▁North",
        -10.723065376281738
      ],
      [
        "▁bird",
        -10.723854064941406
      ],
      [
        "▁Mo",
        -10.724074363708496
      ],
      [
        "▁die",
        -10.724926948547363
      ],
      [
        "▁whom",
        -10.725211143493652
      ],
      [
        "▁Edna",
        -10.725783348083496
      ],
      [
        "▁Peter",
        -10.72591781616211
      ],
      [
        "mfd",
        -10.726263999938965
      ],
      [
        "▁history",
        -10.727547645568848
      ],
      [
        "kapAla",
        -10.727611541748049
      ],
      [
        "ating",
        -10.727934837341309
      ],
      [
        "op",
        -10.728343963623049
      ],
      [
        "daDi",
        -10.728930473327637
      ],
      [
        "▁fit",
        -10.728962898254396
      ],
      [
        "ner",
        -10.72905731201172
      ],
      [
        "▁touch",
        -10.729873657226562
      ],
      [
        "Bid",
        -10.729931831359863
      ],
      [
        "▁learn",
        -10.729952812194824
      ],
      [
        "ron",
        -10.73021125793457
      ],
      [
        "▁jYAn",
        -10.730685234069824
      ],
      [
        "aw",
        -10.730964660644531
      ],
      [
        "AkAra",
        -10.731117248535156
      ],
      [
        "ard",
        -10.731488227844238
      ],
      [
        "▁weeks",
        -10.73150634765625
      ],
      [
        "▁13",
        -10.731729507446287
      ],
      [
        "▁noises",
        -10.731844902038574
      ],
      [
        "▁hUrCat",
        -10.73314094543457
      ],
      [
        "vahi",
        -10.7332181930542
      ],
      [
        "indu",
        -10.736653327941896
      ],
      [
        "Ananda",
        -10.737130165100098
      ],
      [
        "vikrama",
        -10.73719596862793
      ],
      [
        "▁Sabd",
        -10.737598419189451
      ],
      [
        "▁sick",
        -10.737909317016602
      ],
      [
        "keSa",
        -10.738117218017578
      ],
      [
        "▁waiting",
        -10.738133430480955
      ],
      [
        "jI",
        -10.738459587097168
      ],
      [
        "nArada",
        -10.738723754882812
      ],
      [
        "▁husband",
        -10.73876667022705
      ],
      [
        "▁jump",
        -10.738794326782228
      ],
      [
        "▁BAg",
        -10.739005088806152
      ],
      [
        "▁art",
        -10.739648818969728
      ],
      [
        "suhfd",
        -10.740677833557127
      ],
      [
        "vAja",
        -10.740827560424805
      ],
      [
        "for",
        -10.740943908691406
      ],
      [
        "nArAyaRa",
        -10.741499900817873
      ],
      [
        "rAGava",
        -10.74159336090088
      ],
      [
        "aSU",
        -10.742657661437988
      ],
      [
        "rAzwra",
        -10.742895126342772
      ],
      [
        "X",
        -10.743368148803713
      ],
      [
        "yantra",
        -10.744478225708008
      ],
      [
        "▁kill",
        -10.744543075561523
      ],
      [
        "ey",
        -10.745370864868164
      ],
      [
        "▁certain",
        -10.745960235595703
      ],
      [
        "▁nam",
        -10.746581077575684
      ],
      [
        "hita",
        -10.748476028442385
      ],
      [
        "hi",
        -10.74855899810791
      ],
      [
        "▁main",
        -10.748656272888184
      ],
      [
        "▁astayizya",
        -10.74892520904541
      ],
      [
        "fta",
        -10.749337196350098
      ],
      [
        "viDAna",
        -10.749890327453612
      ],
      [
        "vaMSa",
        -10.750035285949709
      ],
      [
        "gi",
        -10.750454902648926
      ],
      [
        "gir",
        -10.750724792480469
      ],
      [
        "▁throw",
        -10.751014709472656
      ],
      [
        "eran",
        -10.7514009475708
      ],
      [
        "karaRa",
        -10.751484870910645
      ],
      [
        "▁Gu",
        -10.751943588256836
      ],
      [
        "▁trees",
        -10.752649307250977
      ],
      [
        "Sizya",
        -10.754014015197754
      ],
      [
        "aNgula",
        -10.754067420959473
      ],
      [
        "▁possible",
        -10.754880905151367
      ],
      [
        "nimitta",
        -10.754963874816896
      ],
      [
        "▁class",
        -10.75543975830078
      ],
      [
        "vAsudeva",
        -10.755735397338867
      ],
      [
        "▁police",
        -10.75671100616455
      ],
      [
        "vaktra",
        -10.757205963134766
      ],
      [
        "dfzwi",
        -10.75794792175293
      ],
      [
        "upAya",
        -10.758041381835938
      ],
      [
        "▁Dan",
        -10.758622169494627
      ],
      [
        "yajus",
        -10.758930206298828
      ],
      [
        "▁14",
        -10.760315895080566
      ],
      [
        "▁suppose",
        -10.76096534729004
      ],
      [
        "ny",
        -10.761116981506348
      ],
      [
        "ise",
        -10.761388778686523
      ],
      [
        "J",
        -10.761618614196776
      ],
      [
        "▁cause",
        -10.761763572692873
      ],
      [
        "sUtra",
        -10.763672828674316
      ],
      [
        "tor",
        -10.764872550964355
      ],
      [
        "▁certainly",
        -10.765813827514648
      ],
      [
        "▁politician",
        -10.766414642333984
      ],
      [
        "▁da",
        -10.766801834106444
      ],
      [
        "▁seem",
        -10.767202377319336
      ],
      [
        "ki",
        -10.769172668457031
      ],
      [
        "nArI",
        -10.769485473632812
      ],
      [
        "▁vIry",
        -10.770644187927246
      ],
      [
        "▁bar",
        -10.770957946777344
      ],
      [
        "▁clean",
        -10.772174835205078
      ],
      [
        "▁visit",
        -10.772759437561035
      ],
      [
        "svaBAva",
        -10.773104667663574
      ],
      [
        "uH",
        -10.77352809906006
      ],
      [
        "red",
        -10.773887634277344
      ],
      [
        "▁plan",
        -10.774114608764648
      ],
      [
        "▁indeed",
        -10.774182319641112
      ],
      [
        "ham",
        -10.774225234985352
      ],
      [
        "▁returned",
        -10.774760246276855
      ],
      [
        "▁hoqat",
        -10.775152206420898
      ],
      [
        "yakza",
        -10.77518367767334
      ],
      [
        "vijYAna",
        -10.775599479675291
      ],
      [
        "DftarAzwra",
        -10.776118278503418
      ],
      [
        "SEla",
        -10.776124954223633
      ],
      [
        "▁wind",
        -10.777771949768066
      ],
      [
        "ally",
        -10.778802871704102
      ],
      [
        "▁pull",
        -10.778841972351074
      ],
      [
        "▁feeling",
        -10.779316902160645
      ],
      [
        "▁rudr",
        -10.77969455718994
      ],
      [
        "▁yesterday",
        -10.78003978729248
      ],
      [
        "▁cannot",
        -10.780725479125977
      ],
      [
        "▁dress",
        -10.780908584594728
      ],
      [
        "▁anyway",
        -10.78132152557373
      ],
      [
        "so",
        -10.78187656402588
      ],
      [
        "▁meant",
        -10.783163070678713
      ],
      [
        "▁vajr",
        -10.783364295959473
      ],
      [
        "ess",
        -10.784011840820312
      ],
      [
        "kratu",
        -10.78415870666504
      ],
      [
        "▁caught",
        -10.784968376159668
      ],
      [
        "sItA",
        -10.784981727600098
      ],
      [
        "▁kfzR",
        -10.785019874572754
      ],
      [
        "aDyAya",
        -10.785422325134276
      ],
      [
        "tic",
        -10.786619186401367
      ],
      [
        "lic",
        -10.786736488342283
      ],
      [
        "▁cheese",
        -10.7869234085083
      ],
      [
        "]?",
        -10.786932945251465
      ],
      [
        "vftra",
        -10.786967277526855
      ],
      [
        "▁Like",
        -10.787025451660156
      ],
      [
        "▁Eve",
        -10.78732204437256
      ],
      [
        "▁clothes",
        -10.787920951843262
      ],
      [
        "▁everyone",
        -10.788270950317385
      ],
      [
        "▁Pi",
        -10.788293838500977
      ],
      [
        "▁huqat",
        -10.78838348388672
      ],
      [
        "▁avAcaya",
        -10.78869342803955
      ],
      [
        "▁Will",
        -10.790042877197266
      ],
      [
        "senA",
        -10.790515899658203
      ],
      [
        "adi",
        -10.790574073791504
      ],
      [
        "▁knows",
        -10.791054725646973
      ],
      [
        "▁suK",
        -10.791146278381348
      ],
      [
        "▁Lord",
        -10.79116916656494
      ],
      [
        "▁jaj",
        -10.79201316833496
      ],
      [
        "▁lengthened",
        -10.792866706848145
      ],
      [
        "amp",
        -10.793500900268556
      ],
      [
        "▁straight",
        -10.793853759765623
      ],
      [
        "▁exactly",
        -10.793912887573242
      ],
      [
        "▁quiet",
        -10.79548454284668
      ],
      [
        "DanaMjaya",
        -10.795842170715332
      ],
      [
        "saKi",
        -10.795869827270508
      ],
      [
        "jAti",
        -10.79590129852295
      ],
      [
        "praBAva",
        -10.797893524169922
      ],
      [
        "▁mAtr",
        -10.798267364501951
      ],
      [
        "Illustration",
        -10.798833847045898
      ],
      [
        "ence",
        -10.799087524414062
      ],
      [
        "nakzatra",
        -10.799223899841309
      ],
      [
        "▁attack",
        -10.799320220947266
      ],
      [
        "▁pitA",
        -10.800161361694336
      ],
      [
        "▁supposed",
        -10.800485610961914
      ],
      [
        "ac",
        -10.800641059875488
      ],
      [
        "▁general",
        -10.800711631774902
      ],
      [
        "▁middle",
        -10.8008394241333
      ],
      [
        "piRqa",
        -10.801054000854492
      ],
      [
        "▁vrat",
        -10.80113697052002
      ],
      [
        "sarpa",
        -10.80149269104004
      ],
      [
        "sAra",
        -10.802802085876465
      ],
      [
        "Ka",
        -10.802875518798828
      ],
      [
        "mahAdeva",
        -10.802919387817385
      ],
      [
        "Sama",
        -10.803442001342772
      ],
      [
        "BAza",
        -10.803709030151367
      ],
      [
        "▁holat",
        -10.80384922027588
      ],
      [
        "▁dvij",
        -10.804946899414062
      ],
      [
        "samiD",
        -10.805220603942873
      ],
      [
        "▁Bavant",
        -10.805910110473633
      ],
      [
        "Buja",
        -10.806463241577148
      ],
      [
        "▁shot",
        -10.806814193725586
      ],
      [
        "▁takes",
        -10.806988716125488
      ],
      [
        "▁usually",
        -10.807018280029297
      ],
      [
        "▁afternoon",
        -10.807861328125
      ],
      [
        "yatna",
        -10.807939529418944
      ],
      [
        "tila",
        -10.808319091796877
      ],
      [
        "vraRa",
        -10.808772087097168
      ],
      [
        "tAra",
        -10.809334754943848
      ],
      [
        "▁gfh",
        -10.809577941894531
      ],
      [
        "▁decided",
        -10.810184478759766
      ],
      [
        "svasti",
        -10.81062126159668
      ],
      [
        "▁arms",
        -10.810870170593262
      ],
      [
        "▁Sunday",
        -10.811914443969728
      ],
      [
        "▁Pe",
        -10.811991691589355
      ],
      [
        "▁station",
        -10.8124361038208
      ],
      [
        "▁meeting",
        -10.813125610351562
      ],
      [
        "▁truth",
        -10.813924789428713
      ],
      [
        "SoRita",
        -10.814209938049316
      ],
      [
        "▁department",
        -10.81493854522705
      ],
      [
        "▁forward",
        -10.816170692443848
      ],
      [
        "gn",
        -10.816190719604492
      ],
      [
        "▁places",
        -10.81630516052246
      ],
      [
        "▁build",
        -10.81705379486084
      ],
      [
        "▁language",
        -10.817374229431152
      ],
      [
        "▁Hello",
        -10.81859016418457
      ],
      [
        "izyet",
        -10.818684577941896
      ],
      [
        "all",
        -10.819140434265137
      ],
      [
        "▁kfRvI",
        -10.819360733032228
      ],
      [
        "▁fear",
        -10.820250511169434
      ],
      [
        "▁dere",
        -10.82044792175293
      ],
      [
        "gaNgA",
        -10.820452690124512
      ],
      [
        "▁blood",
        -10.820635795593262
      ],
      [
        "vAsa",
        -10.820707321166992
      ],
      [
        "lt",
        -10.820725440979004
      ],
      [
        "izyat",
        -10.821317672729492
      ],
      [
        "▁nose",
        -10.821533203125
      ],
      [
        "▁fzi",
        -10.82215690612793
      ],
      [
        "▁club",
        -10.822351455688477
      ],
      [
        "▁cars",
        -10.8223876953125
      ],
      [
        "▁broken",
        -10.822393417358398
      ],
      [
        "▁sa",
        -10.82249927520752
      ],
      [
        "000",
        -10.822676658630373
      ],
      [
        "▁changed",
        -10.823193550109863
      ],
      [
        "▁lose",
        -10.823372840881348
      ],
      [
        "▁yours",
        -10.823898315429688
      ],
      [
        "stoma",
        -10.823980331420898
      ],
      [
        "Pa",
        -10.824556350708008
      ],
      [
        "asTi",
        -10.824668884277344
      ],
      [
        "ical",
        -10.825552940368652
      ],
      [
        "king",
        -10.82571792602539
      ],
      [
        "▁quick",
        -10.826836585998535
      ],
      [
        "▁arm",
        -10.82684326171875
      ],
      [
        "Ca",
        -10.826913833618164
      ],
      [
        "Asya",
        -10.826937675476074
      ],
      [
        "▁kul",
        -10.826971054077148
      ],
      [
        "kzAra",
        -10.827186584472656
      ],
      [
        "kaRWa",
        -10.827242851257324
      ],
      [
        "Di",
        -10.827751159667969
      ],
      [
        "▁camp",
        -10.82791805267334
      ],
      [
        "▁doubt",
        -10.828011512756348
      ],
      [
        "yati",
        -10.828471183776855
      ],
      [
        "That",
        -10.828744888305664
      ],
      [
        "homa",
        -10.829167366027832
      ],
      [
        "▁Indian",
        -10.829825401306152
      ],
      [
        "▁fair",
        -10.830521583557127
      ],
      [
        "▁cream",
        -10.830812454223633
      ],
      [
        "vapus",
        -10.831305503845217
      ],
      [
        "udaya",
        -10.831554412841797
      ],
      [
        "▁bright",
        -10.83236312866211
      ],
      [
        "AcAra",
        -10.832453727722168
      ],
      [
        "▁dream",
        -10.832548141479492
      ],
      [
        "iz",
        -10.832623481750488
      ],
      [
        "▁jal",
        -10.832783699035645
      ],
      [
        "▁district",
        -10.833372116088867
      ],
      [
        "▁Bay",
        -10.833874702453612
      ],
      [
        "▁pencil",
        -10.834406852722168
      ],
      [
        "▁position",
        -10.835715293884276
      ],
      [
        "▁safe",
        -10.835895538330078
      ],
      [
        "▁race",
        -10.836055755615234
      ],
      [
        "▁check",
        -10.836578369140623
      ],
      [
        "sti",
        -10.836769104003906
      ],
      [
        "▁system",
        -10.836831092834473
      ],
      [
        "▁pictures",
        -10.837712287902832
      ],
      [
        "▁following",
        -10.838006973266602
      ],
      [
        "▁star",
        -10.838382720947266
      ],
      [
        "▁worry",
        -10.838556289672852
      ],
      [
        "▁pieces",
        -10.838801383972168
      ],
      [
        "▁avak",
        -10.839143753051758
      ],
      [
        "Bakta",
        -10.839273452758787
      ],
      [
        "▁careful",
        -10.839335441589355
      ],
      [
        "SS",
        -10.83946418762207
      ],
      [
        "▁sUt",
        -10.839598655700684
      ],
      [
        "matsya",
        -10.839746475219728
      ],
      [
        "▁karR",
        -10.83998203277588
      ],
      [
        "▁match",
        -10.840118408203123
      ],
      [
        "▁putting",
        -10.840787887573242
      ],
      [
        "▁miss",
        -10.841670989990234
      ],
      [
        "▁garden",
        -10.842734336853027
      ],
      [
        "▁Santa",
        -10.843222618103027
      ],
      [
        "nagara",
        -10.843255996704102
      ],
      [
        "kzetra",
        -10.845026969909668
      ],
      [
        "ER",
        -10.84519100189209
      ],
      [
        "Dfj",
        -10.845284461975098
      ],
      [
        "▁pAd",
        -10.84549045562744
      ],
      [
        "ping",
        -10.845736503601074
      ],
      [
        "▁works",
        -10.845831871032717
      ],
      [
        "▁circle",
        -10.845852851867676
      ],
      [
        "▁level",
        -10.845860481262209
      ],
      [
        "▁softly",
        -10.846429824829102
      ],
      [
        "that",
        -10.846701622009276
      ],
      [
        "▁master",
        -10.846742630004885
      ],
      [
        "▁apple",
        -10.846879005432127
      ],
      [
        "nABi",
        -10.84731388092041
      ],
      [
        "▁2021",
        -10.847323417663574
      ],
      [
        "saMDi",
        -10.84794807434082
      ],
      [
        "▁vAcayet",
        -10.848180770874023
      ],
      [
        "grahaRa",
        -10.84839153289795
      ],
      [
        "▁Bo",
        -10.84876537322998
      ],
      [
        "AyuDa",
        -10.848831176757812
      ],
      [
        "buDa",
        -10.849987983703612
      ],
      [
        "▁kurvI",
        -10.85007095336914
      ],
      [
        "lakzmI",
        -10.850122451782228
      ],
      [
        "▁AND",
        -10.85067081451416
      ],
      [
        "▁strange",
        -10.85085105895996
      ],
      [
        "not",
        -10.85089874267578
      ],
      [
        "▁Bessie",
        -10.851099967956545
      ],
      [
        "▁leaf",
        -10.851101875305176
      ],
      [
        "jarA",
        -10.852058410644531
      ],
      [
        "▁Astaya",
        -10.85280418395996
      ],
      [
        "▁hospital",
        -10.853205680847168
      ],
      [
        "▁ro",
        -10.853325843811035
      ],
      [
        "parvan",
        -10.854241371154783
      ],
      [
        "▁summer",
        -10.854272842407228
      ],
      [
        "▁anybody",
        -10.854290008544922
      ],
      [
        "AtAm",
        -10.854708671569824
      ],
      [
        "gulma",
        -10.855382919311523
      ],
      [
        "▁prajA",
        -10.855514526367188
      ],
      [
        "vA",
        -10.856417655944824
      ],
      [
        "▁patat",
        -10.856589317321776
      ],
      [
        "▁pARqav",
        -10.856781005859377
      ],
      [
        "DUma",
        -10.857409477233888
      ],
      [
        "▁fix",
        -10.857576370239258
      ],
      [
        "▁return",
        -10.857696533203123
      ],
      [
        "yAc",
        -10.857908248901367
      ],
      [
        "▁football",
        -10.85849666595459
      ],
      [
        "▁Party",
        -10.85966682434082
      ],
      [
        "5",
        -10.859877586364746
      ],
      [
        "▁video",
        -10.86033058166504
      ],
      [
        "kalA",
        -10.86120319366455
      ],
      [
        "▁wall",
        -10.861205101013184
      ],
      [
        "sarasvatI",
        -10.86133861541748
      ],
      [
        "vikAra",
        -10.861903190612791
      ],
      [
        "▁Pa",
        -10.861997604370115
      ],
      [
        "▁career",
        -10.862074851989746
      ],
      [
        "▁Asyat",
        -10.862421035766602
      ],
      [
        "▁ring",
        -10.862775802612305
      ],
      [
        "▁army",
        -10.863167762756348
      ],
      [
        "▁BAvayant",
        -10.863351821899414
      ],
      [
        "mer",
        -10.863533973693848
      ],
      [
        "▁Hu",
        -10.86495304107666
      ],
      [
        "▁yajat",
        -10.86495590209961
      ],
      [
        "▁served",
        -10.86518669128418
      ],
      [
        "oo",
        -10.86593532562256
      ],
      [
        "apsaras",
        -10.86644458770752
      ],
      [
        "je",
        -10.866903305053713
      ],
      [
        "saMgrAma",
        -10.8670015335083
      ],
      [
        "▁Richard",
        -10.867006301879885
      ],
      [
        "▁figure",
        -10.868030548095703
      ],
      [
        "saMyoga",
        -10.868228912353516
      ],
      [
        "▁former",
        -10.86825942993164
      ],
      [
        "▁vetsya",
        -10.868656158447266
      ],
      [
        "sparSa",
        -10.868830680847168
      ],
      [
        "▁Am",
        -10.868879318237305
      ],
      [
        "▁vAc",
        -10.8704833984375
      ],
      [
        "▁low",
        -10.87111759185791
      ],
      [
        "▁act",
        -10.871148109436035
      ],
      [
        "der",
        -10.87120246887207
      ],
      [
        "▁snow",
        -10.872318267822266
      ],
      [
        "yate",
        -10.873727798461914
      ],
      [
        "ward",
        -10.874096870422363
      ],
      [
        "uff",
        -10.874567031860352
      ],
      [
        "▁30",
        -10.875039100646973
      ],
      [
        "yAma",
        -10.876314163208008
      ],
      [
        "gram",
        -10.876569747924805
      ],
      [
        "▁stopped",
        -10.876731872558594
      ],
      [
        "▁members",
        -10.876910209655762
      ],
      [
        "▁god",
        -10.877226829528809
      ],
      [
        "▁pie",
        -10.87742042541504
      ],
      [
        "pUjA",
        -10.877509117126465
      ],
      [
        "GRA",
        -10.878753662109377
      ],
      [
        "▁park",
        -10.879354476928713
      ],
      [
        "silver",
        -10.879678726196287
      ],
      [
        "▁pati",
        -10.880651473999023
      ],
      [
        "tfpa",
        -10.880786895751951
      ],
      [
        "▁BAv",
        -10.882369995117188
      ],
      [
        "vAri",
        -10.88241195678711
      ],
      [
        "▁court",
        -10.88270664215088
      ],
      [
        "mUzA",
        -10.882939338684082
      ],
      [
        "▁pop",
        -10.883233070373535
      ],
      [
        "▁teja",
        -10.883703231811523
      ],
      [
        "tyAm",
        -10.883946418762209
      ],
      [
        "▁Jo",
        -10.884228706359863
      ],
      [
        "muhUrta",
        -10.88444709777832
      ],
      [
        "she",
        -10.884502410888672
      ],
      [
        "ew",
        -10.884682655334473
      ],
      [
        "balam",
        -10.885591506958008
      ],
      [
        "▁liked",
        -10.885701179504396
      ],
      [
        "pavitra",
        -10.88684368133545
      ],
      [
        "ram",
        -10.88691234588623
      ],
      [
        "DArA",
        -10.88730525970459
      ],
      [
        "cyu",
        -10.887542724609377
      ],
      [
        "▁list",
        -10.88787841796875
      ],
      [
        "od",
        -10.88788604736328
      ],
      [
        "vESya",
        -10.887939453125
      ],
      [
        "keSava",
        -10.888480186462402
      ],
      [
        "ger",
        -10.888590812683104
      ],
      [
        "▁hello",
        -10.88872528076172
      ],
      [
        "▁www",
        -10.88906192779541
      ],
      [
        "▁answered",
        -10.889580726623535
      ],
      [
        "▁film",
        -10.889710426330566
      ],
      [
        "adI",
        -10.890249252319336
      ],
      [
        "▁opened",
        -10.890792846679688
      ],
      [
        "taTAgata",
        -10.89082145690918
      ],
      [
        "kAsa",
        -10.890843391418455
      ],
      [
        "aNgiras",
        -10.890888214111328
      ],
      [
        "▁ship",
        -10.89111328125
      ],
      [
        "▁Germany",
        -10.891194343566896
      ],
      [
        "▁points",
        -10.891397476196287
      ],
      [
        "▁sense",
        -10.89194393157959
      ],
      [
        "▁Sorry",
        -10.891995429992676
      ],
      [
        "▁sad",
        -10.892430305480955
      ],
      [
        "▁muni",
        -10.892480850219728
      ],
      [
        "duhitf",
        -10.893001556396484
      ],
      [
        "▁AsIt",
        -10.893224716186523
      ],
      [
        "DAman",
        -10.89343547821045
      ],
      [
        "▁using",
        -10.893567085266112
      ],
      [
        "▁happens",
        -10.893791198730469
      ],
      [
        "pfTa",
        -10.89409637451172
      ],
      [
        "▁gaR",
        -10.89451503753662
      ],
      [
        "▁cry",
        -10.895193099975586
      ],
      [
        "▁huRqat",
        -10.895193099975586
      ],
      [
        "▁eighty",
        -10.895753860473633
      ],
      [
        "Srotra",
        -10.896719932556152
      ],
      [
        "OzaDa",
        -10.89684009552002
      ],
      [
        "▁giving",
        -10.89686393737793
      ],
      [
        "▁quickly",
        -10.897778511047363
      ],
      [
        "RE",
        -10.897809028625488
      ],
      [
        "▁SarIr",
        -10.89836597442627
      ],
      [
        "tra",
        -10.89865016937256
      ],
      [
        "▁indriy",
        -10.898682594299316
      ],
      [
        "▁forty",
        -10.899022102355955
      ],
      [
        "▁Jack",
        -10.900064468383787
      ],
      [
        "▁deS",
        -10.900187492370604
      ],
      [
        "▁wonderful",
        -10.901339530944824
      ],
      [
        "▁Bear",
        -10.901851654052734
      ],
      [
        "▁seat",
        -10.902589797973633
      ],
      [
        "▁kid",
        -10.902690887451172
      ],
      [
        "▁San",
        -10.902897834777832
      ],
      [
        "▁har",
        -10.90322971343994
      ],
      [
        "atAm",
        -10.90334701538086
      ],
      [
        "pratizWA",
        -10.90392780303955
      ],
      [
        "con",
        -10.90471649169922
      ],
      [
        "▁w",
        -10.905458450317385
      ],
      [
        "▁ain",
        -10.905546188354492
      ],
      [
        "ava",
        -10.907052993774414
      ],
      [
        "▁vacan",
        -10.907086372375488
      ],
      [
        "▁towards",
        -10.90723705291748
      ],
      [
        "▁Asat",
        -10.907248497009276
      ],
      [
        "ake",
        -10.907408714294434
      ],
      [
        "▁nAg",
        -10.907445907592772
      ],
      [
        "▁eti",
        -10.907674789428713
      ],
      [
        "▁Lo",
        -10.907755851745604
      ],
      [
        "▁holding",
        -10.908931732177734
      ],
      [
        "▁saty",
        -10.909629821777344
      ],
      [
        "▁sl",
        -10.910691261291504
      ],
      [
        "maheSvara",
        -10.910897254943848
      ],
      [
        "▁sign",
        -10.911235809326172
      ],
      [
        "▁law",
        -10.911337852478027
      ],
      [
        "ator",
        -10.911989212036133
      ],
      [
        "▁aMS",
        -10.912301063537598
      ],
      [
        "▁gold",
        -10.913325309753418
      ],
      [
        "▁Ca",
        -10.913432121276855
      ],
      [
        "▁duHK",
        -10.913548469543455
      ],
      [
        "pApman",
        -10.9140625
      ],
      [
        "▁wild",
        -10.91409397125244
      ],
      [
        "▁secret",
        -10.914789199829102
      ],
      [
        "▁grew",
        -10.91518211364746
      ],
      [
        "▁pibat",
        -10.91518497467041
      ],
      [
        "▁needs",
        -10.915313720703123
      ],
      [
        "room",
        -10.915444374084473
      ],
      [
        "▁reading",
        -10.915977478027344
      ],
      [
        "▁juh",
        -10.917998313903809
      ],
      [
        "▁!",
        -10.91913604736328
      ],
      [
        "kAnta",
        -10.919578552246094
      ],
      [
        "gf",
        -10.919983863830566
      ],
      [
        "AhavanIya",
        -10.921022415161133
      ],
      [
        "▁received",
        -10.921064376831056
      ],
      [
        "▁led",
        -10.92202091217041
      ],
      [
        "▁president",
        -10.92304801940918
      ],
      [
        "▁2019",
        -10.923638343811035
      ],
      [
        "rk",
        -10.92368984222412
      ],
      [
        "saMskAra",
        -10.92439079284668
      ],
      [
        "▁fly",
        -10.924467086791992
      ],
      [
        "▁spell",
        -10.925780296325684
      ],
      [
        "aft",
        -10.925886154174805
      ],
      [
        "of",
        -10.927395820617676
      ],
      [
        "▁kfRuyAt",
        -10.927629470825195
      ],
      [
        "banDu",
        -10.927659034729004
      ],
      [
        "svapna",
        -10.92782211303711
      ],
      [
        "Salya",
        -10.927849769592283
      ],
      [
        "▁Gft",
        -10.928092956542969
      ],
      [
        "nnam",
        -10.928871154785156
      ],
      [
        "svarRa",
        -10.929085731506348
      ],
      [
        "▁corner",
        -10.929529190063477
      ],
      [
        "nam",
        -10.929999351501465
      ],
      [
        "▁parents",
        -10.931204795837402
      ],
      [
        "ect",
        -10.931259155273438
      ],
      [
        "mAnava",
        -10.932921409606934
      ],
      [
        "▁Ki",
        -10.933045387268066
      ],
      [
        "oGa",
        -10.933917045593262
      ],
      [
        "▁yuDizWir",
        -10.934077262878418
      ],
      [
        "▁heavy",
        -10.934441566467283
      ],
      [
        "vAjin",
        -10.934499740600586
      ],
      [
        "meGa",
        -10.93465518951416
      ],
      [
        "budDa",
        -10.934767723083496
      ],
      [
        "▁region",
        -10.934823989868164
      ],
      [
        "ub",
        -10.93500518798828
      ],
      [
        "▁mAs",
        -10.935033798217772
      ],
      [
        "▁forgot",
        -10.935592651367188
      ],
      [
        "aja",
        -10.935832023620604
      ],
      [
        "▁wood",
        -10.936022758483888
      ],
      [
        "▁juice",
        -10.936731338500977
      ],
      [
        "kopa",
        -10.93683910369873
      ],
      [
        "ped",
        -10.937137603759766
      ],
      [
        "▁dance",
        -10.937713623046877
      ],
      [
        "▁rAjan",
        -10.937969207763672
      ],
      [
        "▁plate",
        -10.938100814819336
      ],
      [
        "pArada",
        -10.9395112991333
      ],
      [
        "hara",
        -10.939624786376951
      ],
      [
        "▁astayet",
        -10.939998626708984
      ],
      [
        "aditi",
        -10.940110206604004
      ],
      [
        "gAtra",
        -10.940869331359863
      ],
      [
        "▁German",
        -10.941248893737791
      ],
      [
        "side",
        -10.942586898803713
      ],
      [
        "out",
        -10.942949295043944
      ],
      [
        "▁grow",
        -10.944103240966797
      ],
      [
        "▁garB",
        -10.945154190063477
      ],
      [
        "ASraya",
        -10.94516944885254
      ],
      [
        "▁puzzle",
        -10.945308685302734
      ],
      [
        "▁interest",
        -10.945670127868652
      ],
      [
        "mon",
        -10.946022987365724
      ],
      [
        "Baja",
        -10.94607639312744
      ],
      [
        "purI",
        -10.946413040161133
      ],
      [
        "▁ho",
        -10.946717262268066
      ],
      [
        "▁post",
        -10.947881698608398
      ],
      [
        "pfqa",
        -10.947927474975586
      ],
      [
        "▁svarg",
        -10.948135375976562
      ],
      [
        "▁vedizyat",
        -10.948253631591797
      ],
      [
        "▁commune",
        -10.948737144470217
      ],
      [
        "anIka",
        -10.948814392089844
      ],
      [
        "▁north",
        -10.949280738830566
      ],
      [
        "▁report",
        -10.94955348968506
      ],
      [
        "saMGa",
        -10.950573921203612
      ],
      [
        "sEnDava",
        -10.951189041137695
      ],
      [
        "ow",
        -10.951462745666504
      ],
      [
        "raSmi",
        -10.95190143585205
      ],
      [
        "▁example",
        -10.952900886535645
      ],
      [
        "▁jAnIt",
        -10.95300579071045
      ],
      [
        "harza",
        -10.9530668258667
      ],
      [
        "tal",
        -10.953164100646973
      ],
      [
        "let",
        -10.953990936279297
      ],
      [
        "locana",
        -10.954109191894531
      ],
      [
        "aDarma",
        -10.95447826385498
      ],
      [
        "yete",
        -10.956193923950195
      ],
      [
        "▁Nina",
        -10.95620346069336
      ],
      [
        "▁vAky",
        -10.9579496383667
      ],
      [
        "▁laughing",
        -10.958093643188477
      ],
      [
        "▁Thanks",
        -10.958439826965332
      ],
      [
        "▁supper",
        -10.958747863769531
      ],
      [
        "SudDi",
        -10.959078788757324
      ],
      [
        "▁reached",
        -10.959314346313477
      ],
      [
        "DU",
        -10.959778785705566
      ],
      [
        "syanti",
        -10.959874153137209
      ],
      [
        "dAra",
        -10.960281372070312
      ],
      [
        "▁bath",
        -10.960382461547852
      ],
      [
        "▁laugh",
        -10.960911750793455
      ],
      [
        "▁nobody",
        -10.96120834350586
      ],
      [
        "▁count",
        -10.962162017822266
      ],
      [
        "▁Dorothy",
        -10.962263107299805
      ],
      [
        "▁manTat",
        -10.962565422058104
      ],
      [
        "▁Sam",
        -10.962903022766112
      ],
      [
        "▁IN",
        -10.96395778656006
      ],
      [
        "barhis",
        -10.964385986328123
      ],
      [
        "▁teacher",
        -10.964972496032717
      ],
      [
        "SvAsa",
        -10.965170860290527
      ],
      [
        "▁local",
        -10.965805053710938
      ],
      [
        "▁nor",
        -10.966167449951172
      ],
      [
        "▁yudD",
        -10.966259956359863
      ],
      [
        "kru",
        -10.966485023498535
      ],
      [
        "▁Even",
        -10.966864585876465
      ],
      [
        "▁th",
        -10.96758270263672
      ],
      [
        "▁sugar",
        -10.96816635131836
      ],
      [
        "▁vac",
        -10.96823501586914
      ],
      [
        "▁catch",
        -10.968772888183594
      ],
      [
        "▁vAcayant",
        -10.968852996826172
      ],
      [
        "▁form",
        -10.968873023986816
      ],
      [
        "▁Erm",
        -10.96916675567627
      ],
      [
        "drava",
        -10.969249725341797
      ],
      [
        "▁control",
        -10.96973705291748
      ],
      [
        "ED",
        -10.969900131225586
      ],
      [
        "▁People",
        -10.970726013183594
      ],
      [
        "▁gun",
        -10.971172332763672
      ],
      [
        "▁draw",
        -10.971482276916504
      ],
      [
        "caraRa",
        -10.971491813659668
      ],
      [
        "nd",
        -10.972068786621094
      ],
      [
        "▁spoke",
        -10.972648620605469
      ],
      [
        "▁Di",
        -10.973405838012695
      ],
      [
        "nandana",
        -10.97340965270996
      ],
      [
        "LE",
        -10.97389793395996
      ],
      [
        "▁flowers",
        -10.974302291870115
      ],
      [
        "vyAsa",
        -10.974462509155272
      ],
      [
        "▁America",
        -10.974578857421877
      ],
      [
        "▁Two",
        -10.974580764770508
      ],
      [
        "sahas",
        -10.974621772766112
      ],
      [
        "▁chicken",
        -10.97536563873291
      ],
      [
        "▁suddenly",
        -10.975494384765623
      ],
      [
        "vfza",
        -10.975505828857422
      ],
      [
        "▁deh",
        -10.975903511047363
      ],
      [
        "▁Jane",
        -10.975937843322754
      ],
      [
        "dvi",
        -10.976027488708496
      ],
      [
        "▁board",
        -10.976397514343262
      ],
      [
        "▁thou",
        -10.976483345031738
      ],
      [
        "▁season",
        -10.97680377960205
      ],
      [
        "eWa",
        -10.977401733398438
      ],
      [
        "au",
        -10.977752685546877
      ],
      [
        "▁Take",
        -10.978561401367188
      ],
      [
        "▁vacant",
        -10.978798866271973
      ],
      [
        "▁sight",
        -10.979637145996094
      ],
      [
        "▁shoes",
        -10.979873657226562
      ],
      [
        "▁beginning",
        -10.980070114135742
      ],
      [
        "sutA",
        -10.980175971984863
      ],
      [
        "Bizaj",
        -10.980389595031738
      ],
      [
        "prajYApAramitA",
        -10.98039722442627
      ],
      [
        "vasizWa",
        -10.980427742004396
      ],
      [
        "ueen",
        -10.98043155670166
      ],
      [
        "▁rAj",
        -10.981372833251951
      ],
      [
        "ROG",
        -10.981603622436523
      ],
      [
        "▁rain",
        -10.982542037963867
      ],
      [
        "▁kAry",
        -10.98257827758789
      ],
      [
        "▁scared",
        -10.98287582397461
      ],
      [
        "SuBa",
        -10.984068870544434
      ],
      [
        "▁beat",
        -10.984572410583496
      ],
      [
        "▁23",
        -10.984759330749512
      ],
      [
        "▁Michael",
        -10.984856605529783
      ],
      [
        "▁earth",
        -10.985549926757812
      ],
      [
        "6",
        -10.986048698425291
      ],
      [
        "SaMkara",
        -10.98605728149414
      ],
      [
        "▁followed",
        -10.986587524414062
      ],
      [
        "▁West",
        -10.986950874328612
      ],
      [
        "jihvA",
        -10.987640380859377
      ],
      [
        "▁Adity",
        -10.987832069396973
      ],
      [
        "ther",
        -10.988112449645996
      ],
      [
        "my",
        -10.9881591796875
      ],
      [
        "▁loved",
        -10.988357543945312
      ],
      [
        "▁lakzaR",
        -10.988685607910156
      ],
      [
        "▁service",
        -10.988805770874023
      ],
      [
        "darBa",
        -10.98910427093506
      ],
      [
        "▁mAnayat",
        -10.989718437194824
      ],
      [
        "vati",
        -10.98975944519043
      ],
      [
        "▁wan",
        -10.989860534667969
      ],
      [
        "mAruta",
        -10.991059303283691
      ],
      [
        "danta",
        -10.991121292114258
      ],
      [
        "yan",
        -10.991579055786133
      ],
      [
        "naraka",
        -10.991748809814451
      ],
      [
        "RIC",
        -10.991844177246094
      ],
      [
        "▁letters",
        -10.99216651916504
      ],
      [
        "▁self",
        -10.993316650390623
      ],
      [
        "▁bread",
        -10.993338584899902
      ],
      [
        "▁Ted",
        -10.9945650100708
      ],
      [
        "her",
        -10.99509048461914
      ],
      [
        "suBUti",
        -10.995157241821287
      ],
      [
        "▁OK",
        -10.9953031539917
      ],
      [
        "ches",
        -10.995800971984863
      ],
      [
        "aDipati",
        -10.99628448486328
      ],
      [
        "▁pat",
        -10.996737480163574
      ],
      [
        "▁cl",
        -10.9970064163208
      ],
      [
        "wi",
        -10.99839210510254
      ],
      [
        "▁starts",
        -10.99847412109375
      ],
      [
        "ff",
        -10.99941062927246
      ],
      [
        "▁cross",
        -10.999916076660156
      ],
      [
        "akzi",
        -11.000554084777832
      ],
      [
        "▁Wait",
        -11.00118637084961
      ],
      [
        "▁OF",
        -11.001696586608888
      ],
      [
        "divasa",
        -11.00186252593994
      ],
      [
        "amBas",
        -11.002182006835938
      ],
      [
        "naKa",
        -11.00245761871338
      ],
      [
        "▁tail",
        -11.002821922302246
      ],
      [
        "▁25",
        -11.003762245178224
      ],
      [
        "▁Tell",
        -11.004714012145996
      ],
      [
        "▁busy",
        -11.004916191101074
      ],
      [
        "kAYcana",
        -11.005010604858398
      ],
      [
        "candana",
        -11.005075454711914
      ],
      [
        "salila",
        -11.005128860473633
      ],
      [
        "prayatna",
        -11.006025314331056
      ],
      [
        "mAnasa",
        -11.006037712097168
      ],
      [
        "aDipa",
        -11.007840156555176
      ],
      [
        "▁Captain",
        -11.007973670959473
      ],
      [
        "nt",
        -11.007990837097168
      ],
      [
        "▁maDyam",
        -11.009065628051758
      ],
      [
        "cit",
        -11.00912380218506
      ],
      [
        "pAvaka",
        -11.00961208343506
      ],
      [
        "Sruti",
        -11.010331153869627
      ],
      [
        "▁Baby",
        -11.010478019714355
      ],
      [
        "▁mar",
        -11.010857582092283
      ],
      [
        "▁24",
        -11.010899543762209
      ],
      [
        "▁lovely",
        -11.011249542236328
      ],
      [
        "hastin",
        -11.0119047164917
      ],
      [
        "DUpa",
        -11.012370109558104
      ],
      [
        "ambara",
        -11.012491226196287
      ],
      [
        "vfzwi",
        -11.01266384124756
      ],
      [
        "▁hate",
        -11.01329517364502
      ],
      [
        "po",
        -11.01417636871338
      ],
      [
        "ial",
        -11.01418685913086
      ],
      [
        "ns",
        -11.014366149902344
      ],
      [
        "aNguli",
        -11.014399528503418
      ],
      [
        "▁promise",
        -11.014756202697754
      ],
      [
        "▁test",
        -11.015708923339844
      ],
      [
        "▁deep",
        -11.01602554321289
      ],
      [
        "SfNga",
        -11.016631126403809
      ],
      [
        "▁nina",
        -11.01699447631836
      ],
      [
        "ning",
        -11.020188331604004
      ],
      [
        "▁support",
        -11.020191192626951
      ],
      [
        "ko",
        -11.020235061645508
      ],
      [
        "SAKA",
        -11.022271156311035
      ],
      [
        "svara",
        -11.022425651550291
      ],
      [
        "▁moving",
        -11.02288055419922
      ],
      [
        "sAtyaki",
        -11.023222923278809
      ],
      [
        "▁SrI",
        -11.023409843444824
      ],
      [
        "kfcCra",
        -11.023645401000977
      ],
      [
        "ara",
        -11.024078369140623
      ],
      [
        "▁pArT",
        -11.024652481079102
      ],
      [
        "tin",
        -11.02521800994873
      ],
      [
        "carman",
        -11.02550220489502
      ],
      [
        "▁Sp",
        -11.025559425354004
      ],
      [
        "▁future",
        -11.02660846710205
      ],
      [
        "▁calling",
        -11.028413772583008
      ],
      [
        "Why",
        -11.028526306152344
      ],
      [
        "dEva",
        -11.029431343078612
      ],
      [
        "ving",
        -11.029455184936523
      ],
      [
        "▁Th",
        -11.029759407043455
      ],
      [
        "paWa",
        -11.031783103942873
      ],
      [
        "▁orange",
        -11.03272533416748
      ],
      [
        "Srama",
        -11.032754898071287
      ],
      [
        "▁battle",
        -11.032904624938965
      ],
      [
        "▁First",
        -11.033717155456545
      ],
      [
        "▁ha",
        -11.033761978149414
      ],
      [
        "ized",
        -11.03416347503662
      ],
      [
        "▁tiny",
        -11.03429126739502
      ],
      [
        "▁including",
        -11.034420013427734
      ],
      [
        "lavaRa",
        -11.03513526916504
      ],
      [
        "saKI",
        -11.035423278808594
      ],
      [
        "▁Asan",
        -11.035529136657717
      ],
      [
        "janArdana",
        -11.035811424255373
      ],
      [
        "SApa",
        -11.035972595214844
      ],
      [
        "mUrti",
        -11.03609848022461
      ],
      [
        "su",
        -11.03638744354248
      ],
      [
        "CAyA",
        -11.037425994873049
      ],
      [
        "▁ISvar",
        -11.037583351135254
      ],
      [
        "▁common",
        -11.037626266479492
      ],
      [
        "buDi",
        -11.037821769714355
      ],
      [
        "▁ought",
        -11.038008689880373
      ],
      [
        "▁kfqet",
        -11.038243293762209
      ],
      [
        "▁j",
        -11.038573265075684
      ],
      [
        "▁Ja",
        -11.03896141052246
      ],
      [
        "prayoga",
        -11.039814949035645
      ],
      [
        "makes",
        -11.039972305297852
      ],
      [
        "▁BArat",
        -11.040379524230955
      ],
      [
        "▁title",
        -11.040498733520508
      ],
      [
        "▁li",
        -11.041060447692873
      ],
      [
        "oc",
        -11.041533470153809
      ],
      [
        "▁soft",
        -11.04161262512207
      ],
      [
        "▁hang",
        -11.042816162109377
      ],
      [
        "▁Du",
        -11.04283046722412
      ],
      [
        "niDana",
        -11.042922019958496
      ],
      [
        "puts",
        -11.043002128601074
      ],
      [
        "▁yujyat",
        -11.043047904968262
      ],
      [
        "▁trust",
        -11.043681144714355
      ],
      [
        "▁final",
        -11.043730735778809
      ],
      [
        "maraRa",
        -11.044219017028809
      ],
      [
        "▁Su",
        -11.04483699798584
      ],
      [
        "▁month",
        -11.046393394470217
      ],
      [
        "Buvana",
        -11.046661376953123
      ],
      [
        "mAkzika",
        -11.04675006866455
      ],
      [
        "▁Fraser",
        -11.04687213897705
      ],
      [
        "▁Saturday",
        -11.046873092651367
      ],
      [
        "▁record",
        -11.047035217285156
      ],
      [
        "▁al",
        -11.047465324401855
      ],
      [
        "vasti",
        -11.047547340393066
      ],
      [
        "▁cr",
        -11.048219680786133
      ],
      [
        "▁rose",
        -11.048330307006836
      ],
      [
        "▁Lu",
        -11.048433303833008
      ],
      [
        "ide",
        -11.048606872558594
      ],
      [
        "ding",
        -11.049039840698242
      ],
      [
        "▁kAraR",
        -11.050114631652832
      ],
      [
        "▁problems",
        -11.05029582977295
      ],
      [
        "ries",
        -11.05052089691162
      ],
      [
        "SrAdDa",
        -11.050704956054688
      ],
      [
        "aYjali",
        -11.05104923248291
      ],
      [
        "▁crying",
        -11.051247596740724
      ],
      [
        "ot",
        -11.05126667022705
      ],
      [
        "▁leaving",
        -11.052003860473633
      ],
      [
        "▁population",
        -11.052007675170898
      ],
      [
        "RI",
        -11.052220344543455
      ],
      [
        "▁thanks",
        -11.053224563598633
      ],
      [
        "▁jYApayat",
        -11.05329132080078
      ],
      [
        "▁yuNkt",
        -11.053389549255373
      ],
      [
        "amla",
        -11.053996086120604
      ],
      [
        "ug",
        -11.054221153259276
      ],
      [
        "▁comp",
        -11.054945945739746
      ],
      [
        "▁Red",
        -11.055136680603027
      ],
      [
        "druma",
        -11.055781364440918
      ],
      [
        "▁step",
        -11.05605411529541
      ],
      [
        "▁created",
        -11.056138038635254
      ],
      [
        "che",
        -11.056144714355469
      ],
      [
        "▁jYAti",
        -11.056803703308104
      ],
      [
        ",--",
        -11.05707836151123
      ],
      [
        "▁Dur",
        -11.057363510131836
      ],
      [
        "ld",
        -11.057433128356934
      ],
      [
        "nu",
        -11.057929039001465
      ],
      [
        "DyAna",
        -11.058218002319336
      ],
      [
        "▁breakfast",
        -11.05845546722412
      ],
      [
        "▁based",
        -11.059103965759276
      ],
      [
        "ris",
        -11.060050964355469
      ],
      [
        "▁pass",
        -11.060559272766112
      ],
      [
        "▁cover",
        -11.061026573181152
      ],
      [
        "▁pArayat",
        -11.061163902282717
      ],
      [
        "ung",
        -11.061468124389648
      ],
      [
        "ction",
        -11.061506271362305
      ],
      [
        "ned",
        -11.062217712402344
      ],
      [
        "▁Cr",
        -11.062227249145508
      ],
      [
        "COU",
        -11.062256813049316
      ],
      [
        "▁kaP",
        -11.062262535095217
      ],
      [
        "▁capital",
        -11.06234645843506
      ],
      [
        "act",
        -11.062873840332031
      ],
      [
        "pratyaya",
        -11.06293487548828
      ],
      [
        "mAtrA",
        -11.062975883483888
      ],
      [
        "icCA",
        -11.063224792480469
      ],
      [
        "▁yam",
        -11.063429832458496
      ],
      [
        "▁blocks",
        -11.063530921936035
      ],
      [
        "varga",
        -11.06358528137207
      ],
      [
        "▁reach",
        -11.063650131225586
      ],
      [
        "▁church",
        -11.063929557800291
      ],
      [
        "tfRa",
        -11.064091682434082
      ],
      [
        "▁Bavet",
        -11.064687728881836
      ],
      [
        "Ayatana",
        -11.064823150634766
      ],
      [
        "▁yojayat",
        -11.064952850341797
      ],
      [
        "nATa",
        -11.065863609313965
      ],
      [
        "▁vartat",
        -11.066449165344238
      ],
      [
        "▁hast",
        -11.067851066589355
      ],
      [
        "▁replied",
        -11.068865776062012
      ],
      [
        "Uru",
        -11.069194793701172
      ],
      [
        "▁vAt",
        -11.069243431091309
      ],
      [
        "▁pAtr",
        -11.069308280944824
      ],
      [
        "vyoman",
        -11.06964874267578
      ],
      [
        "▁(20",
        -11.069915771484377
      ],
      [
        "▁pur",
        -11.069915771484377
      ],
      [
        "▁excuse",
        -11.070188522338867
      ],
      [
        "virAj",
        -11.070862770080566
      ],
      [
        "kalka",
        -11.07088565826416
      ],
      [
        "picks",
        -11.07111358642578
      ],
      [
        "yAna",
        -11.071736335754396
      ],
      [
        "▁striy",
        -11.07206916809082
      ],
      [
        "martya",
        -11.072497367858888
      ],
      [
        "▁tiger",
        -11.072798728942873
      ],
      [
        "cr",
        -11.07315158843994
      ],
      [
        "▁pal",
        -11.073250770568848
      ],
      [
        "ight",
        -11.073311805725098
      ],
      [
        "▁guru",
        -11.074256896972656
      ],
      [
        "Home",
        -11.074444770812988
      ],
      [
        "▁imp",
        -11.074848175048828
      ],
      [
        "dIkzA",
        -11.075037002563477
      ],
      [
        "gen",
        -11.075353622436523
      ],
      [
        "▁Italy",
        -11.07685375213623
      ],
      [
        "▁studio",
        -11.07806396484375
      ],
      [
        "Denu",
        -11.078082084655762
      ],
      [
        "niyama",
        -11.078774452209473
      ],
      [
        "▁izR",
        -11.079249382019045
      ],
      [
        "▁bottle",
        -11.079370498657228
      ],
      [
        "▁bottom",
        -11.080708503723145
      ],
      [
        "▁sixty",
        -11.080909729003906
      ],
      [
        "OR",
        -11.081625938415527
      ],
      [
        "▁seeing",
        -11.08164405822754
      ],
      [
        "▁darSan",
        -11.08180332183838
      ],
      [
        "▁sTAn",
        -11.082094192504885
      ],
      [
        "ens",
        -11.082347869873049
      ],
      [
        "▁pfTivI",
        -11.082437515258787
      ],
      [
        "kOrava",
        -11.08254337310791
      ],
      [
        "can",
        -11.08270263671875
      ],
      [
        "▁sub",
        -11.082836151123049
      ],
      [
        "dUta",
        -11.082873344421388
      ],
      [
        "Saki",
        -11.083332061767578
      ],
      [
        "tAt",
        -11.083355903625488
      ],
      [
        "▁Visit",
        -11.08336067199707
      ],
      [
        "IN",
        -11.084271430969238
      ],
      [
        "ante",
        -11.084487915039062
      ],
      [
        "▁pAlayat",
        -11.085112571716309
      ],
      [
        "▁pen",
        -11.085234642028809
      ],
      [
        "▁fellow",
        -11.08620262145996
      ],
      [
        "▁animal",
        -11.087098121643066
      ],
      [
        "spf",
        -11.087302207946776
      ],
      [
        "▁School",
        -11.087350845336914
      ],
      [
        "tch",
        -11.087569236755373
      ],
      [
        "Akfti",
        -11.087977409362791
      ],
      [
        "▁Pro",
        -11.088529586791992
      ],
      [
        "▁Dar",
        -11.089487075805664
      ],
      [
        "▁Ne",
        -11.08982753753662
      ],
      [
        "▁rAjy",
        -11.090136528015137
      ],
      [
        "pAYcAla",
        -11.09084701538086
      ],
      [
        "▁municipality",
        -11.09135913848877
      ],
      [
        "kavi",
        -11.091609954833984
      ],
      [
        "▁Bi",
        -11.091951370239258
      ],
      [
        "▁glass",
        -11.09196949005127
      ],
      [
        "▁push",
        -11.092450141906738
      ],
      [
        "▁chocolate",
        -11.092692375183104
      ],
      [
        "▁watching",
        -11.092732429504396
      ],
      [
        "DAnya",
        -11.093098640441896
      ],
      [
        "▁ill",
        -11.093767166137695
      ],
      [
        "van",
        -11.093908309936523
      ],
      [
        "Bezaja",
        -11.093988418579102
      ],
      [
        "ang",
        -11.094024658203123
      ],
      [
        "yojana",
        -11.09402847290039
      ],
      [
        "▁California",
        -11.094032287597656
      ],
      [
        "SaraRa",
        -11.095008850097656
      ],
      [
        "▁singing",
        -11.095139503479004
      ],
      [
        "▁butterfly",
        -11.095375061035156
      ],
      [
        "juza",
        -11.09579086303711
      ],
      [
        "▁butter",
        -11.09625244140625
      ],
      [
        "our",
        -11.096508026123049
      ],
      [
        "▁Tony",
        -11.0969877243042
      ],
      [
        "▁u",
        -11.097040176391602
      ],
      [
        "▁share",
        -11.097753524780272
      ],
      [
        "▁IT",
        -11.097773551940918
      ],
      [
        "▁bigger",
        -11.098241806030272
      ],
      [
        "kziti",
        -11.098992347717283
      ],
      [
        "▁Tom",
        -11.099371910095217
      ],
      [
        "▁Minister",
        -11.099417686462402
      ],
      [
        "▁21",
        -11.09970760345459
      ],
      [
        "nfpati",
        -11.099761009216309
      ],
      [
        "He",
        -11.10013484954834
      ],
      [
        "Dfti",
        -11.100506782531738
      ],
      [
        "▁spoon",
        -11.100615501403809
      ],
      [
        "ANN",
        -11.100661277770996
      ],
      [
        "▁stage",
        -11.100845336914062
      ],
      [
        "ier",
        -11.101760864257812
      ],
      [
        "▁State",
        -11.101969718933104
      ],
      [
        "▁wow",
        -11.102232933044434
      ],
      [
        "ions",
        -11.102303504943848
      ],
      [
        "ftvij",
        -11.102500915527344
      ],
      [
        "praBfti",
        -11.103222846984863
      ],
      [
        "▁political",
        -11.103466987609863
      ],
      [
        "▁further",
        -11.103475570678713
      ],
      [
        "Be",
        -11.103736877441406
      ],
      [
        "▁legs",
        -11.103923797607422
      ],
      [
        "▁stuck",
        -11.104843139648438
      ],
      [
        "▁carried",
        -11.104850769042969
      ],
      [
        "▁alive",
        -11.106189727783203
      ],
      [
        "▁carry",
        -11.107175827026367
      ],
      [
        "ple",
        -11.107264518737791
      ],
      [
        "val",
        -11.10733699798584
      ],
      [
        "kx",
        -11.1074857711792
      ],
      [
        "▁mUlam",
        -11.107574462890623
      ],
      [
        "avasTA",
        -11.108399391174316
      ],
      [
        "mantrin",
        -11.108895301818848
      ],
      [
        "vfzRi",
        -11.10891056060791
      ],
      [
        "▁Stop",
        -11.109033584594728
      ],
      [
        "▁itself",
        -11.109553337097168
      ],
      [
        "▁kitty",
        -11.110269546508787
      ],
      [
        "ship",
        -11.110438346862791
      ],
      [
        "▁appeared",
        -11.111937522888184
      ],
      [
        "▁Texas",
        -11.112990379333496
      ],
      [
        "▁However",
        -11.113070487976074
      ],
      [
        "▁helped",
        -11.113319396972656
      ],
      [
        "nes",
        -11.114165306091309
      ],
      [
        "kuntI",
        -11.11435604095459
      ],
      [
        "▁account",
        -11.11435890197754
      ],
      [
        "aDvan",
        -11.114367485046388
      ],
      [
        "▁asking",
        -11.11447048187256
      ],
      [
        "▁professional",
        -11.114786148071287
      ],
      [
        "▁names",
        -11.115060806274414
      ],
      [
        "▁games",
        -11.115209579467772
      ],
      [
        "▁IS",
        -11.115428924560549
      ],
      [
        "▁perfect",
        -11.116742134094238
      ],
      [
        "▁track",
        -11.11737060546875
      ],
      [
        "vinASa",
        -11.117414474487305
      ],
      [
        "▁questions",
        -11.11763858795166
      ],
      [
        "bout",
        -11.11766242980957
      ],
      [
        "▁lo",
        -11.117884635925291
      ],
      [
        "jAla",
        -11.118276596069336
      ],
      [
        "▁drop",
        -11.118931770324709
      ],
      [
        "▁brown",
        -11.119248390197754
      ],
      [
        "▁Father",
        -11.11937427520752
      ],
      [
        "waNkaRa",
        -11.119420051574709
      ],
      [
        "ough",
        -11.119478225708008
      ],
      [
        "▁tA",
        -11.119815826416016
      ],
      [
        "Baji",
        -11.120291709899902
      ],
      [
        "▁expect",
        -11.120403289794922
      ],
      [
        "▁devatA",
        -11.120466232299805
      ],
      [
        "▁Ursula",
        -11.12122917175293
      ],
      [
        "▁background",
        -11.121299743652344
      ],
      [
        "▁somewhere",
        -11.121368408203123
      ],
      [
        "▁pattr",
        -11.121862411499023
      ],
      [
        "▁India",
        -11.12222957611084
      ],
      [
        "ek",
        -11.122459411621094
      ],
      [
        "▁bought",
        -11.12260627746582
      ],
      [
        "rasAyana",
        -11.123382568359377
      ],
      [
        "▁charge",
        -11.12342929840088
      ],
      [
        "▁pASayat",
        -11.1235933303833
      ],
      [
        "▁Very",
        -11.12395191192627
      ],
      [
        "vaNga",
        -11.123982429504396
      ],
      [
        "▁slice",
        -11.124008178710938
      ],
      [
        "jantu",
        -11.124573707580566
      ],
      [
        "haMsa",
        -11.124743461608888
      ],
      [
        "saMKyA",
        -11.125367164611816
      ],
      [
        "▁proud",
        -11.125393867492676
      ],
      [
        "▁except",
        -11.125911712646484
      ],
      [
        "▁surprise",
        -11.126127243041992
      ],
      [
        "▁bite",
        -11.126439094543455
      ],
      [
        "Sayana",
        -11.12668228149414
      ],
      [
        "kumBa",
        -11.127050399780272
      ],
      [
        "▁bAhu",
        -11.127821922302246
      ],
      [
        "caru",
        -11.1279296875
      ],
      [
        "ravi",
        -11.1279935836792
      ],
      [
        "▁loud",
        -11.128155708312988
      ],
      [
        "▁Robert",
        -11.12815761566162
      ],
      [
        "She",
        -11.128399848937988
      ],
      [
        "▁le",
        -11.128413200378418
      ],
      [
        "In",
        -11.128484725952148
      ],
      [
        "▁22",
        -11.128568649291992
      ],
      [
        "▁tray",
        -11.128637313842772
      ],
      [
        "asmin",
        -11.12873077392578
      ],
      [
        "vadana",
        -11.129268646240234
      ],
      [
        "▁brave",
        -11.129331588745115
      ],
      [
        "▁Really",
        -11.129660606384276
      ],
      [
        "▁pakz",
        -11.130133628845217
      ],
      [
        "7",
        -11.13050365447998
      ],
      [
        "mar",
        -11.13071060180664
      ],
      [
        "dvijAti",
        -11.130735397338867
      ],
      [
        "▁objects",
        -11.130864143371582
      ],
      [
        "▁walked",
        -11.130878448486328
      ],
      [
        "gArhapatya",
        -11.131629943847656
      ],
      [
        "atri",
        -11.132003784179688
      ],
      [
        "▁lie",
        -11.132033348083496
      ],
      [
        "line",
        -11.132070541381836
      ],
      [
        "sveda",
        -11.132529258728027
      ],
      [
        "▁Little",
        -11.132874488830566
      ],
      [
        "Anana",
        -11.13292121887207
      ],
      [
        "pakzin",
        -11.133707046508787
      ],
      [
        "saMDyA",
        -11.133707046508787
      ],
      [
        "saBA",
        -11.133832931518556
      ],
      [
        "▁Ko",
        -11.133864402770996
      ],
      [
        "yet",
        -11.133905410766602
      ],
      [
        "ten",
        -11.134339332580566
      ],
      [
        "▁ta",
        -11.135025024414062
      ],
      [
        "▁yyy",
        -11.135106086730955
      ],
      [
        "▁icCat",
        -11.135132789611816
      ],
      [
        "▁dAn",
        -11.135610580444336
      ],
      [
        "vistara",
        -11.136063575744627
      ],
      [
        "▁eggs",
        -11.136748313903809
      ],
      [
        "▁asyat",
        -11.137380599975586
      ],
      [
        "▁ear",
        -11.137904167175291
      ],
      [
        "▁attention",
        -11.13790512084961
      ],
      [
        "▁Russian",
        -11.138182640075684
      ],
      [
        "sinDu",
        -11.13819408416748
      ],
      [
        "▁fzaB",
        -11.138399124145508
      ],
      [
        "▁na",
        -11.138489723205566
      ],
      [
        "juz",
        -11.138609886169434
      ],
      [
        "▁tall",
        -11.138643264770508
      ],
      [
        "▁worth",
        -11.138727188110352
      ],
      [
        "▁nearly",
        -11.138910293579102
      ],
      [
        "parAkrama",
        -11.139866828918455
      ],
      [
        "▁dravy",
        -11.140207290649414
      ],
      [
        "▁gamizyat",
        -11.140363693237305
      ],
      [
        "▁tIrT",
        -11.140410423278809
      ],
      [
        "▁kzIr",
        -11.140729904174805
      ],
      [
        "▁plastic",
        -11.141371726989746
      ],
      [
        "▁allowed",
        -11.141487121582031
      ],
      [
        "kapi",
        -11.1417875289917
      ],
      [
        "▁block",
        -11.14179515838623
      ],
      [
        "▁owl",
        -11.143048286437988
      ],
      [
        "ripu",
        -11.143260955810549
      ],
      [
        "ez",
        -11.14378261566162
      ],
      [
        "8",
        -11.144290924072266
      ],
      [
        "▁beach",
        -11.144506454467772
      ],
      [
        "Agama",
        -11.145081520080566
      ],
      [
        "▁mi",
        -11.14509391784668
      ],
      [
        "uzas",
        -11.145341873168944
      ],
      [
        "▁farm",
        -11.145644187927246
      ],
      [
        "antika",
        -11.146344184875488
      ],
      [
        "▁character",
        -11.14650821685791
      ],
      [
        "▁weren",
        -11.146960258483888
      ],
      [
        "▁miles",
        -11.147275924682615
      ],
      [
        "ors",
        -11.147475242614746
      ],
      [
        "▁Uncle",
        -11.147772789001465
      ],
      [
        "miTuna",
        -11.147833824157717
      ],
      [
        "▁Lady",
        -11.14783763885498
      ],
      [
        "▁BIzm",
        -11.148237228393556
      ],
      [
        "▁ni",
        -11.148326873779297
      ],
      [
        "▁shut",
        -11.148887634277344
      ],
      [
        "sTAlI",
        -11.149155616760254
      ],
      [
        "sTiti",
        -11.149194717407228
      ],
      [
        "pAti",
        -11.150059700012209
      ],
      [
        "▁vas",
        -11.15021514892578
      ],
      [
        "kin",
        -11.151558876037598
      ],
      [
        "▁Bed",
        -11.151564598083496
      ],
      [
        "▁ch",
        -11.15164279937744
      ],
      [
        "▁stars",
        -11.151656150817873
      ],
      [
        "sarga",
        -11.151888847351074
      ],
      [
        "parAyaRa",
        -11.152031898498535
      ],
      [
        "field",
        -11.152061462402344
      ],
      [
        "Asa",
        -11.152082443237305
      ],
      [
        "▁learned",
        -11.152987480163574
      ],
      [
        "sen",
        -11.153182983398438
      ],
      [
        "▁Henry",
        -11.1534423828125
      ],
      [
        "▁James",
        -11.153451919555664
      ],
      [
        "tfzRA",
        -11.15349292755127
      ],
      [
        "▁toward",
        -11.153494834899902
      ],
      [
        "▁cook",
        -11.153547286987305
      ],
      [
        "▁mAMs",
        -11.153730392456056
      ],
      [
        "▁Lot",
        -11.153854370117188
      ],
      [
        "▁rAtr",
        -11.153901100158691
      ],
      [
        "BAra",
        -11.154205322265623
      ],
      [
        "Amaya",
        -11.154650688171388
      ],
      [
        "▁grass",
        -11.154869079589844
      ],
      [
        "gg",
        -11.154999732971191
      ],
      [
        "▁sell",
        -11.155338287353516
      ],
      [
        "▁wide",
        -11.155435562133787
      ],
      [
        "%",
        -11.155806541442873
      ],
      [
        "house",
        -11.15638828277588
      ],
      [
        "drORi",
        -11.156428337097168
      ],
      [
        "SOca",
        -11.156888961791992
      ],
      [
        "bAnDava",
        -11.156947135925291
      ],
      [
        "gupa",
        -11.157015800476074
      ],
      [
        "▁player",
        -11.157400131225586
      ],
      [
        "▁vAk",
        -11.157532691955566
      ],
      [
        "▁information",
        -11.157733917236328
      ],
      [
        "ud",
        -11.15781307220459
      ],
      [
        "▁Col",
        -11.157957077026367
      ],
      [
        "Bakza",
        -11.15805435180664
      ],
      [
        "▁tattv",
        -11.158160209655762
      ],
      [
        "▁chief",
        -11.15836238861084
      ],
      [
        "▁knock",
        -11.158525466918944
      ],
      [
        "]!",
        -11.159010887145996
      ],
      [
        "▁island",
        -11.15907096862793
      ],
      [
        "▁janizyat",
        -11.159221649169922
      ],
      [
        "▁shouldn",
        -11.160029411315918
      ],
      [
        "agnihotra",
        -11.160656929016112
      ],
      [
        "savana",
        -11.161088943481444
      ],
      [
        "▁ratn",
        -11.16123390197754
      ],
      [
        "▁ganD",
        -11.163040161132812
      ],
      [
        "apAna",
        -11.163870811462402
      ],
      [
        "▁trip",
        -11.163891792297363
      ],
      [
        "lor",
        -11.16453742980957
      ],
      [
        "▁Florence",
        -11.16490077972412
      ],
      [
        "▁tower",
        -11.165377616882324
      ],
      [
        "havya",
        -11.165560722351074
      ],
      [
        "▁birds",
        -11.1655912399292
      ],
      [
        "pippalI",
        -11.165851593017578
      ],
      [
        "gOtama",
        -11.16592788696289
      ],
      [
        "▁vAs",
        -11.165940284729004
      ],
      [
        "yAtA",
        -11.16606330871582
      ],
      [
        "car",
        -11.166165351867676
      ],
      [
        "▁rakz",
        -11.166444778442385
      ],
      [
        "▁puzp",
        -11.166888236999512
      ],
      [
        "▁Fe",
        -11.167378425598145
      ],
      [
        "jAtavedas",
        -11.167683601379396
      ],
      [
        "▁devI",
        -11.167765617370604
      ],
      [
        "▁izyat",
        -11.1680908203125
      ],
      [
        "latA",
        -11.16823673248291
      ],
      [
        "nayana",
        -11.168903350830078
      ],
      [
        "▁travel",
        -11.169187545776367
      ],
      [
        "▁follow",
        -11.169586181640623
      ],
      [
        "▁manuzy",
        -11.169687271118164
      ],
      [
        "san",
        -11.170507431030272
      ],
      [
        "annAdya",
        -11.170681953430176
      ],
      [
        "pu",
        -11.170716285705566
      ],
      [
        "chi",
        -11.171451568603516
      ],
      [
        "tri",
        -11.171558380126951
      ],
      [
        "candramas",
        -11.171754837036133
      ],
      [
        "▁varuR",
        -11.172540664672852
      ],
      [
        "▁rog",
        -11.172661781311035
      ],
      [
        "▁Black",
        -11.172683715820312
      ],
      [
        "▁bIj",
        -11.172691345214844
      ],
      [
        "araRya",
        -11.17352294921875
      ],
      [
        "ruDira",
        -11.173639297485352
      ],
      [
        "kOnteya",
        -11.174418449401855
      ],
      [
        "manyu",
        -11.174456596374512
      ],
      [
        "▁Was",
        -11.174595832824709
      ],
      [
        "▁aNgam",
        -11.17574405670166
      ],
      [
        "So",
        -11.176000595092772
      ],
      [
        "▁asur",
        -11.176079750061035
      ],
      [
        "▁dropped",
        -11.176506042480469
      ],
      [
        "▁bank",
        -11.177380561828612
      ],
      [
        "▁HE",
        -11.177528381347656
      ],
      [
        "sing",
        -11.17754364013672
      ],
      [
        "▁vAyu",
        -11.177571296691896
      ],
      [
        "▁due",
        -11.17768096923828
      ],
      [
        "▁EXP",
        -11.177692413330078
      ],
      [
        "▁White",
        -11.178022384643556
      ],
      [
        "rd",
        -11.178107261657717
      ],
      [
        "▁River",
        -11.17818832397461
      ],
      [
        "BAma",
        -11.178439140319824
      ],
      [
        "▁astayant",
        -11.178544998168944
      ],
      [
        "kvATa",
        -11.178759574890137
      ],
      [
        "▁Roman",
        -11.17883014678955
      ],
      [
        "skanDa",
        -11.179083824157717
      ],
      [
        "io",
        -11.1792573928833
      ],
      [
        "GMA",
        -11.17956256866455
      ],
      [
        "▁century",
        -11.179993629455566
      ],
      [
        "▁Fa",
        -11.18080711364746
      ],
      [
        "▁period",
        -11.180861473083496
      ],
      [
        "▁jezat",
        -11.180877685546877
      ],
      [
        "mukti",
        -11.180926322937012
      ],
      [
        "▁bye",
        -11.181498527526855
      ],
      [
        "▁diS",
        -11.181671142578123
      ],
      [
        "saMyuga",
        -11.18245792388916
      ],
      [
        "tf",
        -11.183034896850586
      ],
      [
        "utpatti",
        -11.18311595916748
      ],
      [
        "KaRqa",
        -11.183147430419922
      ],
      [
        "▁telephone",
        -11.183792114257812
      ],
      [
        "▁rich",
        -11.18507957458496
      ],
      [
        "puMgava",
        -11.185258865356444
      ],
      [
        "▁interesting",
        -11.186311721801758
      ],
      [
        "▁hurry",
        -11.186731338500977
      ],
      [
        "▁Friday",
        -11.186739921569824
      ],
      [
        "kfmi",
        -11.187420845031738
      ],
      [
        "low",
        -11.187759399414062
      ],
      [
        "▁horses",
        -11.187926292419434
      ],
      [
        "vu",
        -11.188102722167969
      ],
      [
        "▁Council",
        -11.188189506530762
      ],
      [
        "▁respect",
        -11.188255310058594
      ],
      [
        "▁aSv",
        -11.188364028930664
      ],
      [
        "vftta",
        -11.188389778137209
      ],
      [
        "Gana",
        -11.189257621765137
      ],
      [
        "▁flew",
        -11.18969440460205
      ],
      [
        "▁saMvatsar",
        -11.189997673034668
      ],
      [
        "tapasvin",
        -11.190157890319824
      ],
      [
        "Sarad",
        -11.19029712677002
      ],
      [
        "uras",
        -11.192058563232422
      ],
      [
        "Ahava",
        -11.193851470947266
      ],
      [
        "▁welcome",
        -11.194116592407228
      ],
      [
        "SradDA",
        -11.194393157958984
      ],
      [
        "tanaya",
        -11.194527626037598
      ],
      [
        "tuH",
        -11.194613456726074
      ],
      [
        "▁hall",
        -11.194841384887695
      ],
      [
        "▁manut",
        -11.194869041442873
      ],
      [
        "▁uncle",
        -11.195609092712402
      ],
      [
        "end",
        -11.195728302001951
      ],
      [
        "▁sticks",
        -11.195998191833496
      ],
      [
        "▁none",
        -11.196000099182127
      ],
      [
        "▁arD",
        -11.196608543395996
      ],
      [
        "▁walking",
        -11.197155952453612
      ],
      [
        "BR",
        -11.197336196899414
      ],
      [
        "vanaspati",
        -11.19738483428955
      ],
      [
        "saNga",
        -11.197479248046877
      ],
      [
        "▁showed",
        -11.197586059570312
      ],
      [
        "▁finger",
        -11.197619438171388
      ],
      [
        "▁vizRu",
        -11.198647499084473
      ],
      [
        "▁Je",
        -11.198787689208984
      ],
      [
        "▁Our",
        -11.198869705200195
      ],
      [
        "▁Che",
        -11.199077606201172
      ],
      [
        "▁em",
        -11.199207305908203
      ],
      [
        "▁Bav",
        -11.199316024780272
      ],
      [
        "▁smile",
        -11.199395179748535
      ],
      [
        "yukti",
        -11.199492454528809
      ],
      [
        "ture",
        -11.199913024902344
      ],
      [
        "ified",
        -11.200114250183104
      ],
      [
        "ABaraRa",
        -11.200899124145508
      ],
      [
        "▁du",
        -11.201035499572754
      ],
      [
        "lan",
        -11.20107078552246
      ],
      [
        "▁par",
        -11.201342582702637
      ],
      [
        "rayi",
        -11.201519966125488
      ],
      [
        "▁fresh",
        -11.201557159423828
      ],
      [
        "▁lawyer",
        -11.20156478881836
      ],
      [
        "▁neck",
        -11.20168685913086
      ],
      [
        "ach",
        -11.201974868774414
      ],
      [
        "▁gar",
        -11.202856063842772
      ],
      [
        "▁Mama",
        -11.20302963256836
      ],
      [
        "▁jinvat",
        -11.203868865966797
      ],
      [
        "▁difficult",
        -11.20409870147705
      ],
      [
        "singing",
        -11.204346656799316
      ],
      [
        "▁machine",
        -11.204548835754396
      ],
      [
        "There",
        -11.205347061157228
      ],
      [
        "ever",
        -11.205392837524414
      ],
      [
        "▁fa",
        -11.205531120300291
      ],
      [
        "AyuH",
        -11.206088066101074
      ],
      [
        "▁AMhat",
        -11.206178665161133
      ],
      [
        "▁Shi",
        -11.206428527832031
      ],
      [
        "rn",
        -11.206587791442873
      ],
      [
        "vaDU",
        -11.206872940063477
      ],
      [
        "▁angry",
        -11.207550048828123
      ],
      [
        "▁flat",
        -11.208052635192873
      ],
      [
        "Gawa",
        -11.208528518676758
      ],
      [
        "▁Te",
        -11.208863258361816
      ],
      [
        "▁nurse",
        -11.209002494812012
      ],
      [
        "mahIpati",
        -11.209071159362791
      ],
      [
        "sADana",
        -11.209253311157228
      ],
      [
        "ES",
        -11.209264755249023
      ],
      [
        "▁European",
        -11.209354400634766
[...]
