<unk>	0
<s>	0
</s>	0
_	-2.49258
:	-2.73043
A	-3.14157
dr	-3.18346
,	-3.25441
)	-3.57361
(	-3.58765
ATA	-3.59337
DR	-3.59339
AVY	-3.59356
.	-4.09963
sk	-4.27751
kr	-4.28406
▁PR	-4.28621
GUN	-4.28663
AKAR	-4.28669
KRI	-4.28671
YA	-4.29152
eka	-4.4343
▁SAM	-4.52683
YOG	-4.52694
▁*	-4.62616
▁the	-4.8287
~	-4.91246
s	-4.97154
'	-4.99108
▁[	-5.03519
▁	-5.16176
▁(	-5.26304
▁{	-5.30162
▁]	-5.30172
▁}	-5.30271
▁)	-5.33309
▁a	-5.34011
e	-5.37097
\	-5.40352
▁I	-5.45562
▁to	-5.46127
▁and	-5.46602
?	-5.4774
CHI	-5.52568
a	-5.53954
▁you	-5.59037
MOT	-5.60727
▁of	-5.65582
aH	-5.73519
i	-5.77453
am	-5.81911
▁in	-5.81985
▁VIS	-5.83043
AY	-5.84983
t	-5.87785
kar	-5.91386
Xi	-5.93022
aNa	-5.93066
▁it	-5.93536
▁that	-6.0161
m	-6.0991
▁=	-6.20816
▁is	-6.26552
▁was	-6.26654
Y	-6.39775
▁he	-6.52938
H	-6.54414
▁on	-6.55442
kf	-6.59059
~\	-6.60504
▁for	-6.6359
bahu	-6.65108
▁"	-6.66364
▁what	-6.71738
~^	-6.77772
!	-6.7834
▁with	-6.83992
]	-6.84921
vi	-6.86842
▁this	-6.93617
▁have	-6.97533
-	-6.98007
▁be	-7.00569
▁me	-7.01025
▁we	-7.01516
▁at	-7.05495
▁not	-7.05741
FAT	-7.06014
▁-	-7.06166
▁do	-7.07391
▁as	-7.11255
▁one	-7.1161
▁her	-7.12895
▁they	-7.12984
...	-7.13575
re	-7.13899
\,	-7.14239
qu	-7.17023
▁his	-7.17293
▁are	-7.20362
▁she	-7.20643
▁can	-7.22957
▁no	-7.23009
r	-7.25163
▁The	-7.25323
ing	-7.28086
▁my	-7.29262
▁there	-7.29446
va	-7.30586
▁had	-7.31612
▁all	-7.3167
▁know	-7.33098
ed	-7.35611
▁up	-7.3678
d	-7.36886
O	-7.38057
▁don	-7.39181
xvi	-7.40174
BU	-7.41142
▁but	-7.41656
▁like	-7.42283
▁so	-7.44164
ca	-7.44199
▁your	-7.4526
▁from	-7.46189
▁It	-7.48922
AH	-7.49229
▁out	-7.51747
te	-7.53862
ta	-7.53932
ll	-7.56208
I	-7.56218
▁him	-7.57757
▁were	-7.59122
asa	-7.59367
▁by	-7.60357
▁go	-7.60855
▁said	-7.61478
▁He	-7.61728
▁You	-7.63834
▁yeah	-7.65497
▁here	-7.67207
▁about	-7.68958
▁an	-7.69156
kfqa	-7.69787
▁get	-7.71429
▁see	-7.73182
▁did	-7.74162
▁xxx	-7.74739
▁just	-7.75702
▁them	-7.78293
y	-7.79309
ve	-7.79997
deva	-7.80103
▁who	-7.80611
dA	-7.81891
;	-7.82155
▁right	-7.82841
▁if	-7.8299
▁when	-7.85056
▁now	-7.86462
▁or	-7.86543
da	-7.87141
▁think	-7.88695
▁oh	-7.8896
▁some	-7.89653
▁would	-7.89796
ja	-7.90733
p	-7.91542
x	-7.9278
R	-7.93261
ly	-7.93298
▁little	-7.96623
▁And	-7.97902
▁will	-7.98847
agni	-7.99565
rAjan	-7.99988
Am	-8.00053
].	-8.00359
."	-8.00402
▁then	-8.01447
▁got	-8.0271
▁want	-8.02763
▁time	-8.06168
▁two	-8.06646
f	-8.06892
▁where	-8.07156
▁more	-8.07222
▁been	-8.07728
▁good	-8.07952
▁okay	-8.09125
▁how	-8.09267
N	-8.09329
▁very	-8.10366
▁going	-8.11059
"	-8.11323
ji	-8.11773
▁has	-8.12387
▁down	-8.13743
▁which	-8.13825
▁their	-8.14768
▁back	-8.1531
MAR	-8.15909
▁over	-8.18788
er	-8.19394
ga	-8.20915
▁put	-8.21172
▁could	-8.21457
▁She	-8.21798
▁What	-8.22166
▁come	-8.23233
ha	-8.23412
n	-8.23637
▁'	-8.23703
na	-8.24564
Adi	-8.24843
vida	-8.24981
▁well	-8.25838
asta	-8.26606
loka	-8.26775
yAm	-8.27206
asu	-8.27727
▁We	-8.29028
pa	-8.29653
▁people	-8.30283
,"	-8.31013
INV	-8.3154
▁say	-8.3164
Atman	-8.31993
▁look	-8.32039
arTa	-8.32918
▁other	-8.33102
▁But	-8.33763
▁make	-8.34263
▁too	-8.34563
▁into	-8.36691
Darma	-8.37584
ahi	-8.38511
▁gonna	-8.38948
▁man	-8.39145
▁No	-8.39372
u	-8.40064
indra	-8.41237
▁%	-8.44853
oti	-8.45742
▁take	-8.45811
putra	-8.46011
▁first	-8.46183
ya	-8.46321
▁way	-8.46866
--	-8.48351
▁In	-8.48829
▁off	-8.52297
▁any	-8.53529
▁let	-8.54211
▁tell	-8.54252
▁us	-8.54882
tva	-8.54919
S	-8.55355
dAna	-8.55413
▁why	-8.55745
df	-8.56507
▁So	-8.5749
jYA	-8.57824
▁That	-8.57983
D	-8.58235
▁didn	-8.58353
rasa	-8.5886
in	-8.59109
karman	-8.59705
Si	-8.59782
yu	-8.59812
brahman	-8.60216
▁only	-8.60319
z	-8.60543
▁because	-8.61839
▁something	-8.62255
laughs	-8.62675
▁They	-8.6275
▁made	-8.63365
▁Oh	-8.64417
k	-8.64545
SIS	-8.64721
▁after	-8.66207
▁Yeah	-8.66226
hu	-8.66566
▁much	-8.66884
▁our	-8.67554
▁these	-8.68217
jana	-8.68661
▁er	-8.69529
▁than	-8.70416
int	-8.71081
▁day	-8.7247
BRO	-8.72773
▁really	-8.72913
rUpa	-8.74326
▁three	-8.74469
kAla	-8.75319
▁went	-8.75669
ma	-8.75953
▁This	-8.76807
▁should	-8.77413
▁mean	-8.77918
o	-8.77965
▁before	-8.78473
▁again	-8.79331
/	-8.79923
▁through	-8.80012
aha	-8.80055
▁never	-8.80434
▁Well	-8.80774
mu	-8.81055
▁came	-8.81438
pitf	-8.81442
▁still	-8.82052
bala	-8.8324
yajYa	-8.83555
▁also	-8.83752
▁Chi	-8.83921
huq	-8.84783
?"	-8.84861
carca	-8.85227
▁wanna	-8.85697
ap	-8.86426
▁need	-8.86806
▁many	-8.87108
▁away	-8.87203
▁long	-8.87526
▁home	-8.87753
▁thing	-8.89071
▁kfRut	-8.90469
al	-8.90545
▁those	-8.90579
raTa	-8.90605
▁big	-8.90712
go	-8.91494
▁old	-8.91599
▁thought	-8.91806
▁yes	-8.92197
manas	-8.92751
th	-8.93055
▁give	-8.93149
▁name	-8.93392
kAma	-8.9367
▁There	-8.94123
▁um	-8.94186
▁work	-8.94599
▁last	-8.94893
dx	-8.94924
▁another	-8.95637
▁does	-8.96989
▁doing	-8.96999
▁great	-8.98349
▁things	-8.98374
▁mother	-8.99007
Pala	-8.99823
▁must	-9.01196
puruza	-9.0167
▁house	-9.02059
c	-9.02426
▁play	-9.02806
brAhmaRa	-9.03006
▁eat	-9.03094
▁am	-9.03115
▁S	-9.03133
graha	-9.03183
▁de	-9.0328
anta	-9.03587
Sru	-9.03615
pA	-9.04166
Da	-9.0448
▁even	-9.04534
▁won	-9.0561
▁dev	-9.06033
iza	-9.06381
brU	-9.0804
▁called	-9.08203
▁Mr	-9.08583
manTa	-9.09528
▁night	-9.0959
brUsa	-9.09859
guRa	-9.10702
▁kfqat	-9.10872
▁kurut	-9.11173
▁B	-9.11233
Bf	-9.11852
▁years	-9.12208
l	-9.12727
▁find	-9.13163
soma	-9.13676
URS	-9.13825
U	-9.13842
▁huh	-9.13849
▁Yes	-9.13874
di	-9.14399
▁better	-9.14642
ay	-9.14905
prARa	-9.14939
▁C	-9.15007
.]	-9.15338
kzi	-9.15531
▁boy	-9.15968
nara	-9.16269
▁help	-9.16781
ra	-9.16909
▁done	-9.17972
zu	-9.18085
▁new	-9.18654
▁around	-9.18999
▁place	-9.19138
▁being	-9.20074
▁sure	-9.20867
muKa	-9.21009
▁four	-9.21268
▁such	-9.21326
fzi	-9.21331
▁Mommy	-9.21366
vAc	-9.21959
▁kfR	-9.22064
▁own	-9.22198
▁might	-9.22395
▁If	-9.22704
▁room	-9.22899
▁life	-9.22953
Ani	-9.22989
ila	-9.23029
cara	-9.23269
paSu	-9.2356
▁head	-9.23577
▁told	-9.23816
T	-9.24
▁book	-9.24352
▁kind	-9.25094
▁anything	-9.2514
pf	-9.25329
▁car	-9.25352
namas	-9.25388
▁father	-9.25444
Bu	-9.25487
▁five	-9.26474
▁love	-9.26633
za	-9.26972
▁next	-9.27048
▁Do	-9.27263
doza	-9.27272
vasa	-9.27813
tapas	-9.27818
SrI	-9.27986
▁uh	-9.28162
▁baby	-9.28248
▁school	-9.28383
▁most	-9.29037
Sa	-9.29329
▁water	-9.29424
yoga	-9.29539
▁same	-9.29705
pati	-9.29754
vada	-9.3004
nte	-9.30054
▁men	-9.30064
▁else	-9.30216
▁may	-9.30613
▁ever	-9.30661
▁found	-9.31565
▁nice	-9.31583
anna	-9.31829
▁while	-9.32218
▁always	-9.32317
▁part	-9.32351
▁call	-9.32372
▁mhm	-9.32523
ate	-9.32586
▁How	-9.32748
▁saw	-9.3324
muni	-9.33466
!"	-9.33537
▁doesn	-9.3355
▁took	-9.33729
▁girl	-9.33882
▁s	-9.33933
BUta	-9.34146
prajA	-9.34747
▁talk	-9.34771
ru	-9.34845
hf	-9.35453
▁re	-9.35916
▁hand	-9.3602
le	-9.36338
div	-9.36505
ers	-9.36564
▁All	-9.3682
h	-9.37702
yes	-9.37705
en	-9.38074
▁used	-9.38103
vana	-9.3852
vIra	-9.38733
▁E	-9.3877
▁read	-9.38848
▁under	-9.39198
▁left	-9.39829
man	-9.3992
ti	-9.40613
Sara	-9.41141
manu	-9.41425
▁BAvayat	-9.42044
M	-9.42086
w	-9.42475
vAta	-9.42502
▁un	-9.42814
strI	-9.43014
tejas	-9.43389
▁remember	-9.43962
or	-9.43983
▁keep	-9.4408
it	-9.44375
▁its	-9.4439
on	-9.44449
▁lok	-9.44543
▁Why	-9.44738
Df	-9.44813
▁Bavat	-9.45305
▁United	-9.45369
▁lot	-9.45375
▁number	-9.46357
▁money	-9.46363
▁T	-9.46549
gfha	-9.4691
to	-9.46917
add	-9.47062
pfTivI	-9.47378
pAla	-9.47412
▁Darm	-9.47496
▁end	-9.47507
C	-9.47512
▁dis	-9.48018
▁please	-9.48037
▁nothing	-9.48279
hula	-9.48674
▁world	-9.48956
devI	-9.49
sf	-9.49227
▁every	-9.49232
sattva	-9.49238
▁black	-9.49329
izu	-9.49391
maDya	-9.49456
▁show	-9.49616
rAma	-9.49689
▁hundred	-9.50001
▁As	-9.50118
▁year	-9.50299
▁dat	-9.5074
▁course	-9.50783
▁Now	-9.51128
▁M	-9.51598
▁arT	-9.51649
▁d	-9.51815
diS	-9.51849
huqa	-9.51921
Ba	-9.51987
yA	-9.52004
an	-9.52315
kula	-9.52428
▁try	-9.52792
▁When	-9.52806
rCA	-9.5282
vIrya	-9.52826
ion	-9.52915
▁together	-9.52959
P	-9.5303
aNga	-9.5304
▁use	-9.53193
▁happened	-9.53237
▁Okay	-9.534
▁known	-9.53566
▁enough	-9.53692
guru	-9.53869
la	-9.5394
suta	-9.54158
▁P	-9.54227
ba	-9.54474
▁until	-9.54515
▁vakt	-9.54765
ahar	-9.54789
ci	-9.55073
▁My	-9.55567
st	-9.55836
vizRu	-9.55905
▁best	-9.55943
▁died	-9.56224
pARqava	-9.56304
pAra	-9.56396
▁says	-9.56491
▁tv	-9.56571
▁upon	-9.56682
▁Mrs	-9.5707
pAda	-9.57233
▁vAcayat	-9.57235
▁isn	-9.57334
prI	-9.57367
▁eyes	-9.57474
vrata	-9.57529
janI	-9.57638
sUta	-9.57719
▁D	-9.57777
pada	-9.57831
▁wait	-9.57862
li	-9.57958
▁silver	-9.58149
▁bad	-9.58245
▁between	-9.58379
▁American	-9.58403
b	-9.58509
▁though	-9.58589
▁Don	-9.58848
Siras	-9.58895
▁asked	-9.58923
us	-9.59166
▁hafta	-9.59183
the	-9.59216
▁sorry	-9.5922
sUrya	-9.59434
▁morning	-9.59511
▁quite	-9.59558
▁alright	-9.59571
▁himself	-9.59874
▁dog	-9.60027
aSva	-9.6012
▁children	-9.60129
gA	-9.60186
▁turn	-9.60325
suKa	-9.60723
jYAna	-9.60805
mantra	-9.60893
▁hear	-9.60942
1:	-9.61158
yama	-9.61367
▁Then	-9.61424
nfpa	-9.61437
▁karizya	-9.61479
veda	-9.61732
agra	-9.62063
▁door	-9.62108
▁feel	-9.62229
▁New	-9.62298
rAja	-9.62319
▁To	-9.62358
▁side	-9.6321
mUla	-9.63229
varRa	-9.63616
▁coming	-9.63645
rudra	-9.63893
▁face	-9.63947
▁hm	-9.63968
BAga	-9.63996
▁once	-9.64032
vasu	-9.64161
ar	-9.64177
▁both	-9.64307
vAyu	-9.64813
▁leave	-9.65158
varza	-9.65185
▁King	-9.65189
▁wanted	-9.65314
gaRa	-9.65327
smf	-9.65739
▁open	-9.6578
▁mind	-9.65968
▁born	-9.66013
▁seen	-9.66064
▁against	-9.66127
▁At	-9.66192
▁without	-9.662
▁few	-9.66331
karRa	-9.6637
▁knew	-9.66491
▁hard	-9.66534
▁1	-9.67076
and	-9.67235
".	-9.67272
▁today	-9.67311
▁States	-9.67437
▁Hey	-9.6764
▁pretty	-9.67654
▁second	-9.67692
▁For	-9.67787
▁heard	-9.67934
▁looking	-9.67946
bAhu	-9.68074
devatA	-9.68411
est	-9.68469
▁story	-9.68503
▁Mark	-9.68676
▁set	-9.68756
▁18	-9.68863
▁different	-9.68897
▁table	-9.68901
Baya	-9.69013
▁each	-9.6903
▁top	-9.69197
BAva	-9.69731
indriya	-9.69765
▁2	-9.69801
nAman	-9.70029
Sabda	-9.70086
deSa	-9.70333
▁bit	-9.70714
▁whole	-9.70808
▁young	-9.70831
▁far	-9.71048
▁astayat	-9.71065
▁real	-9.71191
budDi	-9.71236
▁everything	-9.7133
▁watch	-9.7145
mAtf	-9.71879
▁g	-9.7201
mana	-9.72194
▁getting	-9.72207
SarIra	-9.72227
Gfta	-9.72301
▁yet	-9.72392
prajApati	-9.72477
▁F	-9.72568
ran	-9.72946
▁agni	-9.73048
dvija	-9.73317
BUmi	-9.73378
▁3	-9.73483
▁looked	-9.73599
▁Let	-9.73686
The	-9.73701
▁stop	-9.73721
▁talking	-9.73796
▁thank	-9.73799
▁bed	-9.73841
▁base	-9.73858
hari	-9.73914
▁God	-9.74005
ur	-9.74052
▁gave	-9.74273
▁shall	-9.74484
jala	-9.7467
vacana	-9.74689
g	-9.74691
▁p	-9.74873
duHKa	-9.74909
▁Ross	-9.75143
▁stay	-9.75267
vftu	-9.75358
satya	-9.7542
▁write	-9.75474
arha	-9.75603
el	-9.75687
▁On	-9.75715
▁later	-9.75738
▁believe	-9.75832
▁wasn	-9.75851
▁putr	-9.7618
▁city	-9.76402
▁six	-9.76524
ic	-9.76532
▁o	-9.76542
▁Come	-9.76566
▁sit	-9.76742
▁food	-9.76875
viDi	-9.76918
▁Go	-9.76954
▁high	-9.77195
Aditya	-9.77284
viza	-9.77382
hasta	-9.77396
▁maybe	-9.7762
▁light	-9.77695
mAtra	-9.77758
▁O	-9.77894
kArya	-9.78011
ne	-9.78093
vfkza	-9.78208
vAkya	-9.7823
ro	-9.78794
▁family	-9.78928
▁goes	-9.79098
de	-9.79106
maDu	-9.79114
▁Miss	-9.79117
▁small	-9.79164
▁gacCat	-9.79183
▁round	-9.79304
pitta	-9.79459
▁red	-9.79641
vajra	-9.79706
▁dear	-9.79759
▁zzz	-9.79768
▁live	-9.79906
▁having	-9.7992
E	-9.80286
▁G	-9.80443
▁voice	-9.80509
Sakti	-9.80905
ation	-9.80947
▁half	-9.80986
no	-9.81215
Ayus	-9.81353
cause	-9.81528
▁since	-9.81546
▁friend	-9.81591
▁care	-9.81621
yuH	-9.82016
▁days	-9.82034
paSa	-9.82199
nAga	-9.82201
▁erm	-9.82205
▁K	-9.82352
gati	-9.82669
raRa	-9.82897
▁Just	-9.82997
anti	-9.83044
▁N	-9.8314
pU	-9.83275
syati	-9.83311
kfzRa	-9.83375
▁Adi	-9.83398
▁gone	-9.83505
▁Mom	-9.83542
▁girls	-9.83689
px	-9.83717
asura	-9.83745
▁soon	-9.8376
pApa	-9.84141
▁started	-9.84176
garBa	-9.84399
em	-9.84527
ganDa	-9.84678
▁i	-9.84862
pUla	-9.84963
ter	-9.84975
ty	-9.85012
▁THE	-9.85181
▁aMhat	-9.85563
banDa	-9.85576
yudDa	-9.86029
▁heart	-9.86041
▁word	-9.86104
▁Can	-9.86495
▁hands	-9.86608
hetu	-9.8686
▁fire	-9.87056
darSana	-9.87086
svarga	-9.87158
▁ready	-9.87337
ry	-9.87489
▁saying	-9.87596
idi	-9.87766
▁ras	-9.87905
▁ate	-9.87944
▁stick	-9.88294
▁hungry	-9.88345
▁already	-9.88384
W	-9.88458
▁piece	-9.88587
able	-9.88595
K	-9.88613
lakzaRa	-9.88737
▁c	-9.88866
jo	-9.88956
sTAna	-9.89045
▁town	-9.89118
ness	-9.8926
vfY	-9.8929
G	-9.89356
▁asti	-9.89366
It	-9.89401
ka	-9.89407
kAraRa	-9.89585
▁making	-9.89717
sate	-9.89745
B	-9.8981
nta	-9.89886
▁L	-9.89941
▁wrong	-9.90038
ce	-9.90243
▁Bavizyat	-9.90284
deha	-9.90386
▁son	-9.90407
ling	-9.90505
paci	-9.90653
pAtra	-9.90743
▁almost	-9.90772
▁Ma	-9.90992
yuDizWira	-9.91072
dina	-9.91148
▁ah	-9.91331
tIrTa	-9.91461
▁hey	-9.91522
▁yajY	-9.91558
▁R	-9.91669
kzaya	-9.91707
▁His	-9.91813
co	-9.91852
▁t	-9.91979
▁W	-9.92004
Dana	-9.92691
BrAtf	-9.92755
▁country	-9.92843
▁trying	-9.92846
mAsa	-9.92931
COL	-9.92971
ri	-9.93117
Candas	-9.9326
kaPa	-9.93308
BArata	-9.93449
▁person	-9.93482
puwa	-9.93641
puzpa	-9.93698
roga	-9.93742
iwa	-9.93997
jiri	-9.94091
ISvara	-9.94102
um	-9.94178
▁rUp	-9.94273
vacas	-9.94291
▁start	-9.94559
pi	-9.94899
rAjya	-9.94904
fzaBa	-9.94935
ge	-9.9498
You	-9.9504
cha	-9.95068
▁song	-9.95094
igi	-9.95214
Bi	-9.95356
av	-9.95358
rAkzasa	-9.95446
▁paSyat	-9.95476
▁John	-9.95785
ity	-9.95786
he	-9.95983
▁age	-9.96368
▁fine	-9.96426
ent	-9.9647
▁Are	-9.96624
▁run	-9.96658
▁St	-9.9677
▁became	-9.96938
▁means	-9.96989
▁paper	-9.97077
▁game	-9.9709
▁hot	-9.97214
▁cat	-9.97243
carba	-9.97273
▁wouldn	-9.97352
▁Not	-9.97358
jivi	-9.97434
kuru	-9.97542
▁woman	-9.97549
▁bring	-9.97603
▁moment	-9.97701
aMSa	-9.97765
▁phone	-9.97781
ton	-9.97813
Ati	-9.98023
▁actually	-9.98046
tattva	-9.98131
ye	-9.98195
Siva	-9.98253
mAna	-9.98294
pUr	-9.98598
▁hold	-9.98642
vara	-9.98699
▁beautiful	-9.98785
▁raT	-9.98824
▁guess	-9.9883
F	-9.9884
sidDi	-9.9898
muci	-9.99032
▁kAm	-9.99061
cakzus	-9.99203
▁child	-9.99343
▁white	-9.99385
ivi	-9.99462
▁ball	-9.99558
mftyu	-9.99604
ist	-9.99669
▁began	-9.99747
▁looks	-9.99893
ratna	-10.0002
▁twenty	-10.0005
▁along	-10.0016
mAMsa	-10.0023
▁guy	-10.0043
pArTa	-10.0064
muca	-10.0088
▁One	-10.0104
bIja	-10.0104
▁understand	-10.0106
▁mm	-10.0107
▁yellow	-10.0123
ment	-10.0164
▁Where	-10.0211
▁idea	-10.0222
▁rAjA	-10.0225
▁4	-10.023
kzIra	-10.0234
▁death	-10.024
be	-10.0249
▁rest	-10.0258
dravya	-10.0261
yata	-10.0266
▁Sarah	-10.0276
cx	-10.0296
BIzma	-10.0298
Beda	-10.0309
▁U	-10.0315
▁guys	-10.0315
vadi	-10.034
▁pay	-10.0345
lo	-10.0346
▁lost	-10.0361
▁sound	-10.0383
▁blue	-10.0386
Oh	-10.0397
vf	-10.04
▁move	-10.0401
iKi	-10.0402
▁party	-10.0406
hfdaya	-10.0408
nti	-10.0423
▁cut	-10.0426
▁Thank	-10.0429
yoni	-10.0435
ch	-10.0437
astra	-10.0441
2:	-10.0447
SIla	-10.0475
sa	-10.0485
▁turned	-10.0492
Barata	-10.0493
varuRa	-10.0503
▁happy	-10.0506
▁friends	-10.0513
sura	-10.0514
il	-10.0533
cUrRa	-10.0539
arDa	-10.0547
▁Mot	-10.0568
ted	-10.059
pattra	-10.06
viSeza	-10.0611
manuzya	-10.0618
ul	-10.0625
iKa	-10.0628
▁kAl	-10.0628
▁hope	-10.0634
▁brought	-10.0644
Ajya	-10.0651
▁Who	-10.0662
▁Right	-10.0663
▁playing	-10.0665
saMvatsara	-10.0667
▁poor	-10.0668
▁during	-10.0687
▁Adam	-10.0692
udaka	-10.0693
▁brother	-10.0711
▁words	-10.0714
droRa	-10.0717
▁mine	-10.072
havis	-10.0725
▁sir	-10.0726
▁close	-10.0727
kanyA	-10.0732
▁full	-10.0739
▁week	-10.0756
payas	-10.0762
vidyA	-10.0766
liNga	-10.0772
du	-10.0778
▁ten	-10.0789
▁played	-10.0792
▁Look	-10.0798
▁uhhuh	-10.0798
pe	-10.0806
▁matter	-10.0852
tEla	-10.0865
jIva	-10.0879
▁yacCat	-10.0911
un	-10.0924
▁sleep	-10.0926
▁brAhmaR	-10.094
▁Sir	-10.0985
parvata	-10.0988
▁sort	-10.1005
ting	-10.1018
mada	-10.106
▁near	-10.1062
▁taken	-10.1089
▁movie	-10.1103
GLO	-10.1109
zyati	-10.1128
▁comes	-10.1138
▁point	-10.1139
▁rAjAn	-10.1143
saMSaya	-10.1144
citta	-10.1163
kriyA	-10.1179
▁stuff	-10.1199
j	-10.1201
▁fell	-10.1213
▁minute	-10.1227
sAman	-10.1233
▁boys	-10.1235
mitra	-10.1249
▁English	-10.1272
ies	-10.1273
▁able	-10.1282
▁times	-10.1286
▁vindat	-10.1302
pat	-10.1305
rAtri	-10.1316
▁veda	-10.132
▁herself	-10.1354
ut	-10.1364
▁e	-10.1397
▁st	-10.14
mUtra	-10.1423
▁puruz	-10.1429
▁felt	-10.1441
MEL	-10.1446
do	-10.1448
▁ma	-10.1474
jvara	-10.1537
▁hit	-10.1559
▁someone	-10.1561
▁myself	-10.1562
▁hair	-10.1571
▁Did	-10.1573
heman	-10.1581
▁Re	-10.1591
▁fun	-10.1593
▁Her	-10.1599
loha	-10.1615
sneha	-10.1618
▁gotta	-10.1628
▁r	-10.1632
▁Ba	-10.1637
▁letter	-10.1637
pARi	-10.1666
▁floor	-10.1667
▁hi	-10.1668
Su	-10.167
▁couldn	-10.1702
tanu	-10.1705
▁sent	-10.1738
▁seven	-10.175
Cidra	-10.1752
L	-10.1764
son	-10.1767
less	-10.1771
pura	-10.1779
up	-10.1787
▁fact	-10.1793
▁De	-10.1796
▁seemed	-10.1799
arjuna	-10.1803
▁drink	-10.1806
▁France	-10.1807
ati	-10.1815
vraja	-10.1821
▁ago	-10.1823
▁box	-10.1826
ous	-10.1833
kzaRa	-10.1848
▁After	-10.1851
rakzas	-10.1883
▁10	-10.1917
▁color	-10.1921
▁asizyat	-10.1924
▁Me	-10.1925
nf	-10.1928
▁probably	-10.1933
▁pounds	-10.1933
▁Good	-10.1935
▁front	-10.1938
▁hat	-10.1942
Sakra	-10.1945
▁bear	-10.1964
▁sea	-10.1982
▁milk	-10.1985
▁County	-10.1996
bARa	-10.2008
▁prAR	-10.2017
▁Paul	-10.2018
▁dead	-10.2047
mo	-10.2051
▁state	-10.2061
▁con	-10.2066
▁behind	-10.2073
▁wants	-10.2089
▁guR	-10.2092
qula	-10.2093
▁rather	-10.2112
Seza	-10.2128
▁question	-10.2132
ARi	-10.2144
▁Hi	-10.2149
patnI	-10.215
BAryA	-10.2155
▁m	-10.2164
▁green	-10.2164
▁inside	-10.2165
daRqa	-10.2169
▁outside	-10.217
▁makes	-10.2177
vaDa	-10.2186
▁Bro	-10.2189
▁J	-10.219
hotf	-10.2195
born	-10.2196
▁lived	-10.2199
▁fall	-10.2209
etAm	-10.2217
▁b	-10.2226
V	-10.2227
▁Be	-10.2231
▁wand	-10.2234
yaSas	-10.2248
▁September	-10.2276
▁lady	-10.2292
▁ya	-10.2324
▁picture	-10.2331
nina	-10.2345
men	-10.2347
bu	-10.2355
▁women	-10.2359
▁war	-10.2363
▁hurt	-10.2364
▁meet	-10.2383
▁nar	-10.2383
▁true	-10.2387
▁Dr	-10.2402
▁music	-10.2404
janman	-10.2412
ful	-10.2421
Danus	-10.2442
▁job	-10.2444
▁dIdAMsat	-10.2446
pakza	-10.2452
▁minutes	-10.246
▁haven	-10.2463
▁stand	-10.2476
cakra	-10.2478
▁yep	-10.248
ary	-10.2493
ine	-10.2509
▁case	-10.2514
▁La	-10.2515
arka	-10.2519
",	-10.2541
Soka	-10.2542
▁pick	-10.2544
▁sun	-10.2545
▁January	-10.2557
▁alone	-10.2566
▁van	-10.2566
▁pad	-10.2573
izyanti	-10.259
amfta	-10.2598
▁tape	-10.2601
kroDa	-10.2603
▁Your	-10.2612
rs	-10.2635
akza	-10.2648
Satru	-10.2655
▁eight	-10.2655
▁magnet	-10.2657
akzara	-10.266
▁change	-10.2671
ganDarva	-10.2674
▁line	-10.2681
ke	-10.2733
ish	-10.2734
Basman	-10.2735
vega	-10.2741
sh	-10.2771
SAstra	-10.2788
▁Daddy	-10.2789
▁album	-10.2796
jyotis	-10.28
▁air	-10.281
ete	-10.2816
▁short	-10.2824
▁wish	-10.283
2	-10.2836
▁taking	-10.2861
▁An	-10.2874
▁team	-10.2891
tya	-10.2894
▁yourself	-10.2921
▁sister	-10.293
ftu	-10.2937
▁March	-10.2938
▁yup	-10.2939
AKyA	-10.2957
▁Al	-10.2972
▁deal	-10.2991
▁train	-10.2995
▁Is	-10.3017
▁funny	-10.3023
led	-10.3035
tamas	-10.3045
vAsas	-10.3047
Chi	-10.3065
tala	-10.3074
▁late	-10.3075
▁fifty	-10.3078
Bartf	-10.309
▁given	-10.31
mati	-10.3131
▁often	-10.3137
▁king	-10.315
antarikza	-10.3178
os	-10.3179
pitAmaha	-10.3182
1	-10.3188
▁break	-10.3191
kzipa	-10.3192
we	-10.3194
les	-10.3207
savitf	-10.3219
▁feet	-10.3222
▁body	-10.3243
vaSa	-10.3247
▁vidyat	-10.3269
▁vint	-10.3273
viS	-10.3275
nadI	-10.3276
vahni	-10.3294
▁brahma	-10.3297
▁York	-10.3306
nDa	-10.3319
▁May	-10.3323
What	-10.3325
antara	-10.3347
▁YOU	-10.3352
▁buy	-10.3362
DAtu	-10.3374
Asana	-10.3375
kzatriya	-10.3388
kfRot	-10.3405
▁Ha	-10.3405
giri	-10.3409
▁ap	-10.342
▁vedayat	-10.3426
tu	-10.3426
▁wife	-10.3428
▁AtmA	-10.3442
samudra	-10.3443
BIma	-10.3445
▁cold	-10.3451
GAI	-10.3461
gu	-10.3466
▁August	-10.3467
yuga	-10.3475
way	-10.3478
v	-10.3479
▁tap	-10.35
▁horse	-10.3506
LDES	-10.3509
▁French	-10.3512
ni	-10.3516
▁living	-10.3528
rajas	-10.353
SI	-10.354
tAta	-10.3554
▁fight	-10.3557
▁tea	-10.3573
▁childe	-10.3578
boDisattva	-10.3578
mAyA	-10.3581
▁working	-10.3581
pala	-10.3585
land	-10.3605
dakziRA	-10.3625
▁least	-10.3631
▁toy	-10.3631
dvaya	-10.3647
SUra	-10.3654
▁large	-10.3665
▁tree	-10.3674
▁Ben	-10.3683
▁tried	-10.3691
BfS	-10.3698
▁Of	-10.372
▁vakzyat	-10.3722
▁co	-10.3735
pARqu	-10.3737
▁var	-10.3744
vaska	-10.3749
▁lay	-10.3759
▁walk	-10.3761
▁dad	-10.3763
▁named	-10.3772
▁Or	-10.3772
▁karqizyat	-10.3789
pfzWa	-10.3805
▁7	-10.3805
ian	-10.3805
ojas	-10.381
▁mo	-10.382
▁trouble	-10.3824
puMs	-10.3829
prakfti	-10.3836
▁business	-10.3838
vastra	-10.3862
We	-10.3864
ASrama	-10.3865
▁l	-10.3885
prasAda	-10.3893
gaja	-10.3904
▁April	-10.3909
day	-10.3917
traya	-10.3925
vftti	-10.3934
▁sometimes	-10.3935
mArga	-10.3937
marut	-10.3938
▁Because	-10.3956
▁either	-10.3959
vizaya	-10.3962
▁land	-10.399
▁karma	-10.4003
▁BUt	-10.4008
Yes	-10.4008
▁brUt	-10.4009
▁yog	-10.4014
▁World	-10.4032
ley	-10.4032
▁Here	-10.4033
▁chair	-10.4044
min	-10.4045
Sastra	-10.4045
▁cup	-10.4047
▁October	-10.4049
duryoDana	-10.4052
▁past	-10.4052
pUrRa	-10.4059
No	-10.4061
dy	-10.4079
▁important	-10.4087
▁member	-10.4094
▁Ro	-10.4095
▁chance	-10.4107
aDvaryu	-10.4111
fc	-10.4113
mUrDan	-10.4113
SUla	-10.4117
ck	-10.4126
yava	-10.4132
mfga	-10.4135
id	-10.4136
▁kfRvizyat	-10.4141
▁present	-10.4159
▁lives	-10.4163
pramARa	-10.4166
▁area	-10.4171
candra	-10.4185
ata	-10.4187
▁nine	-10.4188
▁Please	-10.4193
▁kids	-10.4197
▁clear	-10.4215
▁glad	-10.4232
ozaDi	-10.4235
▁single	-10.4243
pata	-10.4251
dAti	-10.4255
maRi	-10.4265
▁mom	-10.4274
▁till	-10.4274
▁animals	-10.4279
▁become	-10.4279
▁road	-10.428
▁strong	-10.4292
▁thousand	-10.4312
praBA	-10.4333
▁free	-10.4337
▁fish	-10.4343
maRqala	-10.4353
wa	-10.4362
▁With	-10.4364
mf	-10.4382
Bakti	-10.4402
▁company	-10.4402
▁Le	-10.4404
vatsa	-10.4407
▁5	-10.441
▁tomorrow	-10.4429
▁muK	-10.4429
▁order	-10.4434
▁killed	-10.4435
▁sing	-10.4437
rAtra	-10.4439
ari	-10.4451
▁pitar	-10.4474
▁across	-10.4518
rati	-10.4528
▁caterpillar	-10.4528
▁David	-10.4536
br	-10.4538
▁17	-10.4539
▁manaH	-10.4549
pAna	-10.4567
▁happen	-10.4581
saMjYA	-10.4592
▁early	-10.4601
▁speak	-10.4603
▁others	-10.4605
▁held	-10.4608
japa	-10.4616
krama	-10.4622
▁cried	-10.4628
paTin	-10.4635
▁moon	-10.4637
▁problem	-10.4637
▁noise	-10.4641
3	-10.4643
▁Man	-10.4649
sEnya	-10.465
▁reason	-10.4651
▁akfqat	-10.4655
▁toys	-10.4667
▁Ah	-10.4668
▁19	-10.4671
▁birthday	-10.4678
Ci	-10.469
age	-10.4701
▁answer	-10.4704
bfhaspati	-10.4708
▁Sa	-10.4715
▁6	-10.4718
▁group	-10.4731
▁worked	-10.4736
▁War	-10.4741
▁thinking	-10.4747
ring	-10.4761
▁ground	-10.4765
hfd	-10.477
▁brUsayat	-10.4773
▁government	-10.4788
dAnava	-10.4789
▁released	-10.4789
▁Mm	-10.4794
▁ran	-10.4797
aSvin	-10.481
▁power	-10.4828
▁University	-10.483
And	-10.4846
▁cake	-10.4852
▁eating	-10.4852
DI	-10.4856
▁som	-10.4858
▁frog	-10.4863
samara	-10.4885
▁la	-10.4899
ant	-10.491
▁somebody	-10.4911
▁Marky	-10.4916
Bava	-10.4916
▁finished	-10.493
▁BAvayizya	-10.4934
rAga	-10.497
▁SfR	-10.4997
▁vIr	-10.4999
▁Mother	-10.5005
▁daddy	-10.5006
pArTiva	-10.5009
▁20	-10.5032
▁TO	-10.5039
▁married	-10.5043
ING	-10.5047
jf	-10.5048
▁afraid	-10.506
SaNKa	-10.5067
▁carcat	-10.5069
vfka	-10.5085
▁Ar	-10.5113
▁dark	-10.514
ak	-10.5148
▁books	-10.5171
kzam	-10.5175
▁deve	-10.5184
▁coffee	-10.5185
▁dAsyat	-10.5187
music	-10.519
pUja	-10.5192
▁12	-10.521
▁hour	-10.5234
pUrva	-10.5239
▁England	-10.5246
▁Ad	-10.5246
siMha	-10.5249
▁band	-10.527
ze	-10.5274
mother	-10.5289
▁ones	-10.5292
ho	-10.53
AUN	-10.53
▁daughter	-10.5307
▁listen	-10.531
▁dinner	-10.5337
▁national	-10.5345
▁eye	-10.5353
vya	-10.5364
▁Some	-10.5369
▁8	-10.5388
Ahuti	-10.5389
kara	-10.5399
▁Co	-10.5408
▁V	-10.5409
▁pre	-10.5417
▁fast	-10.542
▁win	-10.5429
▁Christmas	-10.543
▁honey	-10.543
Sukra	-10.5432
▁egg	-10.5437
you	-10.5437
Atmaja	-10.5444
▁kept	-10.5445
kAya	-10.5446
▁Sar	-10.5467
ster	-10.5476
▁sat	-10.5477
▁v	-10.5494
hanti	-10.5498
▁British	-10.5507
▁several	-10.5507
stun	-10.5509
time	-10.5513
jaya	-10.5524
AhAra	-10.5526
dahi	-10.5527
▁ice	-10.5528
asi	-10.5542
▁office	-10.5559
▁special	-10.5578
▁window	-10.5587
▁16	-10.5594
kzatra	-10.5594
padma	-10.5596
▁themselves	-10.5601
kaTA	-10.5616
laughing	-10.5617
SUdra	-10.5629
vAra	-10.5647
▁Uh	-10.5656
ah	-10.5658
prIti	-10.5666
▁These	-10.5673
pUza	-10.5676
ble	-10.5681
▁mouth	-10.5687
▁Palam	-10.5695
BImasena	-10.5699
▁AtmAn	-10.5702
sarpis	-10.5706
▁months	-10.5707
AkASa	-10.571
▁Ra	-10.5715
ated	-10.5718
▁ride	-10.5725
ance	-10.5728
▁bus	-10.5734
mala	-10.5734
▁en	-10.5751
ism	-10.5752
NA	-10.5753
▁15	-10.5759
But	-10.5765
▁within	-10.5774
praBu	-10.5784
om	-10.5784
▁July	-10.5789
▁mommy	-10.5792
vESampAyana	-10.5797
kowi	-10.58
▁kitchen	-10.58
▁n	-10.5802
by	-10.5802
▁9	-10.5809
mokza	-10.5815
▁less	-10.5821
ISa	-10.5857
tion	-10.5857
▁easy	-10.5864
sy	-10.5872
▁send	-10.5875
▁goin	-10.5876
▁aren	-10.5879
vayas	-10.5887
rakta	-10.5894
one	-10.5895
▁gets	-10.59
▁Dad	-10.5908
▁Er	-10.5915
anila	-10.5922
▁sattv	-10.5934
gada	-10.5935
▁stood	-10.5937
▁bag	-10.5941
▁President	-10.5947
vfRa	-10.5962
▁City	-10.5972
hiraRya	-10.5976
vo	-10.5981
▁running	-10.5981
▁among	-10.5982
vfS	-10.5984
moha	-10.5993
▁f	-10.5999
▁whether	-10.6019
cy	-10.6026
▁met	-10.6033
netra	-10.6039
▁forget	-10.6051
vfN	-10.6057
▁doctor	-10.606
▁everybody	-10.6068
▁sitting	-10.6069
pAka	-10.6098
points	-10.6098
▁perhaps	-10.6104
▁ex	-10.6105
kalpa	-10.6126
aBAva	-10.613
aBra	-10.6147
rAvaRa	-10.6155
jIvita	-10.6155
▁above	-10.6159
vAnara	-10.6165
kumAra	-10.6177
kuzWa	-10.618
▁wonder	-10.6186
HS	-10.6193
▁sut	-10.62
▁pro	-10.6219
▁gfhRIt	-10.6279
▁Phil	-10.6285
han	-10.6289
ganDaka	-10.6292
lu	-10.6295
Boga	-10.6307
datte	-10.6307
udara	-10.6308
haya	-10.631
▁page	-10.631
▁kfRvat	-10.6313
bi	-10.6316
samaya	-10.6317
Dvaja	-10.6339
▁series	-10.6344
▁warm	-10.6344
dAha	-10.6346
tanU	-10.6356
hU	-10.6361
▁Bar	-10.6366
▁Sis	-10.6378
▁foot	-10.6379
▁wrote	-10.6386
▁mantr	-10.6398
dvAra	-10.6399
▁public	-10.6414
▁per	-10.6414
Bojana	-10.6417
▁By	-10.6417
▁National	-10.642
▁vAcayizya	-10.6425
aSa	-10.6428
▁longer	-10.6429
▁muYcat	-10.6429
▁South	-10.6431
▁tonight	-10.6432
toya	-10.6435
yuD	-10.6435
▁Mar	-10.6439
▁Get	-10.6441
ph	-10.6446
▁rAm	-10.6448
▁seems	-10.645
lin	-10.6455
▁h	-10.6458
HV	-10.6461
▁sounds	-10.6464
varcas	-10.6484
▁evening	-10.6489
▁Ta	-10.6502
▁y	-10.6515
yogin	-10.6527
tfn	-10.6532
Bikzu	-10.6536
dEtya	-10.6547
but	-10.6548
vfD	-10.6557
▁boat	-10.6559
LLD	-10.6567
q	-10.6581
▁Se	-10.6584
pASa	-10.659
▁Car	-10.6592
▁George	-10.6602
▁river	-10.6611
▁instead	-10.6615
▁bal	-10.6621
▁third	-10.6622
▁doz	-10.6625
▁whose	-10.6626
▁street	-10.6628
gadA	-10.663
▁save	-10.6637
▁jAyat	-10.6638
▁however	-10.6638
▁space	-10.6648
▁Con	-10.6654
▁Have	-10.6667
▁telling	-10.6667
▁ahn	-10.6668
suvarRa	-10.667
▁television	-10.6671
tAmra	-10.6674
▁(19	-10.6678
▁hours	-10.6681
tvac	-10.6697
▁rock	-10.6705
▁...	-10.6707
▁varz	-10.6708
Well	-10.6718
▁November	-10.6719
▁drive	-10.6738
kfRuta	-10.6752
sAgara	-10.6758
▁di	-10.6761
▁varR	-10.6761
▁k	-10.6768
▁sur	-10.6768
▁June	-10.6776
saMjaya	-10.6777
▁village	-10.6777
▁February	-10.6789
nce	-10.6799
▁Ri	-10.6804
kurut	-10.6806
▁Ho	-10.6807
▁kurvat	-10.6807
▁Mary	-10.681
▁ahead	-10.6819
Urj	-10.6828
cetas	-10.683
▁anymore	-10.6831
▁nfp	-10.6833
gr	-10.6839
▁sUry	-10.6843
▁built	-10.6848
den	-10.6855
▁jan	-10.6864
SilA	-10.687
4	-10.6872
▁paSu	-10.6872
sidDa	-10.6876
gAyatrI	-10.6881
▁kfqant	-10.6882
▁thirty	-10.6883
▁building	-10.691
Slezman	-10.691
puz	-10.6912
▁Vi	-10.6917
▁Great	-10.6922
ol	-10.6923
if	-10.6928
ig	-10.693
▁wear	-10.6934
grAma	-10.6938
▁11	-10.6941
▁December	-10.6942
▁whatever	-10.6944
▁mad	-10.6947
▁aBavat	-10.6956
retas	-10.6956
▁Po	-10.6963
▁anyone	-10.6975
▁From	-10.6976
▁See	-10.6977
rakza	-10.6983
mahI	-10.6987
pArSva	-10.6991
▁hole	-10.6992
▁cool	-10.7001
ambu	-10.7001
▁aBAvaya	-10.7004
SAnti	-10.7012
bo	-10.7012
▁finish	-10.7014
▁Maybe	-10.7016
vyADi	-10.7016
▁Li	-10.7026
▁broke	-10.7026
▁London	-10.7028
▁sweet	-10.7036
▁Mi	-10.7046
per	-10.7048
▁doll	-10.7048
▁truck	-10.7055
▁store	-10.7059
AcArya	-10.7068
▁human	-10.7068
▁Da	-10.7073
ng	-10.7085
▁written	-10.7085
▁moved	-10.7085
▁kfRvant	-10.7086
▁BAvayet	-10.7087
Bfqa	-10.7088
snAna	-10.7099
▁standing	-10.71
lakzmaRa	-10.7108
vyAGra	-10.7109
▁House	-10.711
▁tired	-10.7112
ber	-10.7119
▁agn	-10.7124
ler	-10.7126
▁writing	-10.7135
▁lunch	-10.7137
▁passed	-10.7141
▁Ka	-10.7143
▁news	-10.7144
▁sp	-10.7145
▁Ga	-10.715
vfdDi	-10.7171
tAm	-10.7176
bali	-10.718
▁million	-10.7182
samBava	-10.7182
▁El	-10.7183
▁couple	-10.7184
bAla	-10.7193
00	-10.722
▁2022	-10.7228
▁North	-10.7231
▁bird	-10.7239
▁Mo	-10.7241
▁die	-10.7249
▁whom	-10.7252
▁Edna	-10.7258
▁Peter	-10.7259
mfd	-10.7263
▁history	-10.7275
kapAla	-10.7276
ating	-10.7279
op	-10.7283
daDi	-10.7289
▁fit	-10.729
ner	-10.7291
▁touch	-10.7299
Bid	-10.7299
▁learn	-10.73
ron	-10.7302
▁jYAn	-10.7307
aw	-10.731
AkAra	-10.7311
ard	-10.7315
▁weeks	-10.7315
▁13	-10.7317
▁noises	-10.7318
▁hUrCat	-10.7331
vahi	-10.7332
indu	-10.7367
Ananda	-10.7371
vikrama	-10.7372
▁Sabd	-10.7376
▁sick	-10.7379
keSa	-10.7381
▁waiting	-10.7381
jI	-10.7385
nArada	-10.7387
▁husband	-10.7388
▁jump	-10.7388
▁BAg	-10.739
▁art	-10.7396
suhfd	-10.7407
vAja	-10.7408
for	-10.7409
nArAyaRa	-10.7415
rAGava	-10.7416
aSU	-10.7427
rAzwra	-10.7429
X	-10.7434
yantra	-10.7445
▁kill	-10.7445
ey	-10.7454
▁certain	-10.746
▁nam	-10.7466
hita	-10.7485
hi	-10.7486
▁main	-10.7487
▁astayizya	-10.7489
fta	-10.7493
viDAna	-10.7499
vaMSa	-10.75
gi	-10.7505
gir	-10.7507
▁throw	-10.751
eran	-10.7514
karaRa	-10.7515
▁Gu	-10.7519
▁trees	-10.7526
Sizya	-10.754
aNgula	-10.7541
▁possible	-10.7549
nimitta	-10.755
▁class	-10.7554
vAsudeva	-10.7557
▁police	-10.7567
vaktra	-10.7572
dfzwi	-10.7579
upAya	-10.758
▁Dan	-10.7586
yajus	-10.7589
▁14	-10.7603
▁suppose	-10.761
ny	-10.7611
ise	-10.7614
J	-10.7616
▁cause	-10.7618
sUtra	-10.7637
tor	-10.7649
▁certainly	-10.7658
▁politician	-10.7664
▁da	-10.7668
▁seem	-10.7672
ki	-10.7692
nArI	-10.7695
▁vIry	-10.7706
▁bar	-10.771
▁clean	-10.7722
▁visit	-10.7728
svaBAva	-10.7731
uH	-10.7735
red	-10.7739
▁plan	-10.7741
▁indeed	-10.7742
ham	-10.7742
▁returned	-10.7748
▁hoqat	-10.7752
yakza	-10.7752
vijYAna	-10.7756
DftarAzwra	-10.7761
SEla	-10.7761
▁wind	-10.7778
ally	-10.7788
▁pull	-10.7788
▁feeling	-10.7793
▁rudr	-10.7797
▁yesterday	-10.78
▁cannot	-10.7807
▁dress	-10.7809
▁anyway	-10.7813
so	-10.7819
▁meant	-10.7832
▁vajr	-10.7834
ess	-10.784
kratu	-10.7842
▁caught	-10.785
sItA	-10.785
▁kfzR	-10.785
aDyAya	-10.7854
tic	-10.7866
lic	-10.7867
▁cheese	-10.7869
]?	-10.7869
vftra	-10.787
▁Like	-10.787
▁Eve	-10.7873
▁clothes	-10.7879
▁everyone	-10.7883
▁Pi	-10.7883
▁huqat	-10.7884
▁avAcaya	-10.7887
▁Will	-10.79
senA	-10.7905
adi	-10.7906
▁knows	-10.7911
▁suK	-10.7911
▁Lord	-10.7912
▁jaj	-10.792
▁lengthened	-10.7929
amp	-10.7935
▁straight	-10.7939
▁exactly	-10.7939
▁quiet	-10.7955
DanaMjaya	-10.7958
saKi	-10.7959
jAti	-10.7959
praBAva	-10.7979
▁mAtr	-10.7983
Illustration	-10.7988
ence	-10.7991
nakzatra	-10.7992
▁attack	-10.7993
▁pitA	-10.8002
▁supposed	-10.8005
ac	-10.8006
▁general	-10.8007
▁middle	-10.8008
piRqa	-10.8011
▁vrat	-10.8011
sarpa	-10.8015
sAra	-10.8028
Ka	-10.8029
mahAdeva	-10.8029
Sama	-10.8034
BAza	-10.8037
▁holat	-10.8038
▁dvij	-10.8049
samiD	-10.8052
▁Bavant	-10.8059
Buja	-10.8065
▁shot	-10.8068
▁takes	-10.807
▁usually	-10.807
▁afternoon	-10.8079
yatna	-10.8079
tila	-10.8083
vraRa	-10.8088
tAra	-10.8093
▁gfh	-10.8096
▁decided	-10.8102
svasti	-10.8106
▁arms	-10.8109
▁Sunday	-10.8119
▁Pe	-10.812
▁station	-10.8124
▁meeting	-10.8131
▁truth	-10.8139
SoRita	-10.8142
▁department	-10.8149
▁forward	-10.8162
gn	-10.8162
▁places	-10.8163
▁build	-10.8171
▁language	-10.8174
▁Hello	-10.8186
izyet	-10.8187
all	-10.8191
▁kfRvI	-10.8194
▁fear	-10.8203
▁dere	-10.8204
gaNgA	-10.8205
▁blood	-10.8206
vAsa	-10.8207
lt	-10.8207
izyat	-10.8213
▁nose	-10.8215
▁fzi	-10.8222
▁club	-10.8224
▁cars	-10.8224
▁broken	-10.8224
▁sa	-10.8225
000	-10.8227
▁changed	-10.8232
▁lose	-10.8234
▁yours	-10.8239
stoma	-10.824
Pa	-10.8246
asTi	-10.8247
ical	-10.8256
king	-10.8257
▁quick	-10.8268
▁arm	-10.8268
Ca	-10.8269
Asya	-10.8269
▁kul	-10.827
kzAra	-10.8272
kaRWa	-10.8272
Di	-10.8278
▁camp	-10.8279
▁doubt	-10.828
yati	-10.8285
That	-10.8287
homa	-10.8292
▁Indian	-10.8298
▁fair	-10.8305
▁cream	-10.8308
vapus	-10.8313
udaya	-10.8316
▁bright	-10.8324
AcAra	-10.8325
▁dream	-10.8325
iz	-10.8326
▁jal	-10.8328
▁district	-10.8334
▁Bay	-10.8339
▁pencil	-10.8344
▁position	-10.8357
▁safe	-10.8359
▁race	-10.8361
▁check	-10.8366
sti	-10.8368
▁system	-10.8368
▁pictures	-10.8377
▁following	-10.838
▁star	-10.8384
▁worry	-10.8386
▁pieces	-10.8388
▁avak	-10.8391
Bakta	-10.8393
▁careful	-10.8393
SS	-10.8395
▁sUt	-10.8396
matsya	-10.8397
▁karR	-10.84
▁match	-10.8401
▁putting	-10.8408
▁miss	-10.8417
▁garden	-10.8427
▁Santa	-10.8432
nagara	-10.8433
kzetra	-10.845
ER	-10.8452
Dfj	-10.8453
▁pAd	-10.8455
ping	-10.8457
▁works	-10.8458
▁circle	-10.8459
▁level	-10.8459
▁softly	-10.8464
that	-10.8467
▁master	-10.8467
▁apple	-10.8469
nABi	-10.8473
▁2021	-10.8473
saMDi	-10.8479
▁vAcayet	-10.8482
grahaRa	-10.8484
▁Bo	-10.8488
AyuDa	-10.8488
buDa	-10.85
▁kurvI	-10.8501
lakzmI	-10.8501
▁AND	-10.8507
▁strange	-10.8509
not	-10.8509
▁Bessie	-10.8511
▁leaf	-10.8511
jarA	-10.8521
▁Astaya	-10.8528
▁hospital	-10.8532
▁ro	-10.8533
parvan	-10.8542
▁summer	-10.8543
▁anybody	-10.8543
AtAm	-10.8547
gulma	-10.8554
▁prajA	-10.8555
vA	-10.8564
▁patat	-10.8566
▁pARqav	-10.8568
DUma	-10.8574
▁fix	-10.8576
▁return	-10.8577
yAc	-10.8579
▁football	-10.8585
▁Party	-10.8597
5	-10.8599
▁video	-10.8603
kalA	-10.8612
▁wall	-10.8612
sarasvatI	-10.8613
vikAra	-10.8619
▁Pa	-10.862
▁career	-10.8621
▁Asyat	-10.8624
▁ring	-10.8628
▁army	-10.8632
▁BAvayant	-10.8634
mer	-10.8635
▁Hu	-10.865
▁yajat	-10.865
▁served	-10.8652
oo	-10.8659
apsaras	-10.8664
je	-10.8669
saMgrAma	-10.867
▁Richard	-10.867
▁figure	-10.868
saMyoga	-10.8682
▁former	-10.8683
▁vetsya	-10.8687
sparSa	-10.8688
▁Am	-10.8689
▁vAc	-10.8705
▁low	-10.8711
▁act	-10.8711
der	-10.8712
▁snow	-10.8723
yate	-10.8737
ward	-10.8741
uff	-10.8746
▁30	-10.875
yAma	-10.8763
gram	-10.8766
▁stopped	-10.8767
▁members	-10.8769
▁god	-10.8772
▁pie	-10.8774
pUjA	-10.8775
GRA	-10.8788
▁park	-10.8794
silver	-10.8797
▁pati	-10.8807
tfpa	-10.8808
▁BAv	-10.8824
vAri	-10.8824
▁court	-10.8827
mUzA	-10.8829
▁pop	-10.8832
▁teja	-10.8837
tyAm	-10.8839
▁Jo	-10.8842
muhUrta	-10.8844
she	-10.8845
ew	-10.8847
balam	-10.8856
▁liked	-10.8857
pavitra	-10.8868
ram	-10.8869
DArA	-10.8873
cyu	-10.8875
▁list	-10.8879
od	-10.8879
vESya	-10.8879
keSava	-10.8885
ger	-10.8886
▁hello	-10.8887
▁www	-10.8891
▁answered	-10.8896
▁film	-10.8897
adI	-10.8902
▁opened	-10.8908
taTAgata	-10.8908
kAsa	-10.8908
aNgiras	-10.8909
▁ship	-10.8911
▁Germany	-10.8912
▁points	-10.8914
▁sense	-10.8919
▁Sorry	-10.892
▁sad	-10.8924
▁muni	-10.8925
duhitf	-10.893
▁AsIt	-10.8932
DAman	-10.8934
▁using	-10.8936
▁happens	-10.8938
pfTa	-10.8941
▁gaR	-10.8945
▁cry	-10.8952
▁huRqat	-10.8952
▁eighty	-10.8958
Srotra	-10.8967
OzaDa	-10.8968
▁giving	-10.8969
▁quickly	-10.8978
RE	-10.8978
▁SarIr	-10.8984
tra	-10.8987
▁indriy	-10.8987
▁forty	-10.899
▁Jack	-10.9001
▁deS	-10.9002
▁wonderful	-10.9013
▁Bear	-10.9019
▁seat	-10.9026
▁kid	-10.9027
▁San	-10.9029
▁har	-10.9032
atAm	-10.9033
pratizWA	-10.9039
con	-10.9047
▁w	-10.9055
▁ain	-10.9055
ava	-10.9071
▁vacan	-10.9071
▁towards	-10.9072
▁Asat	-10.9072
ake	-10.9074
▁nAg	-10.9074
▁eti	-10.9077
▁Lo	-10.9078
▁holding	-10.9089
▁saty	-10.9096
▁sl	-10.9107
maheSvara	-10.9109
▁sign	-10.9112
▁law	-10.9113
ator	-10.912
▁aMS	-10.9123
▁gold	-10.9133
▁Ca	-10.9134
▁duHK	-10.9135
pApman	-10.9141
▁wild	-10.9141
▁secret	-10.9148
▁grew	-10.9152
▁pibat	-10.9152
▁needs	-10.9153
room	-10.9154
▁reading	-10.916
▁juh	-10.918
▁!	-10.9191
kAnta	-10.9196
gf	-10.92
AhavanIya	-10.921
▁received	-10.9211
▁led	-10.922
▁president	-10.923
▁2019	-10.9236
rk	-10.9237
saMskAra	-10.9244
▁fly	-10.9245
▁spell	-10.9258
aft	-10.9259
of	-10.9274
▁kfRuyAt	-10.9276
banDu	-10.9277
svapna	-10.9278
Salya	-10.9278
▁Gft	-10.9281
nnam	-10.9289
svarRa	-10.9291
▁corner	-10.9295
nam	-10.93
▁parents	-10.9312
ect	-10.9313
mAnava	-10.9329
▁Ki	-10.933
oGa	-10.9339
▁yuDizWir	-10.9341
▁heavy	-10.9344
vAjin	-10.9345
meGa	-10.9347
budDa	-10.9348
▁region	-10.9348
ub	-10.935
▁mAs	-10.935
▁forgot	-10.9356
aja	-10.9358
▁wood	-10.936
▁juice	-10.9367
kopa	-10.9368
ped	-10.9371
▁dance	-10.9377
▁rAjan	-10.938
▁plate	-10.9381
pArada	-10.9395
hara	-10.9396
▁astayet	-10.94
aditi	-10.9401
gAtra	-10.9409
▁German	-10.9412
side	-10.9426
out	-10.9429
▁grow	-10.9441
▁garB	-10.9452
ASraya	-10.9452
▁puzzle	-10.9453
▁interest	-10.9457
mon	-10.946
Baja	-10.9461
purI	-10.9464
▁ho	-10.9467
▁post	-10.9479
pfqa	-10.9479
▁svarg	-10.9481
▁vedizyat	-10.9483
▁commune	-10.9487
anIka	-10.9488
▁north	-10.9493
▁report	-10.9496
saMGa	-10.9506
sEnDava	-10.9512
ow	-10.9515
raSmi	-10.9519
▁example	-10.9529
▁jAnIt	-10.953
harza	-10.9531
tal	-10.9532
let	-10.954
locana	-10.9541
aDarma	-10.9545
yete	-10.9562
▁Nina	-10.9562
▁vAky	-10.9579
▁laughing	-10.9581
▁Thanks	-10.9584
▁supper	-10.9587
SudDi	-10.9591
▁reached	-10.9593
DU	-10.9598
syanti	-10.9599
dAra	-10.9603
▁bath	-10.9604
▁laugh	-10.9609
▁nobody	-10.9612
▁count	-10.9622
▁Dorothy	-10.9623
▁manTat	-10.9626
▁Sam	-10.9629
▁IN	-10.964
barhis	-10.9644
▁teacher	-10.965
SvAsa	-10.9652
▁local	-10.9658
▁nor	-10.9662
▁yudD	-10.9663
kru	-10.9665
▁Even	-10.9669
▁th	-10.9676
▁sugar	-10.9682
▁vac	-10.9682
▁catch	-10.9688
▁vAcayant	-10.9689
▁form	-10.9689
▁Erm	-10.9692
drava	-10.9692
▁control	-10.9697
ED	-10.9699
▁People	-10.9707
▁gun	-10.9712
▁draw	-10.9715
caraRa	-10.9715
nd	-10.9721
▁spoke	-10.9726
▁Di	-10.9734
nandana	-10.9734
LE	-10.9739
▁flowers	-10.9743
vyAsa	-10.9745
▁America	-10.9746
▁Two	-10.9746
sahas	-10.9746
▁chicken	-10.9754
▁suddenly	-10.9755
vfza	-10.9755
▁deh	-10.9759
▁Jane	-10.9759
dvi	-10.976
▁board	-10.9764
▁thou	-10.9765
▁season	-10.9768
eWa	-10.9774
au	-10.9778
▁Take	-10.9786
▁vacant	-10.9788
▁sight	-10.9796
▁shoes	-10.9799
▁beginning	-10.9801
sutA	-10.9802
Bizaj	-10.9804
prajYApAramitA	-10.9804
vasizWa	-10.9804
ueen	-10.9804
▁rAj	-10.9814
ROG	-10.9816
▁rain	-10.9825
▁kAry	-10.9826
▁scared	-10.9829
SuBa	-10.9841
▁beat	-10.9846
▁23	-10.9848
▁Michael	-10.9849
▁earth	-10.9855
6	-10.986
SaMkara	-10.9861
▁followed	-10.9866
▁West	-10.987
jihvA	-10.9876
▁Adity	-10.9878
ther	-10.9881
my	-10.9882
▁loved	-10.9884
▁lakzaR	-10.9887
▁service	-10.9888
darBa	-10.9891
▁mAnayat	-10.9897
vati	-10.9898
▁wan	-10.9899
mAruta	-10.9911
danta	-10.9911
yan	-10.9916
naraka	-10.9917
RIC	-10.9918
▁letters	-10.9922
▁self	-10.9933
▁bread	-10.9933
▁Ted	-10.9946
her	-10.9951
suBUti	-10.9952
▁OK	-10.9953
ches	-10.9958
aDipati	-10.9963
▁pat	-10.9967
▁cl	-10.997
wi	-10.9984
▁starts	-10.9985
ff	-10.9994
▁cross	-10.9999
akzi	-11.0006
▁Wait	-11.0012
▁OF	-11.0017
divasa	-11.0019
amBas	-11.0022
naKa	-11.0025
▁tail	-11.0028
▁25	-11.0038
▁Tell	-11.0047
▁busy	-11.0049
kAYcana	-11.005
candana	-11.0051
salila	-11.0051
prayatna	-11.006
mAnasa	-11.006
aDipa	-11.0078
▁Captain	-11.008
nt	-11.008
▁maDyam	-11.0091
cit	-11.0091
pAvaka	-11.0096
Sruti	-11.0103
▁Baby	-11.0105
▁mar	-11.0109
▁24	-11.0109
▁lovely	-11.0112
hastin	-11.0119
DUpa	-11.0124
ambara	-11.0125
vfzwi	-11.0127
▁hate	-11.0133
po	-11.0142
ial	-11.0142
ns	-11.0144
aNguli	-11.0144
▁promise	-11.0148
▁test	-11.0157
▁deep	-11.016
SfNga	-11.0166
▁nina	-11.017
ning	-11.0202
▁support	-11.0202
ko	-11.0202
SAKA	-11.0223
svara	-11.0224
▁moving	-11.0229
sAtyaki	-11.0232
▁SrI	-11.0234
kfcCra	-11.0236
ara	-11.0241
▁pArT	-11.0247
tin	-11.0252
carman	-11.0255
▁Sp	-11.0256
▁future	-11.0266
▁calling	-11.0284
Why	-11.0285
dEva	-11.0294
ving	-11.0295
▁Th	-11.0298
paWa	-11.0318
▁orange	-11.0327
Srama	-11.0328
▁battle	-11.0329
▁First	-11.0337
▁ha	-11.0338
ized	-11.0342
▁tiny	-11.0343
▁including	-11.0344
lavaRa	-11.0351
saKI	-11.0354
▁Asan	-11.0355
janArdana	-11.0358
SApa	-11.036
mUrti	-11.0361
su	-11.0364
CAyA	-11.0374
▁ISvar	-11.0376
▁common	-11.0376
buDi	-11.0378
▁ought	-11.038
▁kfqet	-11.0382
▁j	-11.0386
▁Ja	-11.039
prayoga	-11.0398
makes	-11.04
▁BArat	-11.0404
▁title	-11.0405
▁li	-11.0411
oc	-11.0415
▁soft	-11.0416
▁hang	-11.0428
▁Du	-11.0428
niDana	-11.0429
puts	-11.043
▁yujyat	-11.043
▁trust	-11.0437
▁final	-11.0437
maraRa	-11.0442
▁Su	-11.0448
▁month	-11.0464
Buvana	-11.0467
mAkzika	-11.0468
▁Fraser	-11.0469
▁Saturday	-11.0469
▁record	-11.047
▁al	-11.0475
vasti	-11.0475
▁cr	-11.0482
▁rose	-11.0483
▁Lu	-11.0484
ide	-11.0486
ding	-11.049
▁kAraR	-11.0501
▁problems	-11.0503
ries	-11.0505
SrAdDa	-11.0507
aYjali	-11.051
▁crying	-11.0512
ot	-11.0513
▁leaving	-11.052
▁population	-11.052
RI	-11.0522
▁thanks	-11.0532
▁jYApayat	-11.0533
▁yuNkt	-11.0534
amla	-11.054
ug	-11.0542
▁comp	-11.0549
▁Red	-11.0551
druma	-11.0558
▁step	-11.0561
▁created	-11.0561
che	-11.0561
▁jYAti	-11.0568
,--	-11.0571
▁Dur	-11.0574
ld	-11.0574
nu	-11.0579
DyAna	-11.0582
▁breakfast	-11.0585
▁based	-11.0591
ris	-11.0601
▁pass	-11.0606
▁cover	-11.061
▁pArayat	-11.0612
ung	-11.0615
ction	-11.0615
ned	-11.0622
▁Cr	-11.0622
COU	-11.0623
▁kaP	-11.0623
▁capital	-11.0623
act	-11.0629
pratyaya	-11.0629
mAtrA	-11.063
icCA	-11.0632
▁yam	-11.0634
▁blocks	-11.0635
varga	-11.0636
▁reach	-11.0637
▁church	-11.0639
tfRa	-11.0641
▁Bavet	-11.0647
Ayatana	-11.0648
▁yojayat	-11.065
nATa	-11.0659
▁vartat	-11.0664
▁hast	-11.0679
▁replied	-11.0689
Uru	-11.0692
▁vAt	-11.0692
▁pAtr	-11.0693
vyoman	-11.0696
▁(20	-11.0699
▁pur	-11.0699
▁excuse	-11.0702
virAj	-11.0709
kalka	-11.0709
picks	-11.0711
yAna	-11.0717
▁striy	-11.0721
martya	-11.0725
▁tiger	-11.0728
cr	-11.0732
▁pal	-11.0733
ight	-11.0733
▁guru	-11.0743
Home	-11.0744
▁imp	-11.0748
dIkzA	-11.075
gen	-11.0754
▁Italy	-11.0769
▁studio	-11.0781
Denu	-11.0781
niyama	-11.0788
▁izR	-11.0792
▁bottle	-11.0794
▁bottom	-11.0807
▁sixty	-11.0809
OR	-11.0816
▁seeing	-11.0816
▁darSan	-11.0818
▁sTAn	-11.0821
ens	-11.0823
▁pfTivI	-11.0824
kOrava	-11.0825
can	-11.0827
▁sub	-11.0828
dUta	-11.0829
Saki	-11.0833
tAt	-11.0834
▁Visit	-11.0834
IN	-11.0843
ante	-11.0845
▁pAlayat	-11.0851
▁pen	-11.0852
▁fellow	-11.0862
▁animal	-11.0871
spf	-11.0873
▁School	-11.0874
tch	-11.0876
Akfti	-11.088
▁Pro	-11.0885
▁Dar	-11.0895
▁Ne	-11.0898
▁rAjy	-11.0901
pAYcAla	-11.0908
▁municipality	-11.0914
kavi	-11.0916
▁Bi	-11.092
▁glass	-11.092
▁push	-11.0925
▁chocolate	-11.0927
▁watching	-11.0927
DAnya	-11.0931
▁ill	-11.0938
van	-11.0939
Bezaja	-11.094
ang	-11.094
yojana	-11.094
▁California	-11.094
SaraRa	-11.095
▁singing	-11.0951
▁butterfly	-11.0954
juza	-11.0958
▁butter	-11.0963
our	-11.0965
▁Tony	-11.097
▁u	-11.097
▁share	-11.0978
▁IT	-11.0978
▁bigger	-11.0982
kziti	-11.099
▁Tom	-11.0994
▁Minister	-11.0994
▁21	-11.0997
nfpati	-11.0998
He	-11.1001
Dfti	-11.1005
▁spoon	-11.1006
ANN	-11.1007
▁stage	-11.1008
ier	-11.1018
▁State	-11.102
▁wow	-11.1022
ions	-11.1023
ftvij	-11.1025
praBfti	-11.1032
▁political	-11.1035
▁further	-11.1035
Be	-11.1037
▁legs	-11.1039
▁stuck	-11.1048
▁carried	-11.1049
▁alive	-11.1062
▁carry	-11.1072
ple	-11.1073
val	-11.1073
kx	-11.1075
▁mUlam	-11.1076
avasTA	-11.1084
mantrin	-11.1089
vfzRi	-11.1089
▁Stop	-11.109
▁itself	-11.1096
▁kitty	-11.1103
ship	-11.1104
▁appeared	-11.1119
▁Texas	-11.113
▁However	-11.1131
▁helped	-11.1133
nes	-11.1142
kuntI	-11.1144
▁account	-11.1144
aDvan	-11.1144
▁asking	-11.1145
▁professional	-11.1148
▁names	-11.1151
▁games	-11.1152
▁IS	-11.1154
▁perfect	-11.1167
▁track	-11.1174
vinASa	-11.1174
▁questions	-11.1176
bout	-11.1177
▁lo	-11.1179
jAla	-11.1183
▁drop	-11.1189
▁brown	-11.1192
▁Father	-11.1194
waNkaRa	-11.1194
ough	-11.1195
▁tA	-11.1198
Baji	-11.1203
▁expect	-11.1204
▁devatA	-11.1205
▁Ursula	-11.1212
▁background	-11.1213
▁somewhere	-11.1214
▁pattr	-11.1219
▁India	-11.1222
ek	-11.1225
▁bought	-11.1226
rasAyana	-11.1234
▁charge	-11.1234
▁pASayat	-11.1236
▁Very	-11.124
vaNga	-11.124
▁slice	-11.124
jantu	-11.1246
haMsa	-11.1247
saMKyA	-11.1254
▁proud	-11.1254
▁except	-11.1259
▁surprise	-11.1261
▁bite	-11.1264
Sayana	-11.1267
kumBa	-11.1271
▁bAhu	-11.1278
caru	-11.1279
ravi	-11.128
▁loud	-11.1282
▁Robert	-11.1282
She	-11.1284
▁le	-11.1284
In	-11.1285
▁22	-11.1286
▁tray	-11.1286
asmin	-11.1287
vadana	-11.1293
▁brave	-11.1293
▁Really	-11.1297
▁pakz	-11.1301
7	-11.1305
mar	-11.1307
dvijAti	-11.1307
▁objects	-11.1309
▁walked	-11.1309
gArhapatya	-11.1316
atri	-11.132
▁lie	-11.132
line	-11.1321
sveda	-11.1325
▁Little	-11.1329
Anana	-11.1329
pakzin	-11.1337
saMDyA	-11.1337
saBA	-11.1338
▁Ko	-11.1339
yet	-11.1339
ten	-11.1343
▁ta	-11.135
▁yyy	-11.1351
▁icCat	-11.1351
▁dAn	-11.1356
vistara	-11.1361
▁eggs	-11.1367
▁asyat	-11.1374
▁ear	-11.1379
▁attention	-11.1379
▁Russian	-11.1382
sinDu	-11.1382
▁fzaB	-11.1384
▁na	-11.1385
juz	-11.1386
▁tall	-11.1386
▁worth	-11.1387
▁nearly	-11.1389
parAkrama	-11.1399
▁dravy	-11.1402
▁gamizyat	-11.1404
▁tIrT	-11.1404
▁kzIr	-11.1407
▁plastic	-11.1414
▁allowed	-11.1415
kapi	-11.1418
▁block	-11.1418
▁owl	-11.143
ripu	-11.1433
ez	-11.1438
8	-11.1443
▁beach	-11.1445
Agama	-11.1451
▁mi	-11.1451
uzas	-11.1453
▁farm	-11.1456
antika	-11.1463
▁character	-11.1465
▁weren	-11.147
▁miles	-11.1473
ors	-11.1475
▁Uncle	-11.1478
miTuna	-11.1478
▁Lady	-11.1478
▁BIzm	-11.1482
▁ni	-11.1483
▁shut	-11.1489
sTAlI	-11.1492
sTiti	-11.1492
pAti	-11.1501
▁vas	-11.1502
kin	-11.1516
▁Bed	-11.1516
▁ch	-11.1516
▁stars	-11.1517
sarga	-11.1519
parAyaRa	-11.152
field	-11.1521
Asa	-11.1521
▁learned	-11.153
sen	-11.1532
▁Henry	-11.1534
▁James	-11.1535
tfzRA	-11.1535
▁toward	-11.1535
▁cook	-11.1535
▁mAMs	-11.1537
▁Lot	-11.1539
▁rAtr	-11.1539
BAra	-11.1542
Amaya	-11.1547
▁grass	-11.1549
gg	-11.155
▁sell	-11.1553
▁wide	-11.1554
%	-11.1558
house	-11.1564
drORi	-11.1564
SOca	-11.1569
bAnDava	-11.1569
gupa	-11.157
▁player	-11.1574
▁vAk	-11.1575
▁information	-11.1577
ud	-11.1578
▁Col	-11.158
Bakza	-11.1581
▁tattv	-11.1582
▁chief	-11.1584
▁knock	-11.1585
]!	-11.159
▁island	-11.1591
▁janizyat	-11.1592
▁shouldn	-11.16
agnihotra	-11.1607
savana	-11.1611
▁ratn	-11.1612
▁ganD	-11.163
apAna	-11.1639
▁trip	-11.1639
lor	-11.1645
▁Florence	-11.1649
▁tower	-11.1654
havya	-11.1656
▁birds	-11.1656
pippalI	-11.1659
gOtama	-11.1659
▁vAs	-11.1659
yAtA	-11.1661
car	-11.1662
▁rakz	-11.1664
▁puzp	-11.1669
▁Fe	-11.1674
jAtavedas	-11.1677
▁devI	-11.1678
▁izyat	-11.1681
latA	-11.1682
nayana	-11.1689
▁travel	-11.1692
▁follow	-11.1696
▁manuzy	-11.1697
san	-11.1705
annAdya	-11.1707
pu	-11.1707
chi	-11.1715
tri	-11.1716
candramas	-11.1718
▁varuR	-11.1725
▁rog	-11.1727
▁Black	-11.1727
▁bIj	-11.1727
araRya	-11.1735
ruDira	-11.1736
kOnteya	-11.1744
manyu	-11.1745
▁Was	-11.1746
▁aNgam	-11.1757
So	-11.176
▁asur	-11.1761
▁dropped	-11.1765
▁bank	-11.1774
▁HE	-11.1775
sing	-11.1775
▁vAyu	-11.1776
▁due	-11.1777
▁EXP	-11.1777
▁White	-11.178
rd	-11.1781
▁River	-11.1782
BAma	-11.1784
▁astayant	-11.1785
kvATa	-11.1788
▁Roman	-11.1788
skanDa	-11.1791
io	-11.1793
GMA	-11.1796
▁century	-11.18
▁Fa	-11.1808
▁period	-11.1809
▁jezat	-11.1809
mukti	-11.1809
▁bye	-11.1815
▁diS	-11.1817
saMyuga	-11.1825
tf	-11.183
utpatti	-11.1831
KaRqa	-11.1831
▁telephone	-11.1838
▁rich	-11.1851
puMgava	-11.1853
▁interesting	-11.1863
▁hurry	-11.1867
▁Friday	-11.1867
kfmi	-11.1874
low	-11.1878
▁horses	-11.1879
vu	-11.1881
▁Council	-11.1882
▁respect	-11.1883
▁aSv	-11.1884
vftta	-11.1884
Gana	-11.1893
▁flew	-11.1897
▁saMvatsar	-11.19
tapasvin	-11.1902
Sarad	-11.1903
uras	-11.1921
Ahava	-11.1939
▁welcome	-11.1941
SradDA	-11.1944
tanaya	-11.1945
tuH	-11.1946
▁hall	-11.1948
▁manut	-11.1949
▁uncle	-11.1956
end	-11.1957
▁sticks	-11.196
▁none	-11.196
▁arD	-11.1966
▁walking	-11.1972
BR	-11.1973
vanaspati	-11.1974
saNga	-11.1975
▁showed	-11.1976
▁finger	-11.1976
▁vizRu	-11.1986
▁Je	-11.1988
▁Our	-11.1989
▁Che	-11.1991
▁em	-11.1992
▁Bav	-11.1993
▁smile	-11.1994
yukti	-11.1995
ture	-11.1999
ified	-11.2001
ABaraRa	-11.2009
▁du	-11.201
lan	-11.2011
▁par	-11.2013
rayi	-11.2015
▁fresh	-11.2016
▁lawyer	-11.2016
▁neck	-11.2017
ach	-11.202
▁gar	-11.2029
▁Mama	-11.203
▁jinvat	-11.2039
▁difficult	-11.2041
singing	-11.2043
▁machine	-11.2045
There	-11.2053
ever	-11.2054
▁fa	-11.2055
AyuH	-11.2061
▁AMhat	-11.2062
▁Shi	-11.2064
rn	-11.2066
vaDU	-11.2069
▁angry	-11.2076
▁flat	-11.2081
Gawa	-11.2085
▁Te	-11.2089
▁nurse	-11.209
mahIpati	-11.2091
sADana	-11.2093
ES	-11.2093
▁European	-11.2094
▁joined	-11.2096
▁laughed	-11.2099
BARqa	-11.2099
ging	-11.21
ver	-11.2101
▁meat	-11.2102
trizwuB	-11.2102
ily	-11.2108
▁directed	-11.2109
gamana	-11.2109
▁putre	-11.2118
▁worse	-11.2121
▁sleeping	-11.2127
aSvameDa	-11.2132
▁airplane	-11.2136
vimAna	-11.2136
pad	-11.2136
▁Han	-11.2143
▁Mon	-11.215
▁favorite	-11.2151
lly	-11.2158
▁agacCat	-11.2166
pravftti	-11.2167
amara	-11.2173
ology	-11.2181
praDAna	-11.2182
Ross	-11.2186
yUpa	-11.2191
▁lead	-11.2192
▁slowly	-11.22
cintA	-11.2202
▁mUtr	-11.2203
DarmarAja	-11.2203
gfhapati	-11.2206
sco	-11.2207
▁cakr	-11.2212
kali	-11.2215
▁turning	-11.2216
clock	-11.2217
▁onto	-11.2217
▁monkey	-11.2227
▁vfkz	-11.2234
▁sky	-11.2237
▁aMhizyat	-11.2238
▁ears	-11.2239
▁paid	-11.2243
▁market	-11.2244
▁daRq	-11.2245
▁finally	-11.2246
▁Nothing	-11.2249
▁difference	-11.2257
▁parts	-11.226
▁Cup	-11.2264
SAsana	-11.2266
▁rAkzas	-11.2271
▁countries	-11.2273
niScaya	-11.2273
anala	-11.2277
▁sneh	-11.2278
asante	-11.2286
▁message	-11.2288
nO	-11.2296
▁lots	-11.2297
▁Tu	-11.2298
▁antaH	-11.2301
vI	-11.2303
▁spent	-11.2304
▁Siv	-11.2306
▁2016	-11.2307
▁paYcat	-11.2309
▁cost	-11.2311
▁Brian	-11.2312
▁study	-11.2312
▁US	-11.2315
▁rabbit	-11.2319
kfzRA	-11.2325
vESvAnara	-11.2328
▁drakzyat	-11.233
tle	-11.2338
seta	-11.2344
▁East	-11.2346
▁leaves	-11.2351
▁force	-11.2354
▁Per	-11.2355
▁pin	-11.2358
ford	-11.2361
▁droR	-11.2362
SAsu	-11.2365
samIpa	-11.2367
lar	-11.2369
ren	-11.2369
BA	-11.237
▁clock	-11.2377
▁jayat	-11.2382
▁super	-11.2384
ukTa	-11.2384
triPalA	-11.2386
▁BE	-11.2393
wu	-11.2394
amAtya	-11.2394
▁pleasure	-11.2396
▁Monday	-11.2396
ESvarya	-11.2398
▁needed	-11.2402
saras	-11.2414
▁ja	-11.2417
▁varat	-11.2419
des	-11.242
▁Effie	-11.2427
▁kzay	-11.2429
pUzan	-11.2431
▁quarter	-11.2431
kIrti	-11.2433
▁view	-11.2433
▁raR	-11.2434
Bfgu	-11.2436
▁taste	-11.2438
▁talked	-11.2438
▁leader	-11.2439
und	-11.2442
vfzan	-11.2446
▁card	-11.2455
▁forth	-11.2456
▁mitr	-11.246
▁viSez	-11.2467
▁explain	-11.2468
▁tr	-11.2468
Do	-11.2472
▁cUrR	-11.2473
kartf	-11.2473
dyuti	-11.2478
svaDA	-11.248
▁singer	-11.2483
▁Gar	-11.2488
▁Cromer	-11.249
▁event	-11.249
▁puts	-11.2494
aYjana	-11.2494
mAlA	-11.25
▁terrible	-11.2505
kanaka	-11.2507
atiTi	-11.2531
smfti	-11.2532
iqA	-11.2533
▁begin	-11.2536
▁key	-11.2538
Baga	-11.254
▁field	-11.2545
vizyanti	-11.2546
kleSa	-11.2562
EN	-11.2568
▁BUmi	-11.2568
cle	-11.2568
▁shop	-11.2569
▁iron	-11.2569
▁pain	-11.257
▁type	-11.2571
▁Joe	-11.2573
▁murder	-11.2581
▁ninety	-11.2585
▁soul	-11.2587
▁manner	-11.2588
▁continued	-11.2588
▁slow	-11.2589
▁suit	-11.2592
cala	-11.2596
▁Charles	-11.26
▁spring	-11.26
▁po	-11.2601
zz	-11.2601
EX	-11.2608
nAda	-11.2609
dala	-11.2611
▁accident	-11.2616
utpala	-11.262
vAhana	-11.2621
▁Sez	-11.2629
IkzaRa	-11.2635
sAraTi	-11.2639
▁carbat	-11.2639
▁offered	-11.2639
ozaDI	-11.2639
tay	-11.2645
▁aged	-11.2646
▁gas	-11.2647
▁syAt	-11.2649
▁27	-11.2658
kazAya	-11.2659
▁fl	-11.266
▁movement	-11.266
▁stayed	-11.266
▁stories	-11.2663
▁saMSay	-11.2664
▁lying	-11.2665
▁2015	-11.2666
▁pApA	-11.2674
▁elephant	-11.2674
▁hari	-11.268
ick	-11.2682
▁bet	-11.2683
▁closed	-11.2684
▁nope	-11.2687
▁leg	-11.2692
ruci	-11.2693
▁election	-11.2697
▁viDi	-11.27
▁pitta	-11.2706
▁magnets	-11.2708
▁citt	-11.2709
▁Kingdom	-11.2711
▁Street	-11.2711
▁enemy	-11.2711
▁vacyAt	-11.2711
▁added	-11.2716
vedanA	-11.2719
▁gO	-11.2724
dyAvApfTivI	-11.2727
prARin	-11.2736
▁astr	-11.2739
over	-11.2743
stamBa	-11.2749
bb	-11.2751
banDana	-11.2754
▁danger	-11.2759
▁simply	-11.276
▁dry	-11.277
▁spot	-11.2774
▁Ajy	-11.2778
use	-11.279
▁wash	-11.2791
▁Ann	-11.2799
don	-11.28
ile	-11.28
SArdUla	-11.2801
SoPa	-11.2804
▁Dolly	-11.2809
loBa	-11.281
▁2020	-11.2821
▁major	-11.2824
▁Cha	-11.2827
▁Min	-11.2829
▁south	-11.283
▁vaD	-11.2833
▁prajApati	-11.2833
▁spend	-11.285
sugrIva	-11.2851
saMsAra	-11.2852
mArkaRqeya	-11.2852
▁William	-11.2858
Uti	-11.2859
▁100	-11.2865
rate	-11.2868
bfhatI	-11.2873
▁Nesta	-11.2873
marman	-11.2874
▁Sha	-11.2875
▁cos	-11.2884
▁roll	-11.2886
▁metal	-11.2894
nic	-11.2896
▁speaking	-11.2898
▁su	-11.2898
og	-11.29
ker	-11.2911
▁Bu	-11.2911
▁se	-11.2913
▁Mu	-11.2915
▁agree	-11.2916
▁caused	-11.2916
Any	-11.2916
▁kurvAt	-11.2922
loman	-11.293
▁arjun	-11.2931
nder	-11.2932
▁loh	-11.2932
▁tEl	-11.2935
▁falls	-11.2944
ious	-11.2944
Kaqga	-11.295
ded	-11.295
mAlya	-11.2951
koSa	-11.2954
▁scene	-11.2954
▁various	-11.2955
▁parvat	-11.2958
▁kzaR	-11.2966
tantra	-11.297
▁28	-11.2973
ria	-11.2974
▁health	-11.2983
yoDa	-11.2985
▁26	-11.2986
▁dogs	-11.2986
▁bowl	-11.2987
▁fighting	-11.2989
nASa	-11.2991
brahmacarya	-11.2992
viBAga	-11.3003
▁budDi	-11.3008
stana	-11.3014
▁puw	-11.3016
▁forest	-11.3016
How	-11.3019
▁pra	-11.3019
jAnu	-11.302
▁especially	-11.302
ane	-11.3022
▁Prince	-11.3023
lepa	-11.3023
vastu	-11.3023
▁social	-11.3024
=	-11.3029
▁serious	-11.3033
RO	-11.3033
▁wise	-11.3041
▁League	-11.3042
odana	-11.3049
▁smarat	-11.3049
▁hide	-11.3053
iBI	-11.3056
nidrA	-11.3058
sis	-11.3063
vidyut	-11.3063
▁asyet	-11.3066
gan	-11.3067
▁History	-11.307
Bavana	-11.3071
▁General	-11.3074
▁Barat	-11.3077
▁join	-11.3086
▁teeth	-11.3087
▁rase	-11.3096
yo	-11.3098
kzOdra	-11.3098
vaRij	-11.3099
niS	-11.3101
prasava	-11.3102
svAmin	-11.3103
▁offer	-11.3105
fully	-11.3105
▁Give	-11.3107
▁Paris	-11.3108
vedi	-11.3118
▁vAr	-11.3118
▁crack	-11.3121
▁uhuh	-11.3121
niSA	-11.3122
▁br	-11.3136
▁pe	-11.3136
▁decision	-11.3137
▁upstairs	-11.3137
▁Gi	-11.3137
Sreyas	-11.3142
▁drum	-11.3143
puroqASa	-11.3147
▁ant	-11.3148
Arti	-11.3156
ney	-11.316
what	-11.3161
port	-11.3169
▁winter	-11.3171
▁stone	-11.3175
▁kroD	-11.3179
▁extra	-11.318
▁ba	-11.3181
▁viz	-11.3183
TE	-11.3183
▁prison	-11.3183
▁allow	-11.3184
▁str	-11.3192
▁Sakr	-11.32
▁wh	-11.3211
tAla	-11.3214
▁2018	-11.3221
SIka	-11.3221
▁row	-11.3227
ities	-11.3227
▁gate	-11.3234
adri	-11.3236
▁Sure	-11.3241
granTi	-11.3251
▁choice	-11.3254
▁private	-11.3254
▁peace	-11.3266
▁jAyayat	-11.3271
▁mocayat	-11.3271
▁vaS	-11.3275
vijaya	-11.3277
▁cap	-11.328
▁bale	-11.3282
▁officer	-11.3285
▁role	-11.3292
kusuma	-11.3296
sAyaka	-11.33
▁jvar	-11.33
▁vadat	-11.3302
DArtarAzwra	-11.3302
kuSa	-11.3303
cher	-11.3309
▁smfR	-11.3309
▁Would	-11.331
▁shows	-11.3322
▁sh	-11.3332
ties	-11.3332
▁soldiers	-11.3333
rie	-11.3338
devadeva	-11.3339
asra	-11.3339
▁international	-11.3339
tvarA	-11.3341
▁director	-11.3344
vyasana	-11.3346
▁vAtaH	-11.3348
purIza	-11.3348
ade	-11.3352
▁kanyA	-11.3352
▁actor	-11.3366
tfz	-11.3367
kzuD	-11.3368
ash	-11.3369
sarit	-11.3369
surA	-11.337
tawa	-11.3373
vipAka	-11.3374
ric	-11.3376
▁About	-11.3377
▁breath	-11.3388
apatya	-11.3389
▁Europe	-11.3389
kfta	-11.3398
▁brahmaR	-11.3398
▁Sakti	-11.3398
▁spread	-11.34
▁east	-11.34
kOSika	-11.3406
ketu	-11.3407
▁throat	-11.3408
niDi	-11.3408
kAzWa	-11.3408
▁dressed	-11.3419
anfta	-11.342
▁popular	-11.3424
▁tu	-11.3426
▁Which	-11.3428
--"	-11.3435
lABa	-11.3438
▁simple	-11.3442
▁Christ	-11.3445
▁Up	-11.3445
SravaRa	-11.3446
BAs	-11.3449
▁spoken	-11.345
aBraka	-11.3457
santi	-11.3457
mAnuza	-11.3457
yanti	-11.3458
dvIpa	-11.3458
mADava	-11.3458
▁CHAPTER	-11.3459
aDvara	-11.3461
ASA	-11.3463
▁amft	-11.3464
▁accept	-11.347
str	-11.3472
▁term	-11.3478
▁jemat	-11.3478
▁Sok	-11.3484
SamBu	-11.3488
dfS	-11.3491
▁pair	-11.3494
▁Ni	-11.3495
0	-11.3502
mAza	-11.3503
▁Canda	-11.3506
▁Pan	-11.3506
bindu	-11.3509
▁famous	-11.3511
aSman	-11.3512
▁ft	-11.3514
ec	-11.3519
SarkarA	-11.3524
▁exclaimed	-11.3529
rava	-11.3537
puRya	-11.3537
▁gi	-11.3539
medas	-11.3542
▁bAR	-11.3542
▁Smith	-11.3546
naBas	-11.3547
▁Eleanor	-11.3549
▁blow	-11.3551
paNkti	-11.3553
9	-11.3562
nAqI	-11.3563
My	-11.3573
▁pocket	-11.3581
▁completely	-11.3583
gh	-11.3584
▁pot	-11.3586
amitra	-11.3587
row	-11.3588
tIra	-11.3595
2.	-11.3602
▁dollars	-11.3608
▁experience	-11.3609
dyO	-11.3611
ab	-11.3613
▁THAT	-11.3616
▁iNKat	-11.3616
▁although	-11.3616
▁judge	-11.3616
pp	-11.3618
py	-11.3619
mArja	-11.3628
aNganA	-11.363
▁Washington	-11.3633
▁Rose	-11.3634
▁vAdayat	-11.364
▁hfday	-11.3646
▁particular	-11.3647
meru	-11.3648
▁paS	-11.3652
▁dinosaur	-11.3655
ins	-11.3655
▁falling	-11.3655
▁Datte	-11.3658
▁wake	-11.3658
▁date	-11.3659
▁shoot	-11.3662
▁quietly	-11.3675
▁size	-11.3675
▁likely	-11.3676
▁Fi	-11.3678
uch	-11.3679
▁fingers	-11.368
night	-11.368
tro	-11.3687
▁cArayat	-11.369
▁carat	-11.3698
anuzwuB	-11.3706
▁brain	-11.3707
▁enjoy	-11.3708
vidura	-11.3716
▁beyond	-11.3721
▁cocoon	-11.3721
▁turtle	-11.3722
▁include	-11.3727
ass	-11.3729
▁nAma	-11.373
▁rule	-11.3733
▁indat	-11.3735
narmadA	-11.3736
Goza	-11.3736
raTaMtara	-11.3739
Sucy	-11.3739
▁feed	-11.3741
lie	-11.3742
Svan	-11.3744
ou	-11.3745
VE	-11.3753
▁Since	-11.3757
▁doggie	-11.3758
zazwi	-11.3766
nie	-11.3772
▁evidence	-11.3775
▁Dutch	-11.3775
▁sand	-11.3789
▁Thomas	-11.3793
ven	-11.38
▁balls	-11.3804
▁eKat	-11.3806
Badra	-11.3808
tfPa	-11.3809
▁bell	-11.3815
BUzaRa	-11.3816
ville	-11.3821
▁antar	-11.3822
▁lad	-11.3824
narADipa	-11.3826
▁computer	-11.3828
DAtf	-11.3836
▁coat	-11.3838
sruc	-11.3839
ations	-11.3841
yozit	-11.3843
▁luck	-11.3844
▁Humphrey	-11.3846
▁conversation	-11.3846
▁situation	-11.3846
They	-11.3847
fdDi	-11.3849
▁entered	-11.385
trElokya	-11.3874
vin	-11.3883
▁Most	-11.3886
▁Ke	-11.3889
▁magic	-11.3891
▁journey	-11.39
▁2023	-11.39
▁2012	-11.39
▁2014	-11.39
▁trade	-11.3901
▁picked	-11.3902
UN	-11.3909
▁Only	-11.3912
zi	-11.3912
▁duck	-11.3912
UrI	-11.3915
▁episode	-11.3918
▁twelve	-11.3918
▁fault	-11.3918
▁coach	-11.392
▁happening	-11.3936
▁Um	-11.3938
hy	-11.3939
▁raised	-11.394
yante	-11.3942
Bftya	-11.3946
▁cute	-11.3949
▁higher	-11.395
ese	-11.3951
puzwi	-11.3953
▁liNg	-11.3954
▁crazy	-11.3954
▁project	-11.3954
▁bow	-11.3965
▁Many	-11.3966
▁SUr	-11.3967
▁tone	-11.3971
Du	-11.3972
▁crime	-11.3973
▁Canada	-11.3973
▁mouse	-11.3973
▁notice	-11.3975
ag	-11.3985
1.	-11.3988
Garma	-11.399
▁Italian	-11.3991
▁2011	-11.3991
▁published	-11.3992
ASis	-11.3993
▁hay	-11.3993
meDA	-11.4007
▁yo	-11.4009
▁sposta	-11.4009
▁writer	-11.401
▁purpose	-11.4011
▁carcayat	-11.4013
▁Eric	-11.4013
vAsava	-11.4016
20	-11.4017
▁ganDarv	-11.4018
▁driving	-11.4027
well	-11.4029
pavana	-11.4033
▁Frank	-11.4034
ina	-11.4036
▁Sal	-11.404
▁pretend	-11.4041
▁blanket	-11.4046
▁vandat	-11.4047
▁protect	-11.405
3.	-11.4052
▁2017	-11.4054
ink	-11.4054
▁houses	-11.406
anugraha	-11.406
▁Australia	-11.406
▁maTn	-11.4062
prajYA	-11.4062
▁vote	-11.4062
▁jiriR	-11.4064
▁skin	-11.4065
▁involved	-11.4066
nny	-11.407
▁Listen	-11.4071
ob	-11.4071
▁BU	-11.4072
▁monster	-11.4082
▁asleep	-11.4086
pradAna	-11.4088
▁bo	-11.4092
Then	-11.4096
▁ark	-11.4097
song	-11.4098
BAskara	-11.4099
▁Excuse	-11.4101
▁laughs	-11.4102
Atapa	-11.4103
▁arrived	-11.4104
▁button	-11.4108
▁Day	-11.4109
▁gati	-11.4116
▁listening	-11.4117
▁Kitty	-11.4119
▁("	-11.4122
hfz	-11.4122
▁subject	-11.4124
▁Jim	-11.4132
Apad	-11.4134
▁announced	-11.4138
tfkza	-11.4147
ize	-11.4149
purohita	-11.4153
mEtreya	-11.4154
▁mountain	-11.4155
▁competition	-11.4156
▁Their	-11.4157
vivAha	-11.4158
saMkASa	-11.4174
dakza	-11.4175
▁Pen	-11.4176
Suka	-11.4178
mAs	-11.4187
▁1,	-11.4189
kfpa	-11.4191
guqa	-11.4195
▁Got	-11.4195
aSana	-11.4202
kamala	-11.4203
ls	-11.4206
ku	-11.4207
kuYjara	-11.4209
sambanDa	-11.4211
▁Parliament	-11.4212
▁Sc	-11.4216
▁samudr	-11.4216
▁castle	-11.4218
▁pink	-11.422
ably	-11.4222
▁mun	-11.4222
▁inter	-11.4225
yanta	-11.4226
▁iNgat	-11.423
▁shirt	-11.4237
sAvitrI	-11.4238
▁Si	-11.4239
▁Ru	-11.424
▁swimming	-11.4249
▁non	-11.425
parameSvara	-11.4266
BrAtfvya	-11.4267
▁college	-11.4268
▁smell	-11.4268
▁mAn	-11.427
gue	-11.4271
Alaya	-11.4273
ice	-11.4276
▁turns	-11.4276
prakASa	-11.4281
▁taught	-11.4287
vy	-11.4287
dugDa	-11.4289
▁county	-11.4293
jYAti	-11.4301
muzwi	-11.4302
IT	-11.4303
dama	-11.4303
▁smart	-11.4304
sfzwi	-11.4305
▁military	-11.4305
▁Marcia	-11.4305
veSman	-11.4308
vers	-11.4309
dIpa	-11.4314
jAraRa	-11.4314
mahApurARa	-11.4315
▁WE	-11.4321
▁distance	-11.4324
▁fruit	-11.4324
▁Women	-11.4324
▁gacCant	-11.4324
▁joy	-11.4326
Sakuni	-11.433
▁vaktAt	-11.4331
▁tri	-11.4332
▁below	-11.4335
udgAtf	-11.4343
▁ended	-11.4346
▁yug	-11.4351
▁bridge	-11.4353
uc	-11.4353
acala	-11.437
▁ra	-11.4374
Dfzwadyumna	-11.4377
dvijottama	-11.4379
▁Court	-11.438
▁ladies	-11.4381
▁plays	-11.4384
▁SAstr	-11.4392
▁Yo	-11.4395
▁fi	-11.4398
▁High	-11.44
arRava	-11.44
▁ezizyat	-11.4401
▁Guy	-11.4406
▁zoo	-11.4412
▁Cl	-11.4413
lia	-11.4414
▁older	-11.4415
▁earlier	-11.4418
▁tears	-11.442
▁tAt	-11.4421
▁joke	-11.4422
▁Atman	-11.4424
▁whispered	-11.4434
palASa	-11.4436
shi	-11.4437
▁2013	-11.4438
▁anywhere	-11.4438
▁Green	-11.4439
jyA	-11.4442
Iqa	-11.4443
Now	-11.4446
▁Pale	-11.4447
▁honor	-11.4451
▁ways	-11.4451
▁natural	-11.4453
▁author	-11.4456
KEN	-11.4456
vAda	-11.4456
▁excited	-11.4456
▁kfRvAt	-11.4457
▁action	-11.4458
ISAna	-11.4459
yn	-11.4461
▁considered	-11.4461
yAtrA	-11.4468
▁hasn	-11.4472
samADi	-11.448
izwi	-11.4483
▁laid	-11.4485
▁interested	-11.4486
▁kAle	-11.4487
▁Tri	-11.4489
▁official	-11.4491
aSru	-11.4493
izvAsa	-11.4494
sampad	-11.4495
work	-11.4496
▁length	-11.45
gopa	-11.4506
lip	-11.4511
druRa	-11.4512
roman	-11.4526
▁rate	-11.4527
10	-11.4529
▁awful	-11.453
▁Union	-11.4534
BAnu	-11.4534
▁rocket	-11.4535
kanda	-11.4536
▁Papa	-11.4541
▁result	-11.4541
gOrava	-11.4544
▁education	-11.4546
kup	-11.4546
ened	-11.455
giggles	-11.4552
▁Could	-11.4559
board	-11.456
▁vats	-11.4562
▁starting	-11.4565
▁ri	-11.4565
dehin	-11.4568
▁noble	-11.457
tvazwf	-11.4571
▁nineteen	-11.4571
▁Louis	-11.4574
len	-11.4574
▁kiss	-11.4577
▁nut	-11.458
▁marut	-11.4581
tyAga	-11.4586
▁Oxford	-11.4591
▁laBat	-11.4591
▁ne	-11.4592
diw	-11.4593
muda	-11.46
▁akzar	-11.4601
▁believed	-11.4606
kaRqU	-11.4607
▁path	-11.4616
▁SUl	-11.4625
NE	-11.4631
arca	-11.4631
▁apaSyat	-11.4634
off	-11.4647
Samo	-11.4647
▁lion	-11.4649
jagatI	-11.4649
▁founded	-11.4653
uda	-11.4655
grAsa	-11.4656
parRa	-11.4658
▁mfg	-11.466
▁process	-11.4662
paryAya	-11.4664
parASara	-11.4667
▁teach	-11.4669
▁stairs	-11.4678
▁nature	-11.4684
dvaMdva	-11.4688
▁female	-11.4688
saMvid	-11.4688
▁BAryA	-11.4688
▁BIm	-11.4689
SiSu	-11.4689
saMhitA	-11.469
▁ASram	-11.4691
mahAmati	-11.4696
▁Aye	-11.4698
vitta	-11.4701
▁avinda	-11.4704
▁Church	-11.4707
aMSu	-11.4708
agnizwoma	-11.4708
▁lines	-11.4713
▁dakziRA	-11.4716
▁movies	-11.4722
arcis	-11.4724
▁Thursday	-11.4727
▁yAt	-11.4728
▁Har	-11.4738
dinam	-11.4738
Sucya	-11.4742
▁rec	-11.4744
▁drew	-11.4751
▁vizay	-11.4751
▁Sastr	-11.4751
▁Say	-11.4751
▁meal	-11.4756
▁Gra	-11.4758
▁fourth	-11.4759
▁huge	-11.4764
▁square	-11.4766
▁afterwards	-11.4766
▁kzatriy	-11.4769
sadas	-11.4774
▁Love	-11.4775
▁covered	-11.4776
yOvana	-11.4778
sUkta	-11.4778
▁mAyA	-11.4782
purARa	-11.4782
ET	-11.4783
ayizyat	-11.4785
▁International	-11.4786
vEdya	-11.4786
▁host	-11.479
▁Three	-11.4791
AL	-11.4795
▁29	-11.4801
pOra	-11.4801
▁Before	-11.4806
▁threw	-11.4806
tO	-11.481
▁aMhant	-11.4812
dIp	-11.4814
ists	-11.4818
▁padm	-11.4823
▁Summer	-11.4825
▁Greek	-11.4826
kziRu	-11.4826
▁TV	-11.4834
▁recorder	-11.4835
gagana	-11.4836
puzkara	-11.484
Cattra	-11.4844
▁search	-11.4849
▁placed	-11.4849
uraga	-11.4854
▁pushed	-11.4855
▁missed	-11.4857
▁cast	-11.4858
▁address	-11.4859
▁camera	-11.4861
▁antarikz	-11.4863
▁terms	-11.4865
▁picnic	-11.4865
▁speech	-11.4865
▁Fox	-11.4868
▁amount	-11.4869
▁woods	-11.487
ration	-11.4872
▁showing	-11.4875
▁Every	-11.488
▁cur	-11.4881
▁located	-11.4885
▁Master	-11.4886
▁Boy	-11.4888
▁press	-11.4888
vel	-11.4893
▁string	-11.4894
▁ME	-11.4895
kavaca	-11.4899
har	-11.4904
▁dancing	-11.4905
▁2010	-11.4905
camasa	-11.4906
oon	-11.4908
▁karmaR	-11.4908
▁grand	-11.4915
▁Bra	-11.4915
aNgAra	-11.4935
▁lap	-11.4944
▁chimney	-11.4945
nAsA	-11.4946
▁seventy	-11.4947
ged	-11.4952
pur	-11.4953
▁expected	-11.4954
cApa	-11.4958
some	-11.4959
▁sudden	-11.4961
SAka	-11.4965
▁Rome	-11.4966
If	-11.4967
19	-11.4968
sruva	-11.497
▁agreed	-11.4976
yl	-11.4977
▁missing	-11.4978
▁Olympics	-11.4983
bs	-11.4984
▁similar	-11.4985
▁training	-11.4988
▁gaj	-11.4989
▁dey	-11.4993
▁imagine	-11.4999
▁dIdAMsizya	-11.5001
▁Jean	-11.5008
▁fence	-11.5008
▁ge	-11.5011
▁pleased	-11.5012
▁shape	-11.5012
▁tan	-11.5018
viSvAmitra	-11.5025
▁practice	-11.5025
lIlA	-11.5025
▁unless	-11.5028
▁hoqizyat	-11.503
com	-11.503
looking	-11.5032
▁Sun	-11.5035
▁Wood	-11.5035
▁stA	-11.5041
ayate	-11.5044
SE	-11.5045
bar	-11.5045
rujA	-11.5046
kay	-11.5046
▁vastr	-11.5051
▁male	-11.5051
ayas	-11.5059
aSani	-11.506
▁knife	-11.5066
▁gentleman	-11.5066
▁mistake	-11.5072
aRqa	-11.5076
▁spirit	-11.5076
▁sidD	-11.5077
▁apart	-11.5079
duhi	-11.5085
▁community	-11.5086
oop	-11.5089
vEdehI	-11.5093
holds	-11.5093
smita	-11.5102
▁gives	-11.5106
▁Pre	-11.5106
▁gift	-11.5106
▁While	-11.5106
▁immediately	-11.5107
arSas	-11.511
guYjA	-11.5111
vikalpa	-11.5112
▁Par	-11.5125
ets	-11.5126
▁double	-11.5127
zy	-11.5127
vfzaBa	-11.5128
▁boDisattv	-11.5129
SayyA	-11.513
▁mess	-11.5143
▁original	-11.5144
kukzi	-11.5148
air	-11.5152
datta	-11.5154
▁Time	-11.5156
maya	-11.5158
▁dvay	-11.5158
▁escape	-11.5161
▁paint	-11.5163
▁watched	-11.5165
svana	-11.5167
brahmacArin	-11.5167
▁numbers	-11.5172
▁AS	-11.5172
▁Wa	-11.5174
▁plain	-11.5179
▁wearing	-11.5183
nut	-11.5185
▁cu	-11.5186
▁Spanish	-11.5188
▁Park	-11.519
SiKaRqin	-11.52
▁ow	-11.5201
bling	-11.5204
▁Republic	-11.5206
▁pan	-11.5206
▁sword	-11.5209
▁China	-11.521
▁Over	-11.5213
▁grown	-11.5213
nch	-11.5217
ilati	-11.5218
drOpadI	-11.5229
▁Wednesday	-11.5229
▁dangerous	-11.523
sUnu	-11.523
eth	-11.5234
IC	-11.5234
▁mAtA	-11.5236
▁Cor	-11.5239
▁cousin	-11.5242
yuvan	-11.5243
nods	-11.5248
srotas	-11.5248
▁beside	-11.5259
▁grah	-11.526
▁budD	-11.526
▁fz	-11.5263
▁decide	-11.5264
paryanta	-11.527
▁pitAmah	-11.527
▁duryoDan	-11.5273
▁handle	-11.5276
ised	-11.5278
▁akz	-11.528
cilla	-11.5282
▁ved	-11.5283
Don	-11.5285
▁strength	-11.5291
▁veg	-11.5292
▁neat	-11.5292
▁Ya	-11.5294
SIN	-11.5294
grIvA	-11.5297
▁hero	-11.53
▁flying	-11.5304
ants	-11.5306
tfRu	-11.5309
▁version	-11.5312
dEvata	-11.5312
▁filled	-11.5317
nya	-11.5319
▁yokzya	-11.532
▁prove	-11.5324
mAhAtmya	-11.5327
kuRqala	-11.5329
▁sEny	-11.5332
▁Tuesday	-11.5333
▁Elizabeth	-11.5335
▁havi	-11.5338
▁lu	-11.5345
balA	-11.5348
ium	-11.5348
Kara	-11.535
▁Russia	-11.5351
▁meaning	-11.5352
▁regular	-11.5353
▁Aldred	-11.5354
▁maRqal	-11.5355
bor	-11.5357
lon	-11.5358
▁hadn	-11.5364
▁closer	-11.5364
▁sharp	-11.5367
▁produced	-11.5381
ju	-11.5382
▁total	-11.5386
▁engine	-11.5391
▁pleasant	-11.5395
▁trick	-11.5396
citraka	-11.5396
gala	-11.5398
atAt	-11.5407
cc	-11.5415
Sarman	-11.5416
▁Massachusetts	-11.5416
▁neither	-11.5416
▁Jesus	-11.5416
▁west	-11.5416
▁lord	-11.5417
▁Fire	-11.5418
▁mat	-11.5419
▁tal	-11.5421
▁Hall	-11.5422
▁sentence	-11.5426
▁colors	-11.543
▁studied	-11.5437
▁therefore	-11.5437
▁disease	-11.5437
▁discovered	-11.5441
▁adIdAMsa	-11.5441
▁rise	-11.5446
▁thinks	-11.5454
▁Mike	-11.5456
▁Aunt	-11.5458
vigraha	-11.546
▁Saint	-11.5463
▁design	-11.5472
saMkalpa	-11.5479
utsava	-11.5481
▁African	-11.5483
cho	-11.5492
▁Christian	-11.5495
coughs	-11.5495
▁Los	-11.5499
nakula	-11.55
ments	-11.5501
▁Duke	-11.5501
▁rough	-11.5501
▁lower	-11.5502
▁dirty	-11.5502
▁research	-11.5503
SaSin	-11.5509
▁treat	-11.551
▁sold	-11.5516
pro	-11.552
prakAra	-11.5523
▁serve	-11.5525
sraj	-11.5532
▁success	-11.5539
takes	-11.5545
izwakA	-11.5545
cu	-11.5546
▁radio	-11.5555
▁pa	-11.556
▁darling	-11.5564
▁kriyA	-11.5565
▁debut	-11.5567
▁hotel	-11.5572
Sloka	-11.5573
brahmavarcasa	-11.5578
svarUpa	-11.5579
light	-11.5579
▁current	-11.5582
▁basket	-11.5585
▁Claus	-11.5586
▁storm	-11.5586
▁couch	-11.5586
dveza	-11.5587
BArgava	-11.5587
ock	-11.5588
▁largest	-11.5588
sapatna	-11.5589
▁praBA	-11.559
mata	-11.5591
▁drinking	-11.5591
▁calls	-11.5592
ong	-11.5592
rE	-11.5595
▁surprised	-11.5595
aNka	-11.5597
▁dAnav	-11.5604
▁border	-11.5607
▁varDat	-11.5607
UR	-11.5608
ciri	-11.561
uring	-11.5611
▁[1	-11.5613
▁Sch	-11.5614
▁vESampAyan	-11.5616
nc	-11.5617
▁Mc	-11.5619
▁ON	-11.5619
ctor	-11.562
▁SIl	-11.5621
▁Mor	-11.5623
▁languages	-11.5624
vrIhi	-11.5626
▁moh	-11.5629
upadeSa	-11.563
▁Army	-11.5631
▁hardly	-11.5631
aBaya	-11.5632
mI	-11.5636
burg	-11.5638
wood	-11.5643
rASi	-11.5644
▁songs	-11.5644
▁Cal	-11.5647
sUtaka	-11.5648
▁mArg	-11.5651
▁particularly	-11.5654
▁viD	-11.5658
▁roof	-11.5672
pOrRamAsI	-11.5673
Cardi	-11.5674
agnaya	-11.5675
ayuta	-11.5678
lI	-11.5684
▁cakzu	-11.5688
▁More	-11.5689
▁SaNK	-11.569
▁II	-11.5691
vAm	-11.5692
▁worried	-11.5693
▁twice	-11.5693
▁lips	-11.5693
ics	-11.5694
▁sidDi	-11.5698
ball	-11.5707
▁oil	-11.5711
atic	-11.5719
mahizI	-11.5721
ale	-11.5728
▁Bakt	-11.5734
▁bi	-11.5735
▁cherry	-11.5736
▁sfjat	-11.5736
ative	-11.5737
pratimA	-11.5737
▁soup	-11.5738
BrU	-11.5738
▁Bujat	-11.5741
▁siMh	-11.5747
▁site	-11.5748
▁saved	-11.5752
▁aMhet	-11.5757
▁avidya	-11.5758
mahiman	-11.5758
aByAsa	-11.576
▁Ab	-11.5761
▁Jeffreys	-11.5764
old	-11.5764
▁promised	-11.5769
▁avedaya	-11.5771
Samu	-11.5773
madya	-11.5773
▁mark	-11.5775
pratijYA	-11.578
To	-11.578
▁Award	-11.5781
▁bomb	-11.5785
samyaksamboDi	-11.579
suDA	-11.5793
▁BavatA	-11.5796
▁cow	-11.5802
▁candy	-11.5803
▁rid	-11.5811
▁elayat	-11.5819
▁plenty	-11.5823
▁dolly	-11.5823
▁thus	-11.5825
Urmi	-11.5825
▁Molly	-11.5825
▁bug	-11.5831
▁Old	-11.5836
tIkzRa	-11.5839
Bramu	-11.5845
▁sfjyat	-11.5845
▁strike	-11.5845
▁Robin	-11.5846
▁bl	-11.5847
▁lock	-11.5847
shed	-11.585
▁bump	-11.585
rukma	-11.5854
▁jar	-11.5863
▁kuru	-11.5864
▁usual	-11.5865
▁speed	-11.5867
▁Spain	-11.5867
▁absolutely	-11.587
▁flower	-11.5871
gar	-11.5879
▁Fl	-11.5879
▁fo	-11.5881
▁entire	-11.5885
cila	-11.5887
▁prasAd	-11.5887
▁Soviet	-11.5889
▁fat	-11.5891
ure	-11.5899
▁risk	-11.5904
▁hill	-11.5905
stotra	-11.5905
▁driver	-11.5905
▁Un	-11.5908
▁samar	-11.5911
like	-11.5911
▁empty	-11.5911
▁lucky	-11.5916
▁mftyu	-11.5916
▁vedayizya	-11.5921
▁rat	-11.5925
▁ayacCat	-11.5933
▁development	-11.5934
▁obviously	-11.5934
▁pet	-11.5937
▁til	-11.5937
▁swing	-11.5939
ASaya	-11.5941
KyA	-11.5943
raTin	-11.5951
▁yoni	-11.5952
▁queen	-11.5955
tan	-11.5956
▁Chris	-11.5959
back	-11.5959
▁DO	-11.596
▁Mal	-11.596
set	-11.5962
▁ramat	-11.5962
▁gods	-11.5964
▁hiraRy	-11.5971
LL	-11.5972
kArmuka	-11.5973
OW	-11.5976
▁guard	-11.5987
ons	-11.5995
▁Earth	-11.6
▁flight	-11.6
▁Com	-11.6003
antaka	-11.6009
nk	-11.6016
▁personal	-11.6025
az	-11.6026
▁rep	-11.6028
ayeta	-11.603
sattra	-11.6039
▁Any	-11.6039
▁science	-11.6044
▁content	-11.6044
▁value	-11.6044
▁trial	-11.6046
lies	-11.6047
15	-11.6048
cul	-11.605
rat	-11.6056
rakzA	-11.6057
▁SUdr	-11.6058
nizWA	-11.6066
▁Joseph	-11.6066
▁fifteen	-11.6066
▁species	-11.6066
SiKA	-11.6067
citi	-11.6068
lakza	-11.6073
▁brothers	-11.6073
roza	-11.6075
zyat	-11.608
▁Maria	-11.6081
guwikA	-11.6089
▁Chief	-11.6089
▁bathroom	-11.6089
▁swim	-11.6089
trivft	-11.609
▁plane	-11.609
▁coast	-11.6091
▁yaSa	-11.6091
vasanta	-11.6092
▁asyatA	-11.6096
kumArI	-11.6098
▁centre	-11.61
▁Ph	-11.611
▁beauty	-11.6111
▁duty	-11.6112
ual	-11.6114
▁correct	-11.6123
▁udak	-11.6133
varman	-11.6134
▁silence	-11.6134
Sakft	-11.6135
CE	-11.6136
▁Hugo	-11.6137
law	-11.6142
▁En	-11.6148
▁nA	-11.6148
▁pulled	-11.6149
ress	-11.6151
▁harm	-11.6151
▁Big	-11.6153
▁weather	-11.6157
▁command	-11.6157
vfjI	-11.6157
▁areas	-11.616
gnim	-11.616
rry	-11.6167
tftIyasavana	-11.6172
nizka	-11.6175
▁kalp	-11.6175
▁kram	-11.618
pannaga	-11.6181
darSa	-11.6184
▁picks	-11.6184
illa	-11.6184
▁adAt	-11.6187
ans	-11.6188
US	-11.6189
▁center	-11.6191
Suca	-11.6193
TER	-11.6193
ST	-11.6197
▁Danu	-11.6197
ahaMkAra	-11.6202
▁impossible	-11.6202
DAtrI	-11.6202
cent	-11.6204
▁pramAR	-11.6207
16	-11.6209
▁glance	-11.6209
prAyaScitti	-11.6212
▁clearly	-11.6214
▁continue	-11.6217
▁sandwich	-11.6224
▁BrAtar	-11.6224
▁snake	-11.6224
▁ka	-11.6226
pping	-11.6228
garuqa	-11.6234
dizwi	-11.6235
▁circus	-11.6247
▁easily	-11.6247
▁Life	-11.6247
Satakratu	-11.6247
bAzpa	-11.6248
laNkA	-11.6258
gy	-11.6258
paTa	-11.6258
madra	-11.626
▁drawing	-11.626
"]	-11.6262
▁runs	-11.6263
▁crowd	-11.6264
▁effect	-11.6269
▁wet	-11.6272
▁AKyA	-11.6276
▁kzatr	-11.6279
▁construction	-11.628
▁groups	-11.6283
▁cha	-11.6285
▁model	-11.6286
ear	-11.6287
▁grave	-11.6289
▁Edward	-11.6293
chan	-11.6298
▁pAn	-11.6299
kzyati	-11.6306
▁ye	-11.6307
aka	-11.6307
▁sar	-11.6312
▁medal	-11.6312
vartman	-11.6315
▁price	-11.6316
▁elected	-11.6318
morrow	-11.6319
SoDana	-11.6321
own	-11.6323
▁Cu	-11.6325
▁doin	-11.6333
▁maDu	-11.6333
ral	-11.6335
mor	-11.6338
saMniDi	-11.6339
▁motion	-11.634
▁pool	-11.6343
ik	-11.6347
mUrCA	-11.6351
mfj	-11.6355
ory	-11.6357
▁rights	-11.6362
▁comment	-11.6362
Ki	-11.6367
▁bill	-11.6369
▁kfqatA	-11.6372
rim	-11.6375
vEra	-11.638
vapA	-11.6383
kanyakA	-11.6385
▁marriage	-11.6385
▁Major	-11.6385
▁organization	-11.6385
▁Mabel	-11.6385
narendra	-11.6387
▁corn	-11.6393
▁princess	-11.6395
▁Em	-11.6401
avyakta	-11.6401
▁council	-11.6408
saMKya	-11.6408
nyAya	-11.6416
▁kumAr	-11.6417
▁Star	-11.642
ray	-11.6421
▁im	-11.6423
ges	-11.6424
▁hasta	-11.6424
pin	-11.6429
▁cheer	-11.6432
▁Does	-11.6433
net	-11.6434
mAkzi	-11.6435
BUti	-11.6438
▁according	-11.6439
vasA	-11.6446
drupada	-11.6454
▁Catholic	-11.6455
▁tight	-11.6456
yAjyA	-11.6456
vismaya	-11.6457
▁wheel	-11.6466
▁vidyA	-11.6467
▁Den	-11.6469
ajYAna	-11.6471
▁pale	-11.6474
ery	-11.6475
ayante	-11.6477
▁security	-11.6478
▁struck	-11.6478
▁whoa	-11.6479
ius	-11.6489
sighs	-11.6491
▁fixed	-11.6492
▁object	-11.6492
▁yakz	-11.6496
▁students	-11.6497
▁fought	-11.6501
▁Sukr	-11.6503
▁udar	-11.6506
▁tAr	-11.6511
TO	-11.6512
kAnti	-11.6513
▁walks	-11.6514
▁banD	-11.6515
asfj	-11.6516
SiKara	-11.6524
▁gentlemen	-11.6525
sol	-11.6527
svADyAya	-11.6528
▁bike	-11.653
▁fill	-11.653
ack	-11.6535
ok	-11.6536
▁Perhaps	-11.6538
▁ju	-11.6543
▁paSyant	-11.6546
▁thin	-11.6554
▁perfectly	-11.6554
▁yav	-11.6555
▁Gr	-11.656
▁planet	-11.6563
▁clip	-11.6564
▁shown	-11.6571
▁necessary	-11.6572
▁captain	-11.6572
▁Once	-11.6577
NG	-11.6577
▁willn	-11.658
▁cal	-11.6582
▁gu	-11.6585
▁vast	-11.6588
▁refer	-11.6588
rAjarzi	-11.6589
play	-11.6592
▁Switzerland	-11.6595
▁strawberries	-11.6595
viqa	-11.6596
praBava	-11.6597
govinda	-11.6597
more	-11.6598
▁declared	-11.6599
upavAsa	-11.66
▁pfzW	-11.66
java	-11.6602
arAti	-11.6602
pariDi	-11.6604
▁bother	-11.6606
IS	-11.6609
▁brUsayizya	-11.661
▁pArTiv	-11.6612
bit	-11.6613
▁union	-11.6614
▁Scotland	-11.6619
▁eleven	-11.6619
▁channel	-11.6621
sirA	-11.6621
bra	-11.6624
▁chain	-11.6625
sevA	-11.663
▁Bog	-11.6632
▁Atmaj	-11.6633
▁jumped	-11.6635
▁anxious	-11.6639
▁Wi	-11.664
aGa	-11.6643
▁shadow	-11.6643
▁tyajat	-11.6643
DAraRa	-11.6651
gIta	-11.6653
ky	-11.6658
▁Angela	-11.6658
▁keeping	-11.6659
▁tAm	-11.6659
fkza	-11.6659
▁mud	-11.6662
hal	-11.6663
▁vfz	-11.6663
prApti	-11.6664
▁adult	-11.6666
▁Doctor	-11.6667
▁dare	-11.6668
igh	-11.6671
▁greatest	-11.6675
▁dem	-11.6677
▁program	-11.6683
▁frightened	-11.6692
▁Championship	-11.6693
ev	-11.6695
karza	-11.6699
SAlA	-11.6699
darpa	-11.67
antaHpura	-11.6705
▁AkAS	-11.6706
▁kAnt	-11.6706
naya	-11.6708
boDa	-11.6712
vyAhfti	-11.6714
▁Japan	-11.6714
▁choose	-11.6716
▁31	-11.6716
▁scary	-11.6716
AgnIDra	-11.672
▁2022)	-11.6723
dunduBi	-11.6724
nivftti	-11.6728
kAYjika	-11.6734
▁giri	-11.6735
catuzwaya	-11.6736
▁mis	-11.6736
▁tongue	-11.6738
▁appearance	-11.6738
▁fancy	-11.6738
▁Percy	-11.6738
camU	-11.6739
madi	-11.6742
piSAca	-11.6743
sahAya	-11.6743
▁ganDak	-11.6745
▁diva	-11.6753
jAyA	-11.6755
▁gur	-11.6756
ook	-11.6762
▁arrow	-11.6762
▁Ur	-11.6762
▁wooden	-11.6764
▁giant	-11.6764
▁pr	-11.6771
▁..	-11.6774
uck	-11.6779
▁likes	-11.6781
▁bound	-11.6783
rudi	-11.679
▁competed	-11.6791
how	-11.68
▁provide	-11.6804
▁relationship	-11.681
▁thy	-11.6814
kARqa	-11.6814
BUpati	-11.6816
grasa	-11.682
▁aNgul	-11.6827
ME	-11.6828
▁pray	-11.6832
saMgama	-11.6834
▁kzipyat	-11.6834
▁Bre	-11.6836
▁possibly	-11.6838
▁Island	-11.684
▁loss	-11.6843
hin	-11.6843
▁vAnar	-11.6844
tus	-11.6852
huh	-11.6854
ros	-11.6859
▁rising	-11.6859
krIqA	-11.686
▁Mac	-11.6861
chuckles	-11.6863
prAya	-11.6864
tain	-11.6868
▁kuzW	-11.687
hiMsA	-11.6871
▁organ	-11.6873
CH	-11.6874
▁Bri	-11.6874
RT	-11.6875
uz	-11.6876
▁priest	-11.6883
▁Year	-11.6884
sUca	-11.6884
▁FOR	-11.6884
▁shoe	-11.6887
janamejaya	-11.6887
samAgama	-11.6888
yAti	-11.6888
zo	-11.6889
▁NO	-11.6892
kftya	-11.6895
▁pAsyat	-11.6897
sie	-11.6899
▁Grand	-11.6901
sar	-11.6902
ette	-11.6903
▁opinion	-11.6907
▁weird	-11.6907
▁marry	-11.6909
▁Walter	-11.6909
aNguzWa	-11.691
▁Early	-11.6911
▁el	-11.6914
▁ur	-11.6915
▁strI	-11.692
dasyu	-11.6924
▁mAtar	-11.693
paramezWin	-11.6931
▁smoke	-11.6932
▁contact	-11.6932
▁kzipayat	-11.6933
saktu	-11.6933
▁partner	-11.6934
▁sake	-11.6935
tancu	-11.6939
▁calm	-11.6946
ered	-11.695
▁Those	-11.6956
rum	-11.6957
▁Hill	-11.6959
▁managed	-11.6961
▁loudly	-11.6962
ban	-11.6971
▁manager	-11.6982
top	-11.6985
lokaDAtu	-11.6991
▁killer	-11.6992
▁kAy	-11.6996
uk	-11.6999
▁stuBn	-11.7003
adwa	-11.7004
majjan	-11.7005
ude	-11.7005
▁dishes	-11.7005
vasuDA	-11.7006
▁wagon	-11.7007
tim	-11.7007
cal	-11.7009
was	-11.7009
rAjanya	-11.7009
▁Barate	-11.7028
gro	-11.7028
▁energy	-11.703
30	-11.7036
▁cell	-11.7037
▁fashion	-11.7038
viparyaya	-11.7039
putrI	-11.7041
janapada	-11.7047
madana	-11.7049
▁hunt	-11.705
▁honest	-11.7051
maGavan	-11.7054
pratiprasTAtf	-11.7054
▁material	-11.7054
▁bAl	-11.7056
unk	-11.7061
▁Sw	-11.7061
round	-11.7064
▁leading	-11.7066
tfpti	-11.7066
▁forgive	-11.7067
▁harat	-11.7075
▁anti	-11.7078
▁thick	-11.708
▁Royal	-11.708
▁jyoti	-11.7082
▁hell	-11.7084
▁pipe	-11.7085
▁mah	-11.7086
▁add	-11.7086
suparRa	-11.7101
▁heads	-11.7109
tries	-11.7109
▁remained	-11.711
▁holds	-11.7112
▁SI	-11.7115
▁novel	-11.7115
▁akfRut	-11.7118
▁jay	-11.7119
▁continues	-11.7129
dAsa	-11.7132
▁direction	-11.7136
▁pARi	-11.7137
▁code	-11.7138
rajanI	-11.7138
▁cor	-11.7143
▁vfRat	-11.7143
▁boots	-11.7147
▁50	-11.7147
pAta	-11.715
▁newspaper	-11.7154
ich	-11.7154
▁stomach	-11.7154
▁owner	-11.7154
▁measure	-11.7156
svayamBu	-11.7159
varAha	-11.716
▁Martin	-11.716
stone	-11.7165
▁fur	-11.7166
ewati	-11.7172
patAkA	-11.7173
▁Earl	-11.7175
yayAti	-11.7176
hiNgu	-11.7178
▁Something	-11.7179
▁prepared	-11.7181
▁cancer	-11.7186
bilva	-11.7187
▁Lee	-11.7188
▁pitched	-11.7193
▁Far	-11.7195
dAsI	-11.7197
▁Bye	-11.7197
vakzas	-11.7198
▁According	-11.7204
SfRot	-11.7209
long	-11.7211
▁dEty	-11.7212
▁noticed	-11.7213
gATA	-11.7213
▁dvAr	-11.7219
▁Never	-11.722
▁mention	-11.7226
rohiRI	-11.7229
meKalA	-11.7229
▁opening	-11.7233
▁Keep	-11.7237
sses	-11.7237
ciY	-11.7249
tApa	-11.725
kUwa	-11.725
▁val	-11.7254
▁birth	-11.7254
▁rAg	-11.7254
▁contract	-11.7254
▁shore	-11.7254
▁Japanese	-11.7254
▁slide	-11.7255
▁rAtri	-11.7259
tridaSa	-11.726
yeta	-11.7264
▁Nor	-11.7264
vihAra	-11.7265
▁helping	-11.7267
sel	-11.7267
▁jIvit	-11.7267
▁remind	-11.7271
▁Everything	-11.7279
▁yacCant	-11.728
▁jig	-11.728
▁attempt	-11.728
▁Ver	-11.7281
▁Sy	-11.7282
carita	-11.7282
AramBa	-11.7285
fer	-11.7285
ush	-11.7288
▁carefully	-11.7289
ston	-11.7294
▁stream	-11.7295
▁BuNkt	-11.7295
▁BUm	-11.7296
▁section	-11.7302
▁Gerald	-11.7305
▁ourselves	-11.7305
▁2008	-11.7305
▁vfSyat	-11.7306
▁2005	-11.7307
tAyAm	-11.7311
taru	-11.7315
jvala	-11.7318
▁pour	-11.7319
▁fork	-11.7323
▁sAma	-11.7331
kaMsa	-11.7338
▁elephants	-11.7339
ken	-11.7339
kAca	-11.7339
ome	-11.7343
▁hanging	-11.7344
▁crash	-11.7349
▁Africa	-11.7351
▁2009	-11.7356
▁purple	-11.7356
▁style	-11.7357
muktA	-11.7359
▁Work	-11.7362
▁vizR	-11.7363
▁Fran	-11.7365
▁viS	-11.7367
▁hop	-11.7372
lf	-11.7373
rac	-11.7377
yadu	-11.7377
granTa	-11.738
▁2007	-11.7383
▁Ex	-11.7383
bble	-11.7383
▁rakt	-11.7383
▁blame	-11.7386
▁Sara	-11.7387
this	-11.7388
▁nest	-11.7388
▁hom	-11.7392
▁weak	-11.7405
▁vftt	-11.7407
deveSa	-11.741
▁edge	-11.741
gfDra	-11.7411
parigraha	-11.7411
▁pi	-11.7421
11	-11.7425
▁file	-11.7426
▁salt	-11.7426
Danvantari	-11.7429
mfda	-11.743
▁Chinese	-11.7432
▁College	-11.7432
▁influence	-11.7432
▁opportunity	-11.7432
▁mass	-11.7432
mud	-11.7435
Ahvaya	-11.7436
▁vasyat	-11.7436
cker	-11.7438
▁Apayat	-11.7443
▁merry	-11.7443
spect	-11.7447
50	-11.7448
▁BImasen	-11.7449
▁sAr	-11.7451
zyanti	-11.7452
▁baDn	-11.7453
phone	-11.7454
▁Williams	-11.7456
▁downstairs	-11.7458
▁response	-11.7458
▁Mhm	-11.7458
▁interview	-11.7458
▁pillow	-11.7458
▁raj	-11.7459
mudrA	-11.746
▁suvarR	-11.7464
acyuta	-11.7465
DErya	-11.7481
▁netr	-11.7481
▁somethin	-11.7483
pper	-11.7484
guhA	-11.7486
▁Srozyat	-11.7486
▁painting	-11.7493
▁complete	-11.75
▁Brown	-11.75
▁vyAGr	-11.7502
vaSA	-11.7508
▁silent	-11.751
▁Mildred	-11.751
▁aSn	-11.751
▁Out	-11.7512
▁Jake	-11.7514
▁SO	-11.7515
▁samay	-11.7515
▁dAh	-11.752
▁(;	-11.7522
year	-11.7525
▁vindet	-11.7531
▁tar	-11.7533
amAvAsyA	-11.7535
▁Philip	-11.7536
▁2004	-11.7536
▁shake	-11.7542
▁patient	-11.7546
▁ret	-11.7547
▁artist	-11.7552
▁formed	-11.7552
▁pig	-11.7556
maNgala	-11.7558
sadana	-11.7559
lalAwa	-11.756
▁Congress	-11.7561
▁Britain	-11.7562
▁Still	-11.7562
▁40	-11.7562
▁Other	-11.7563
sADaka	-11.7567
cin	-11.7567
viGna	-11.7567
til	-11.7568
▁avet	-11.7569
▁vasayat	-11.7572
▁mail	-11.7572
▁Ber	-11.7573
▁Brad	-11.7577
▁greater	-11.758
▁helmet	-11.7587
▁medicine	-11.7587
▁mriyat	-11.7588
▁brush	-11.7588
▁exist	-11.7593
▁Mer	-11.7593
▁pUzat	-11.7595
▁smiled	-11.7598
gged	-11.7606
▁pack	-11.7609
This	-11.761
rian	-11.761
uh	-11.7611
▁campaign	-11.7614
yamunA	-11.7617
▁mentioned	-11.762
▁soldier	-11.7623
dAru	-11.7624
▁plums	-11.7628
▁Ed	-11.7634
pr	-11.7634
▁2006	-11.764
cetanA	-11.7644
maDusUdana	-11.7644
dIkza	-11.7647
▁Hold	-11.7652
▁growing	-11.7655
guda	-11.7663
▁plant	-11.7663
AScarya	-11.7664
cezwA	-11.7666
▁memory	-11.7666
▁THIS	-11.7666
▁nArad	-11.7667
laya	-11.7668
▁willing	-11.767
▁nation	-11.7673
ali	-11.7673
▁steps	-11.7675
oke	-11.7677
gon	-11.7686
▁comfort	-11.7692
▁kzipat	-11.7692
▁dying	-11.7692
▁Bal	-11.7699
▁harz	-11.7701
▁protest	-11.7703
▁pickle	-11.7709
vAlin	-11.771
▁saYjYA	-11.7711
viz	-11.7713
▁normal	-11.7715
▁occasion	-11.7717
▁modern	-11.7719
18	-11.7719
iv	-11.772
SAriputra	-11.7724
sahadeva	-11.7725
dar	-11.7725
nia	-11.7727
▁rings	-11.7732
aNgada	-11.7735
▁tire	-11.7738
gotra	-11.7742
sUtaputra	-11.7743
Come	-11.7743
▁ocean	-11.7745
▁Prime	-11.7745
▁Western	-11.7745
▁text	-11.7745
▁manTizyat	-11.7745
cer	-11.7753
▁tries	-11.7755
▁consider	-11.7758
preta	-11.7761
▁abrUsaya	-11.7763
▁pure	-11.7766
▁carriage	-11.7772
drAkzA	-11.7772
▁prevent	-11.7772
▁motor	-11.7773
▁karaR	-11.778
nne	-11.7782
▁gAt	-11.7784
head	-11.7791
BAgaDeya	-11.7797
vAlukA	-11.7798
▁Netherlands	-11.7798
▁Sometimes	-11.7798
▁heat	-11.78
▁fallen	-11.7802
kOravya	-11.7804
17	-11.781
pos	-11.7811
▁finding	-11.7815
▁weight	-11.7821
saMtApa	-11.7825
▁knowledge	-11.7825
▁nervous	-11.7825
tArA	-11.7827
SAq	-11.7827
▁MY	-11.7828
▁officers	-11.7828
▁seconds	-11.7829
▁nail	-11.783
▁upset	-11.7833
meha	-11.7834
▁carrying	-11.7838
▁AhAr	-11.784
harti	-11.7844
abda	-11.7844
▁tama	-11.7844
cut	-11.7849
mfttikA	-11.7852
▁Scrooge	-11.7852
▁sausage	-11.7852
▁actress	-11.7852
▁Nice	-11.7853
ekAnta	-11.7861
▁knee	-11.7863
▁washer	-11.7875
udyAna	-11.7877
▁wheels	-11.7878
▁WHAT	-11.7879
ealand	-11.7885
sampuwa	-11.7885
▁Ge	-11.7886
aMhas	-11.7886
kUpa	-11.7887
▁events	-11.7893
▁wings	-11.7893
▁Va	-11.7896
gt	-11.7897
▁vasati	-11.7898
▁smaller	-11.7901
BI	-11.7904
▁Agnes	-11.7905
hor	-11.7905
▁Mummy	-11.7906
▁dahat	-11.7906
▁golden	-11.7907
▁2003	-11.7908
▁tells	-11.7911
▁Au	-11.7911
nyAsa	-11.7914
cial	-11.792
▁lights	-11.7925
▁sides	-11.7927
udaDi	-11.7928
kzata	-11.7928
aMsa	-11.7931
▁Association	-11.7932
▁District	-11.7932
▁Empire	-11.7932
▁Ireland	-11.7932
tApya	-11.7933
jawA	-11.7934
▁pile	-11.7935
▁settled	-11.7936
DaraRI	-11.7938
agastya	-11.7941
▁climb	-11.7941
▁vidyet	-11.7942
ngle	-11.7945
▁boss	-11.7946
▁Call	-11.7949
nIla	-11.7951
▁AcAry	-11.7956
▁mokz	-11.7957
▁drav	-11.7959
▁Bindat	-11.7959
▁blind	-11.7959
▁uhoh	-11.796
▁Becky	-11.7961
▁snap	-11.7961
▁owned	-11.7962
▁samBav	-11.7962
▁kapAl	-11.7962
▁Sea	-11.7964
there	-11.7969
upasTa	-11.7969
kAvya	-11.7969
BaNga	-11.797
Ma	-11.7972
▁youth	-11.7975
▁fan	-11.7977
fRa	-11.7977
tantu	-11.7978
Sulba	-11.7983
▁pound	-11.7983
▁Cos	-11.7985
▁orders	-11.7985
citra	-11.7986
saMgraha	-11.7986
▁percent	-11.7986
▁remain	-11.7987
svasf	-11.7987
▁matches	-11.7988
sOmitri	-11.7988
▁plans	-11.7988
▁Austrian	-11.7989
SAK	-11.799
avayava	-11.8003
▁mostly	-11.8003
SIta	-11.8004
▁banDayat	-11.801
▁Yu	-11.8013
▁ghost	-11.8014
medinI	-11.8014
▁1990	-11.8014
▁daMhat	-11.8014
▁Wow	-11.8016
▁cet	-11.8017
▁tie	-11.8017
sumati	-11.8018
▁rip	-11.8019
Ahnot	-11.8019
▁concerned	-11.802
▁pu	-11.802
right	-11.8023
prAyaScitta	-11.8033
▁anil	-11.8035
Soza	-11.8035
▁dIdAMset	-11.8036
musala	-11.8041
▁sin	-11.8041
▁Canadian	-11.8041
▁babies	-11.8041
▁excellent	-11.8041
▁religion	-11.8041
▁Apnot	-11.8041
▁Sizy	-11.8042
▁Fine	-11.8045
mitrAvaruRa	-11.8046
BaradvAja	-11.8047
pOtra	-11.8047
BAjana	-11.8047
▁Van	-11.8048
havirDAna	-11.8049
manaHSilA	-11.8049
vistAra	-11.8052
juhU	-11.8056
kh	-11.8065
▁firm	-11.8065
part	-11.8066
▁champion	-11.8068
▁Mississippi	-11.8068
▁source	-11.8068
▁vaskat	-11.8068
▁2017)	-11.8078
ify	-11.808
nis	-11.8086
▁receive	-11.8089
▁forever	-11.8092
▁easier	-11.8096
▁location	-11.8096
▁Happy	-11.8096
▁retired	-11.8097
rajata	-11.8097
takra	-11.8097
rAj	-11.8101
MAL	-11.8104
BAvanA	-11.8105
▁sum	-11.8107
▁sisters	-11.8108
▁gacCet	-11.8109
Sruta	-11.8111
▁gal	-11.8113
▁barn	-11.8115
dvipa	-11.8116
lava	-11.8117
▁bAh	-11.8117
vinta	-11.8119
▁pAS	-11.812
▁Marie	-11.8122
nAsikA	-11.8123
▁SuDyat	-11.8123
vikfti	-11.8124
▁pArSv	-11.8124
▁bedroom	-11.8125
caryA	-11.8127
▁Adaya	-11.8128
▁2000	-11.8131
▁vAsayat	-11.8132
druti	-11.8134
▁nap	-11.8136
▁Ram	-11.814
▁vahni	-11.8141
▁dreams	-11.8142
▁changes	-11.8144
▁Home	-11.8146
Dvani	-11.8147
▁jIvat	-11.8147
▁rules	-11.8148
▁hung	-11.8149
▁Donald	-11.8151
pipAsA	-11.8151
▁operation	-11.8151
▁Daniel	-11.8152
sitA	-11.8154
▁waited	-11.8155
5.	-11.8158
SAli	-11.8159
▁oranges	-11.8164
ruc	-11.8165
ency	-11.8166
▁app	-11.8171
▁goodness	-11.8172
Cada	-11.8174
▁useta	-11.8178
▁rAGav	-11.8178
▁Satru	-11.8179
▁WAS	-11.8179
▁appear	-11.8186
▁flag	-11.8186
nAgara	-11.8187
▁frogs	-11.8191
La	-11.8193
▁dish	-11.8199
▁release	-11.82
▁rocks	-11.8202
▁Kar	-11.8204
very	-11.8205
▁safety	-11.8207
▁lift	-11.8212
upacAra	-11.8213
parjanya	-11.8216
mes	-11.8217
gomaya	-11.8217
▁rAvaR	-11.8218
▁Camp	-11.8221
▁powerful	-11.8226
▁papers	-11.8228
▁dose	-11.8229
▁Ran	-11.823
▁traffic	-11.8234
▁established	-11.8234
▁watermelon	-11.8234
▁burst	-11.8234
umble	-11.8235
▁Latin	-11.8235
▁wa	-11.824
▁fond	-11.824
ino	-11.8241
▁vAy	-11.8244
arcana	-11.8245
▁aBAv	-11.8247
▁op	-11.8248
▁ezyat	-11.8252
▁DI	-11.8252
ulkA	-11.8253
▁sw	-11.8254
▁Buj	-11.8255
▁kop	-11.8258
▁worst	-11.8262
▁Bob	-11.8262
▁bunch	-11.8262
▁Air	-11.8268
▁grAm	-11.8268
tape	-11.827
aBizeka	-11.8271
▁Tra	-11.8279
▁moves	-11.8281
▁teams	-11.8285
▁upAy	-11.8286
▁mirror	-11.829
▁Career	-11.829
pAtaka	-11.829
▁grahaR	-11.8291
▁vAsudev	-11.8292
kaSyapa	-11.8296
divAkara	-11.8298
▁feels	-11.8299
niyoga	-11.8302
gfj	-11.8302
▁figures	-11.8302
hAra	-11.8302
ov	-11.8303
ikzu	-11.8303
▁Et	-11.8304
▁Cint	-11.8306
▁vedayet	-11.8307
▁nuts	-11.831
▁Ch	-11.831
town	-11.831
▁concern	-11.8311
▁windows	-11.8312
▁chase	-11.8312
yard	-11.8312
ON	-11.8314
▁DanaYjay	-11.8318
▁Mexico	-11.8318
▁Missouri	-11.8318
▁evil	-11.8318
▁Polly	-11.832
elle	-11.8323
ero	-11.833
maDuka	-11.833
▁victim	-11.8333
reKA	-11.8337
eg	-11.8338
ddle	-11.8338
▁akurv	-11.8344
▁shoulder	-11.8345
▁conference	-11.8346
▁individual	-11.8346
▁lollipop	-11.8346
▁forgotten	-11.8346
veza	-11.8347
just	-11.8348
rated	-11.8357
▁AkAr	-11.8358
▁Second	-11.836
▁signed	-11.8362
▁deck	-11.8362
▁plants	-11.8364
izing	-11.8365
draviRa	-11.8366
ula	-11.8367
place	-11.8369
prAtaHsavana	-11.837
▁nimitt	-11.8371
▁honour	-11.8374
▁smarizyat	-11.8374
▁copy	-11.8377
▁repeated	-11.8379
▁totally	-11.8379
▁log	-11.8382
vAraRa	-11.8386
ib	-11.8392
▁tapas	-11.8395
MS	-11.8397
▁Ty	-11.8401
▁vftyat	-11.8402
▁mix	-11.8403
▁wished	-11.8404
rin	-11.8405
▁vikram	-11.8407
press	-11.8407
utter	-11.8409
▁Fo	-11.841
▁pUrat	-11.8412
▁belong	-11.8415
▁knowing	-11.8416
▁media	-11.8416
▁pears	-11.8424
▁younger	-11.8425
▁Bag	-11.8426
▁Cooper	-11.8431
▁tax	-11.8439
▁walls	-11.8445
▁punIt	-11.8445
▁anne	-11.8448
▁saYjay	-11.8459
▁Service	-11.8459
▁society	-11.8459
▁manage	-11.8459
▁ideas	-11.8459
▁clouds	-11.8465
cAra	-11.8467
paRqita	-11.8467
▁manasi	-11.847
▁BRO	-11.8474
durga	-11.8474
▁waste	-11.8481
▁uses	-11.8482
ike	-11.8482
▁census	-11.8487
▁complain	-11.8487
▁Alexander	-11.8487
iff	-11.8488
Amalaka	-11.8489
berg	-11.8489
▁goodbye	-11.849
▁2001	-11.849
▁aware	-11.8491
▁highest	-11.8492
▁snAn	-11.8492
tum	-11.8493
▁tAmr	-11.85
▁Men	-11.8501
▁namas	-11.8501
▁client	-11.8516
▁league	-11.8516
▁available	-11.8516
▁Secretary	-11.8516
Mhat	-11.8516
▁DftarAzwr	-11.8516
▁medical	-11.8517
▁hema	-11.8519
▁active	-11.852
Ceda	-11.8524
upayAma	-11.8524
▁para	-11.8529
Nge	-11.8537
Atreya	-11.8539
▁keeps	-11.8539
▁kAs	-11.8541
Brama	-11.8543
▁Province	-11.8544
vent	-11.8549
▁Put	-11.855
daMzwra	-11.8553
prAsAda	-11.8555
taRqula	-11.8556
vacA	-11.8557
ambA	-11.8561
bAD	-11.8562
ians	-11.8564
▁rAzwr	-11.8566
tanc	-11.8572
sAkzin	-11.8573
saMdeha	-11.8573
▁religious	-11.8573
▁avoid	-11.8573
▁salad	-11.8573
aBimanyu	-11.8573
▁rice	-11.8575
▁theory	-11.8587
▁twin	-11.859
▁Bojan	-11.859
▁FC	-11.8592
grad	-11.8593
▁jIv	-11.86
▁tale	-11.86
▁Government	-11.8602
▁fifth	-11.8602
▁province	-11.8602
▁heaven	-11.8602
table	-11.8604
Adara	-11.8605
▁ftu	-11.8606
▁lakzmaR	-11.8608
pfTivIpati	-11.8609
▁viDAn	-11.8611
▁wore	-11.8612
▁wondering	-11.8617
▁arhat	-11.8618
7.	-11.8618
del	-11.8619
▁degree	-11.862
moves	-11.8621
art	-11.8624
▁destroy	-11.8625
paTyA	-11.8625
▁Brazil	-11.863
▁treasure	-11.8631
▁silly	-11.8631
▁central	-11.8631
▁Boston	-11.8631
▁alarm	-11.8632
SmaSAna	-11.8633
▁svar	-11.8636
duH	-11.8636
jambIra	-11.8638
▁exc	-11.864
kozWa	-11.8642
▁pUlat	-11.8645
saKya	-11.8654
▁Isn	-11.8654
▁ordered	-11.8657
▁aw	-11.8658
▁cruel	-11.8659
▁teddy	-11.866
▁nagar	-11.8661
▁aunt	-11.8663
▁svaBAv	-11.8663
▁kinds	-11.8666
ahorAtra	-11.8667
ched	-11.8674
▁forces	-11.8675
▁bringing	-11.8676
▁vadan	-11.8678
▁condition	-11.8678
velA	-11.8684
▁fer	-11.8685
▁Actually	-11.8689
▁policy	-11.8689
▁scratch	-11.8689
}	-11.8691
▁Super	-11.8692
▁ob	-11.8694
THE	-11.8694
▁sAgar	-11.8695
bila	-11.8699
with	-11.87
▁spare	-11.8703
▁cookie	-11.8708
▁dig	-11.8711
dO	-11.8713
prayojana	-11.8715
nirfti	-11.8716
mardana	-11.8716
vyAna	-11.8717
▁legal	-11.8718
▁rode	-11.8718
▁Governor	-11.8718
▁native	-11.8719
▁presents	-11.8722
tAlaka	-11.8729
▁Pat	-11.8731
vani	-11.8733
▁reported	-11.8734
umb	-11.8734
▁dam	-11.8735
▁Its	-11.8738
plIhan	-11.8747
▁desert	-11.8748
▁hanizyat	-11.8748
IL	-11.8749
▁developed	-11.875
▁port	-11.8755
kfzi	-11.8759
zwa	-11.8765
▁saNG	-11.8765
▁vaMS	-11.8765
▁needta	-11.877
▁kick	-11.8771
vApa	-11.8773
▁keS	-11.8774
priya	-11.8776
▁Chan	-11.8777
▁Scott	-11.8777
▁comfortable	-11.8777
▁glasses	-11.8777
▁feelings	-11.8779
▁grandfather	-11.8783
▁Dis	-11.8783
▁somewhat	-11.8783
hrada	-11.8784
EL	-11.8785
vamana	-11.8787
▁bone	-11.8789
Kalva	-11.8791
▁pfR	-11.8792
▁tip	-11.8796
▁Israel	-11.8797
▁Austria	-11.8803
▁successful	-11.8804
▁Democratic	-11.8806
▁everywhere	-11.8807
*	-11.8808
▁Johnson	-11.8809
▁patnI	-11.881
duHSAsana	-11.8813
▁Has	-11.8814
niveSana	-11.8816
bal	-11.8817
Palguna	-11.8819
Druva	-11.8821
12	-11.8822
▁forced	-11.8829
▁separate	-11.8829
nish	-11.883
▁Ju	-11.8831
▁streets	-11.8833
▁families	-11.8836
OL	-11.8836
▁fool	-11.8836
▁image	-11.8836
viSvakarman	-11.8836
▁narrow	-11.8836
▁weekend	-11.8836
▁sail	-11.8837
▁nArAyaR	-11.8838
ole	-11.8841
oh	-11.8842
▁Six	-11.8842
▁cups	-11.8843
▁DAtu	-11.8845
cks	-11.8848
▁cases	-11.8864
▁Muslim	-11.8865
▁horsie	-11.8865
▁magazine	-11.8865
▁Although	-11.8865
vyaTA	-11.8865
▁kaTA	-11.8871
▁vraR	-11.8871
UNC	-11.8874
▁Port	-11.8875
▁tApayat	-11.8875
win	-11.8881
paRa	-11.8881
haraRa	-11.8882
▁sarp	-11.8885
cel	-11.8886
▁chest	-11.8886
tuza	-11.8889
▁Make	-11.889
▁amazing	-11.8895
▁bunny	-11.8895
▁loose	-11.8895
▁awake	-11.8896
▁cities	-11.8896
pradeSa	-11.8902
cept	-11.8905
mel	-11.8905
svaDarma	-11.8908
rg	-11.8908
antu	-11.8909
▁recording	-11.8911
they	-11.8913
praTa	-11.8914
nasya	-11.8922
▁companies	-11.8925
▁peanut	-11.8925
▁fortune	-11.8925
places	-11.8925
antAm	-11.8928
nn	-11.8928
thing	-11.8931
▁talks	-11.8931
▁Cho	-11.8932
nandin	-11.8932
anDaka	-11.8933
oli	-11.8934
▁CO	-11.8943
gre	-11.8946
▁aj	-11.8949
Balla	-11.895
▁Suk	-11.8953
savyasAcin	-11.8954
▁scarcely	-11.8955
▁reign	-11.8955
▁Auntie	-11.8955
aught	-11.8955
▁pressure	-11.8956
▁pUryat	-11.8956
▁Gro	-11.8959
▁becoming	-11.896
▁pages	-11.896
DAv	-11.8966
▁Jan	-11.8967
shire	-11.8968
▁Fu	-11.897
▁eh	-11.8976
marIci	-11.8984
▁activist	-11.8984
▁foreign	-11.8984
jvAlA	-11.8984
ANT	-11.8985
pol	-11.8985
▁Pr	-11.8986
▁vESy	-11.8986
kAnana	-11.8987
▁prize	-11.8991
virAwa	-11.8993
vfkodara	-11.8994
prasTa	-11.8995
samBAra	-11.8995
▁included	-11.8995
vidyADara	-11.8995
▁ahizyat	-11.8998
▁wo	-11.9
mahiza	-11.9002
▁bang	-11.9007
▁hug	-11.9009
▁pARqu	-11.9013
▁staying	-11.9013
▁taTAgat	-11.9014
saMGAta	-11.9014
▁minister	-11.9015
▁potatoes	-11.9015
▁Laura	-11.9015
worth	-11.9018
▁failed	-11.902
Go	-11.9021
▁hearing	-11.9023
▁schools	-11.9023
▁flow	-11.9028
▁remembered	-11.9029
bil	-11.903
▁Best	-11.9031
▁serving	-11.9031
SAna	-11.9037
14	-11.9039
sings	-11.904
▁samA	-11.9041
▁Anand	-11.9042
pratipad	-11.9045
▁credit	-11.9045
▁governor	-11.9045
▁Angeles	-11.9045
▁planning	-11.9045
lock	-11.9047
mAdrI	-11.9049
▁rap	-11.9052
vawa	-11.9054
▁programme	-11.9057
▁Dvaj	-11.9058
▁AN	-11.906
▁wi	-11.906
▁dAnt	-11.9061
▁guns	-11.9061
▁pAk	-11.9068
▁create	-11.9069
▁vidyant	-11.9075
▁Charlie	-11.9075
▁vindant	-11.9075
▁Another	-11.9076
▁DAt	-11.9077
▁Susan	-11.9077
rahas	-11.9077
gAnDArI	-11.908
▁ST	-11.908
▁ships	-11.9086
ajA	-11.9088
hft	-11.9089
▁claim	-11.909
▁stom	-11.9095
ajina	-11.9096
Co	-11.9097
▁realize	-11.91
▁sItA	-11.9101
▁matsy	-11.9101
▁api	-11.9101
▁Margaret	-11.9105
▁professor	-11.9105
▁tournament	-11.9105
▁salami	-11.9105
read	-11.9114
▁comb	-11.9118
Cause	-11.9119
▁rush	-11.9123
Danvan	-11.9134
▁gain	-11.9134
▁faces	-11.9135
vAhinI	-11.9135
mila	-11.9135
▁giraffe	-11.9136
▁brUsayet	-11.9136
▁Blue	-11.9136
▁Merle	-11.9136
▁bra	-11.9138
▁trans	-11.9139
▁Char	-11.9141
-19	-11.9141
▁tapyat	-11.9143
enas	-11.9146
1/	-11.9151
▁states	-11.9151
▁holes	-11.9156
clears	-11.9156
▁senA	-11.9157
▁services	-11.9158
ssed	-11.9158
▁piRq	-11.9158
hn	-11.9161
▁vijYAn	-11.9165
arGya	-11.9165
▁favor	-11.9166
▁ancient	-11.9166
▁settlement	-11.9168
▁production	-11.9168
uttara	-11.9168
▁gadA	-11.917
▁Sh	-11.9171
viBIzaRa	-11.9175
pAzARa	-11.9175
▁marty	-11.9175
prARAyAma	-11.9176
SarAva	-11.9177
sArTavAha	-11.9177
vyavahAra	-11.9178
tiTi	-11.9178
▁mahAdev	-11.9181
nimba	-11.9182
▁gop	-11.9183
sch	-11.919
▁map	-11.9191
▁kzAr	-11.9196
▁Central	-11.9197
▁cupcake	-11.9197
▁royal	-11.9197
▁Tre	-11.9197
▁target	-11.9198
▁pUjayat	-11.9198
▁apartment	-11.92
▁Sil	-11.92
Mother	-11.9201
▁enter	-11.9201
▁Darat	-11.9204
▁dAr	-11.9206
aruci	-11.9209
▁Bon	-11.921
▁issue	-11.9213
ological	-11.9214
war	-11.9218
bon	-11.9218
▁courage	-11.9227
▁grahIzya	-11.9227
▁grandmother	-11.9228
▁vane	-11.9228
▁prakfti	-11.9229
▁pavat	-11.9229
▁loves	-11.9229
▁AEW	-11.9229
▁expression	-11.923
stuti	-11.9231
Good	-11.9234
▁riding	-11.9237
▁pfTivy	-11.9237
grahaRI	-11.924
▁voices	-11.9246
▁steal	-11.9251
▁keSav	-11.9258
▁saNKy	-11.9258
▁Next	-11.9258
▁km	-11.926
▁lake	-11.926
stanya	-11.9262
fall	-11.9262
rADeya	-11.9266
praSna	-11.9267
▁bid	-11.9268
praRava	-11.9269
▁vfRIt	-11.9273
▁prisoners	-11.9275
sava	-11.9276
janaka	-11.9281
BAja	-11.9281
▁Sakn	-11.9282
▁perform	-11.9283
▁suspect	-11.9283
▁oja	-11.9284
▁appreciate	-11.9289
▁advice	-11.9289
▁performance	-11.9289
▁pUrvayat	-11.929
▁sex	-11.9292
▁throughout	-11.9293
▁mid	-11.9296
▁kalA	-11.9298
▁faster	-11.93
▁Bint	-11.9301
▁shooting	-11.9301
ayoDyA	-11.932
▁fourteen	-11.932
▁habit	-11.932
▁Gre	-11.932
▁Harry	-11.9321
ndi	-11.9321
▁GO	-11.9324
ller	-11.9327
reRu	-11.9329
▁SilA	-11.933
▁civil	-11.9345
▁raise	-11.9345
▁climate	-11.9351
▁dIdAMsant	-11.9351
▁championship	-11.9351
▁Mavis	-11.9351
sukfta	-11.9353
dyUta	-11.9354
itihAsa	-11.936
▁suggest	-11.9362
oid	-11.9363
Sarah	-11.9368
▁range	-11.9368
▁defend	-11.9373
▁vedayant	-11.9377
▁Fred	-11.9379
dal	-11.938
lAkzA	-11.9382
▁Academy	-11.9382
▁preschool	-11.9382
referent	-11.9391
▁dreadful	-11.9392
▁Ci	-11.9393
jananI	-11.9398
ington	-11.9399
▁Bill	-11.94
▁surely	-11.9406
▁creature	-11.9407
▁haste	-11.9411
▁bicycle	-11.9413
▁BrAtA	-11.9414
▁SaNkar	-11.9414
▁Hy	-11.9415
▁Wo	-11.9416
▁SHE	-11.9417
ani	-11.9418
pan	-11.9419
▁Australian	-11.9419
book	-11.9422
Not	-11.9423
▁generally	-11.9425
▁Gold	-11.9427
liKa	-11.9427
▁quit	-11.9427
▁gay	-11.9428
SaNkA	-11.9428
▁vaste	-11.9437
▁Art	-11.9439
▁cloud	-11.9439
▁Wh	-11.9445
▁Alright	-11.9445
ukTya	-11.9445
▁mountains	-11.9446
▁Johnny	-11.9446
▁pUlayat	-11.9447
BikzA	-11.9452
sarzapa	-11.9455
SrAvaka	-11.9456
vfttAnta	-11.9456
sTala	-11.9458
jajan	-11.9458
▁cloth	-11.946
naga	-11.9462
▁Long	-11.9468
hr	-11.9468
▁RE	-11.9469
akam	-11.9469
gin	-11.9469
▁Tru	-11.9469
maTe	-11.9471
hood	-11.9474
saMnipAta	-11.9476
▁Think	-11.9476
▁Group	-11.9476
▁kidding	-11.9477
II	-11.9478
▁Rock	-11.948
▁tough	-11.948
▁drawn	-11.9483
▁SfNg	-11.9488
Avantya	-11.9489
▁seal	-11.9489
anvaya	-11.949
▁Kid	-11.9495
Apti	-11.9497
▁Bur	-11.9501
BaginI	-11.9508
▁1980	-11.9508
▁winning	-11.9508
hima	-11.9512
▁Saram	-11.9517
▁Book	-11.9517
anuBAva	-11.9517
bert	-11.9518
cked	-11.9523
manuja	-11.9524
kzuB	-11.9532
vinaya	-11.9533
▁maheSvar	-11.9533
▁equal	-11.9536
▁conduct	-11.9538
▁Town	-11.954
▁matters	-11.9542
▁OzaD	-11.9543
▁drove	-11.9544
▁currently	-11.9545
ncu	-11.9545
ura	-11.9549
gfhasTa	-11.9551
Syena	-11.9551
EP	-11.9552
▁prIRIt	-11.9553
wer	-11.9555
▁mate	-11.9559
▁yantra	-11.9561
nAla	-11.9563
▁fail	-11.9571
▁trunk	-11.9571
▁BfSyat	-11.9573
▁carcizyat	-11.9577
AMsi	-11.9577
▁mission	-11.9582
▁Barzat	-11.9586
▁Play	-11.9595
▁university	-11.9603
▁Alex	-11.9603
▁grey	-11.9603
▁Bruce	-11.9604
▁disappeared	-11.9607
▁Cat	-11.9611
▁cards	-11.9617
hAni	-11.962
hava	-11.962
▁Win	-11.9621
▁pitte	-11.9622
dan	-11.9629
uKA	-11.9632
▁janma	-11.9634
▁challenge	-11.9635
maryAdA	-11.9635
▁psych	-11.9635
▁Labour	-11.9635
ification	-11.9635
uthwestern	-11.9635
▁unclear	-11.9636
viSudDi	-11.9637
▁Huh	-11.9637
▁faint	-11.9638
▁hiding	-11.964
nan	-11.9641
kunda	-11.9642
▁burn	-11.9644
mandira	-11.9644
kzura	-11.9645
▁abrU	-11.9645
▁taperecorder	-11.9646
marica	-11.9648
puruzottama	-11.9648
▁upside	-11.9652
▁vftti	-11.9657
veDa	-11.9657
▁gAtr	-11.9658
▁direct	-11.966
▁balloon	-11.9663
varzA	-11.9663
aryaman	-11.9665
pArvatI	-11.9667
palita	-11.9667
▁opposite	-11.9667
▁Mickey	-11.9667
▁1960	-11.9667
▁SfRvant	-11.9668
▁weapons	-11.9671
▁shame	-11.9671
umA	-11.9676
ense	-11.9679
▁Bakti	-11.9684
els	-11.9684
▁goal	-11.9688
▁touched	-11.9689
▁killing	-11.969
▁aid	-11.9694
tel	-11.9695
tern	-11.9697
▁industry	-11.9699
▁kingdom	-11.9699
▁1995	-11.9699
▁paSyet	-11.9699
scu	-11.9703
▁somehow	-11.9704
catuHzazwi	-11.9712
▁Del	-11.9716
rio	-11.9719
eat	-11.9723
Ikza	-11.9723
▁Ku	-11.9727
▁yard	-11.9728
atirAtra	-11.9728
▁mispronounced	-11.9731
▁package	-11.9732
▁planned	-11.9732
kilbiza	-11.9735
▁collection	-11.9735
▁mixed	-11.9739
nala	-11.9742
pallava	-11.9742
daSaraTa	-11.9743
pavamAna	-11.9744
upasad	-11.9745
▁Maine	-11.9751
▁increase	-11.9757
▁vikAr	-11.9761
▁friendly	-11.9762
▁favour	-11.9763
Uzman	-11.9764
saMtati	-11.9764
▁Arthur	-11.9764
▁access	-11.9764
kadala	-11.9765
▁Nobody	-11.9765
▁arrested	-11.9769
key	-11.977
▁rare	-11.977
▁med	-11.9779
▁photograph	-11.978
▁Urs	-11.978
▁Gers	-11.9786
▁lies	-11.9787
▁sparS	-11.9791
▁hum	-11.9793
▁vftr	-11.9795
apekzA	-11.9796
dic	-11.9796
▁Everyone	-11.9797
▁property	-11.9797
▁jacket	-11.9797
▁Lake	-11.98
▁hearts	-11.9801
▁slip	-11.9803
▁acarcat	-11.9803
▁karmA	-11.9806
los	-11.9811
▁regard	-11.9815
bury	-11.9815
▁cro	-11.9816
▁gad	-11.9818
▁sorts	-11.9825
tten	-11.9828
▁request	-11.9829
▁vindI	-11.9829
▁dadat	-11.9831
stic	-11.9832
kfzRAjina	-11.9833
sOBAgya	-11.9835
rth	-11.9837
▁besides	-11.984
skanda	-11.9848
▁Both	-11.9853
▁sigh	-11.9854
CT	-11.9855
▁pause	-11.9855
▁weapon	-11.9858
▁Asian	-11.9858
▁begins	-11.9859
nor	-11.986
▁delicious	-11.9861
▁presence	-11.9861
▁Tommy	-11.9862
▁varkat	-11.9862
ELL	-11.9863
▁wedding	-11.9869
▁boDat	-11.9872
▁dese	-11.9872
▁cookies	-11.9874
▁useful	-11.9875
▁salil	-11.9878
bye	-11.9881
jAyata	-11.9882
Avft	-11.9888
form	-11.989
▁focus	-11.989
din	-11.9891
▁prayatn	-11.9891
▁fr	-11.9892
▁Kent	-11.9893
▁smiling	-11.9894
▁vessel	-11.9894
▁biggest	-11.9894
▁transport	-11.9894
▁1998	-11.9894
▁pony	-11.9895
▁pacat	-11.9895
▁arhayat	-11.9897
▁servant	-11.9897
try	-11.9899
▁Republican	-11.9899
▁Tim	-11.9899
▁burning	-11.9901
▁Tar	-11.9903
dor	-11.9904
samA	-11.9906
▁producer	-11.9906
ahiMsA	-11.9906
▁vakzyant	-11.991
sru	-11.9911
Br	-11.9911
▁rank	-11.9912
▁Srotr	-11.9914
wun	-11.9914
nIti	-11.9915
▁ab	-11.9923
▁Egypt	-11.9924
▁Disney	-11.9927
▁clever	-11.9927
▁Ooh	-11.9928
▁definitely	-11.9928
▁Gan	-11.9929
▁handsome	-11.9929
▁2002	-11.993
▁sheep	-11.9932
nakta	-11.9933
come	-11.9933
▁rushed	-11.9934
aSIti	-11.9936
▁grade	-11.9939
tridoza	-11.994
▁vAj	-11.9941
▁SEl	-11.9941
prameha	-11.9941
▁Inter	-11.9944
ALL	-11.9945
▁Bell	-11.9953
TV	-11.9954
anuja	-11.9956
wing	-11.996
kiMnara	-11.996
▁exercise	-11.996
▁gADat	-11.996
▁Today	-11.9963
kfRvan	-11.9971
▁fairly	-11.9972
▁Kim	-11.9976
▁mum	-11.9978
▁score	-11.9987
lit	-11.9987
▁Champion	-11.9993
▁Scientists	-11.9993
▁excitement	-11.9993
▁hurried	-11.9993
▁independent	-11.9993
▁Whatever	-11.9999
▁mati	-12.0001
▁meG	-12.0001
turns	-12.0004
▁vfkzat	-12.0007
▁task	-12.0009
▁sink	-12.001
who	-12.0014
▁vidu	-12.0016
kAka	-12.0017
▁Sak	-12.0018
▁defeat	-12.002
▁locan	-12.0021
IyAt	-12.0021
tail	-12.0023
▁yatn	-12.0025
▁balance	-12.0027
Let	-12.003
stayat	-12.0032
viqaNga	-12.0033
▁destroyed	-12.0034
rUpya	-12.0038
kUrma	-12.0039
▁wine	-12.0042
BErava	-12.0043
ett	-12.0047
mark	-12.0048
ord	-12.0051
bel	-12.0059
▁library	-12.006
▁article	-12.006
▁northern	-12.006
▁1994	-12.006
▁Bavaria	-12.0061
▁Act	-12.0062
▁Later	-12.0063
▁sant	-12.0064
▁Bfqat	-12.0067
▁Show	-12.0068
▁den	-12.0069
Where	-12.007
▁nandan	-12.0073
▁Sl	-12.0079
13	-12.0081
▁buildings	-12.0083
▁spin	-12.0084
▁desk	-12.0085
bby	-12.0087
▁pArad	-12.0092
▁admit	-12.0093
▁Florida	-12.0093
▁1999	-12.0093
raNga	-12.0097
▁prajApat	-12.0099
Of	-12.0107
▁Anne	-12.011
▁scream	-12.0111
▁formula	-12.0112
▁karizy	-12.0116
box	-12.0117
▁svapn	-12.012
▁Sav	-12.0121
devayAnI	-12.0127
▁Emperor	-12.0127
yastayat	-12.0127
▁Four	-12.0128
▁darkness	-12.0129
▁shoulders	-12.0131
jaWara	-12.0133
Sarva	-12.0133
pAtAla	-12.0133
mAriza	-12.0139
kalaSa	-12.0139
uzwra	-12.0142
vyUha	-12.0142
▁whining	-12.0149
▁dolls	-12.0152
▁fund	-12.0152
lajjA	-12.016
▁Irish	-12.0161
▁1996	-12.0161
▁NOT	-12.0161
vIRA	-12.0161
▁penny	-12.0161
▁Cidrayat	-12.0163
▁aDyAy	-12.0165
▁invited	-12.0169
kirIwin	-12.0171
samfdDi	-12.0171
whining	-12.0171
gul	-12.0174
GE	-12.0176
▁notes	-12.0177
whispers	-12.0179
25	-12.0185
▁Mil	-12.0186
▁vyAs	-12.0187
▁remark	-12.0188
vol	-12.019
▁sang	-12.0191
▁poison	-12.0194
▁positive	-12.0194
▁structure	-12.0194
anaquh	-12.0194
▁rubber	-12.0194
▁odd	-12.0194
Sigru	-12.0195
▁signal	-12.0196
kze	-12.0197
aDizWAna	-12.0199
hrI	-12.0203
▁treated	-12.0204
Who	-12.0205
ggle	-12.0217
▁hadta	-12.0219
kfqan	-12.022
▁Ten	-12.022
pen	-12.0224
▁effort	-12.0227
Tilda	-12.0228
▁crayon	-12.0228
▁buried	-12.0228
vicAraRA	-12.0228
▁staff	-12.0228
▁kaRW	-12.0231
▁related	-12.0231
tulA	-12.0233
▁Bad	-12.0238
▁brahmA	-12.0238
▁cone	-12.0241
▁praBu	-12.0241
niroDa	-12.0242
▁bfhaspati	-12.0242
BO	-12.0243
▁rakzat	-12.0243
▁knocked	-12.0243
viroDa	-12.0246
▁statement	-12.0247
tAraka	-12.0249
▁dozen	-12.0249
rodas	-12.025
▁doors	-12.025
▁nare	-12.0256
▁print	-12.0258
vAha	-12.0258
▁Saly	-12.026
haridrA	-12.026
padAti	-12.026
▁tear	-12.0261
▁biBft	-12.0262
▁rescue	-12.0262
▁valley	-12.0263
▁losing	-12.0263
▁drunk	-12.0266
▁pUrRayat	-12.0268
Bakzya	-12.0269
upapatti	-12.0272
▁Woo	-12.0276
▁passing	-12.028
▁ante	-12.028
▁cats	-12.0285
ayana	-12.0286
oth	-12.0287
stan	-12.0292
▁boo	-12.0293
▁nadI	-12.0295
GaRwA	-12.0296
▁Records	-12.0296
▁volume	-12.0296
▁1970	-12.0296
▁Power	-12.0296
▁SaraR	-12.0297
▁Turn	-12.0297
▁standard	-12.0298
last	-12.03
▁Easter	-12.0302
aDyayana	-12.0304
nel	-12.0304
kAmyA	-12.0305
▁mainly	-12.0309
▁Gal	-12.031
▁gaNgA	-12.0316
▁AcAr	-12.0319
Suc	-12.032
▁viw	-12.0323
▁Vo	-12.0324
▁wound	-12.0324
Sri	-12.0326
▁jo	-12.0326
▁mAnav	-12.0333
▁drama	-12.0334
pOruza	-12.0334
▁height	-12.0334
whines	-12.0335
timira	-12.0336
devayajana	-12.0337
adButa	-12.0337
carAcara	-12.0338
DizRya	-12.0342
▁Buvan	-12.0343
▁Bor	-12.0344
▁fairy	-12.0344
▁svarR	-12.0344
grIzma	-12.0344
saMhAra	-12.0346
tApasa	-12.0347
mEtrAvaruRa	-12.0347
▁vfRut	-12.0347
Nina	-12.0349
maKa	-12.0351
▁fired	-12.0351
meter	-12.0352
▁karqizya	-12.0354
▁SvAs	-12.0356
▁chart	-12.0357
▁repeat	-12.0359
down	-12.0362
tting	-12.0364
alaMkAra	-12.0365
▁vehicle	-12.0365
▁victory	-12.0365
▁palace	-12.0365
▁cowboy	-12.0365
struc	-12.0366
▁sha	-12.0367
patti	-12.0368
▁Land	-12.0368
▁breaking	-12.0369
▁Try	-12.0371
▁Tor	-12.0376
▁dant	-12.0376
▁SryAm	-12.0377
▁del	-12.038
▁Sur	-12.0386
3/	-12.0391
▁delight	-12.0392
rah	-12.0394
▁saMyog	-12.0394
mudga	-12.0398
ically	-12.0398
▁Os	-12.0398
▁boats	-12.0399
▁Mad	-12.0399
▁cottage	-12.0399
▁dessert	-12.0399
divOkas	-12.0399
▁Help	-12.04
▁Brother	-12.04
▁setting	-12.0404
▁removed	-12.0405
▁tender	-12.0406
aBiDAna	-12.0407
sur	-12.0407
pawa	-12.0412
▁enjoyed	-12.0412
▁jAyet	-12.042
▁sports	-12.042
▁Ac	-12.0423
▁Ger	-12.0425
▁AhavanIy	-12.0427
▁plus	-12.0431
▁afford	-12.0434
▁Bartar	-12.0435
Avarta	-12.0445
▁colour	-12.0446
▁Five	-12.0448
saMsarga	-12.0448
▁Ball	-12.0451
ister	-12.0452
▁Dun	-12.0452
dantI	-12.0457
▁doze	-12.046
▁stock	-12.0462
▁crown	-12.0463
ola	-12.0465
▁alphabet	-12.0469
▁exciting	-12.0469
▁relative	-12.0469
▁1992	-12.0469
aBiDA	-12.0471
pAramitA	-12.0473
▁Billy	-12.0474
▁EX	-12.0489
▁acting	-12.0491
▁listened	-12.0498
▁Didn	-12.0498
▁chi	-12.05
▁proper	-12.0502
pIqA	-12.0503
▁truly	-12.0504
krIq	-12.0504
▁Barjat	-12.0505
▁picking	-12.051
azwaka	-12.0513
sADya	-12.0515
bin	-12.0515
GAta	-12.0519
▁presently	-12.0522
▁pratyay	-12.0523
▁uday	-12.0524
maTi	-12.0524
Po	-12.0527
nanda	-12.053
▁stan	-12.0531
▁bull	-12.0537
door	-12.0537
▁Ham	-12.0538
yadfcCA	-12.0538
snuhI	-12.0538
▁bubble	-12.0538
pftanA	-12.0539
▁Remember	-12.0539
svAgata	-12.0544
▁Club	-12.0546
kliS	-12.0549
▁gir	-12.0551
golaka	-12.0552
▁Tro	-12.0553
sakASa	-12.0555
▁Yet	-12.0556
▁paT	-12.0558
yugma	-12.056
▁sal	-12.0561
▁reasons	-12.0561
▁tfR	-12.0562
▁Bull	-12.0562
KE	-12.0562
▁learning	-12.0564
▁Force	-12.0566
▁gentle	-12.0572
▁SaNkat	-12.0573
▁Rodger	-12.0574
▁bodies	-12.0574
▁saNgrAm	-12.0574
▁buddy	-12.0574
▁varIzya	-12.0574
▁clown	-12.0574
▁split	-12.0574
▁flash	-12.0574
▁Last	-12.058
▁Ali	-12.0581
▁faith	-12.0582
ingly	-12.0583
▁pity	-12.0583
▁trace	-12.0588
▁recorded	-12.0591
▁5,	-12.0594
kftI	-12.0597
▁drug	-12.0598
SamI	-12.0602
nger	-12.0604
▁understood	-12.0609
▁Ramsey	-12.0609
▁vaMhat	-12.0609
▁witch	-12.0609
▁Someone	-12.061
▁horn	-12.061
▁Basma	-12.0611
▁prIyat	-12.0612
▁larger	-12.0612
▁directly	-12.0613
ikzvAku	-12.0613
▁Free	-12.0613
▁seriously	-12.0616
05	-12.062
▁lessons	-12.0629
goes	-12.0629
▁prIti	-12.063
▁pit	-12.0631
looks	-12.0634
▁collect	-12.0634
even	-12.0634
amarza	-12.0638
▁muhUrt	-12.0638
▁beer	-12.0639
▁DUm	-12.0639
▁previous	-12.064
▁nakzatr	-12.0642
▁thousands	-12.0644
▁BfMSat	-12.0644
▁HAVE	-12.0644
▁divorce	-12.0644
BAB	-12.0645
▁scrap	-12.0646
skAnda	-12.0654
virecana	-12.0658
Srotriya	-12.0658
aDikAra	-12.0659
dies	-12.066
vyAyAma	-12.0661
prahAra	-12.0662
stein	-12.0663
▁Nana	-12.0665
ced	-12.0667
Can	-12.067
▁Amy	-12.0671
tfca	-12.0675
▁amuYca	-12.068
▁piano	-12.068
▁shook	-12.068
▁maDy	-12.068
▁Castle	-12.0681
▁whoops	-12.0682
▁load	-12.0683
▁praBAv	-12.0684
▁/	-12.0689
▁hoping	-12.069
▁rav	-12.0692
▁Sit	-12.0695
▁beans	-12.0695
Un	-12.0709
▁gulm	-12.0715
▁Wentworth	-12.0715
▁benefit	-12.0715
▁splendid	-12.0715
▁brUsayant	-12.0717
▁sings	-12.0718
▁yAn	-12.0719
▁SIS	-12.0722
▁teaching	-12.0728
aSvatTa	-12.073
aparADa	-12.0731
gola	-12.0731
ano	-12.0737
oka	-12.0737
▁kzetr	-12.0741
lakzya	-12.0743
kASyapa	-12.0749
▁Lin	-12.0749
▁vahat	-12.0752
▁Watch	-12.0752
▁surface	-12.0753
ucCizwa	-12.0753
▁refused	-12.0755
▁tent	-12.0755
▁AyuD	-12.0756
nirvARa	-12.0757
ising	-12.0757
mUlya	-12.0757
praKyA	-12.0758
▁creatures	-12.0758
Lo	-12.0759
ization	-12.0759
▁Had	-12.0761
▁thrown	-12.0761
nAka	-12.0763
nArAca	-12.0765
app	-12.0765
▁Fre	-12.0766
pralaya	-12.0766
▁Cam	-12.0766
vizAda	-12.0767
unmAda	-12.0768
BAradvAja	-12.0768
trAsa	-12.0773
▁vasizW	-12.0775
lay	-12.0777
pose	-12.0783
saMkzepa	-12.0787
▁screw	-12.0787
▁broad	-12.0787
▁Water	-12.0788
▁Roger	-12.0788
▁pants	-12.0788
▁huRqizya	-12.079
tomara	-12.079
▁pUjA	-12.0792
▁pfqat	-12.0793
▁bat	-12.0799
[	-12.0802
▁cooking	-12.0804
▁Young	-12.0812
▁vyADi	-12.0814
plu	-12.0817
▁mArut	-12.0817
stf	-12.0818
kawa	-12.0818
avarudDi	-12.0823
jaNGA	-12.0824
▁cutting	-12.0826
▁jap	-12.0827
▁aDvaryu	-12.0833
lter	-12.0835
▁bro	-12.0837
FL	-12.0839
pramAda	-12.0839
▁2019.	-12.0841
cAraRa	-12.0841
Mr	-12.0856
roll	-12.0859
▁cereal	-12.0859
▁responsible	-12.0859
▁failure	-12.0859
▁guide	-12.0859
pramadA	-12.0861
▁chosen	-12.0861
juhot	-12.0863
06	-12.0864
ching	-12.0866
kAMsya	-12.0866
▁badly	-12.0866
▁Bv	-12.0867
ana	-12.0868
cOra	-12.0873
▁chop	-12.0873
▁laws	-12.0874
▁fields	-12.0874
luBa	-12.0875
aid	-12.0877
▁discuss	-12.0878
▁prince	-12.0879
LY	-12.0879
▁maRi	-12.0885
sTARu	-12.0895
sAMKya	-12.0895
▁broadcast	-12.0895
▁distributed	-12.0896
see	-12.0897
▁dadI	-12.0898
▁treatment	-12.0898
▁poet	-12.0903
where	-12.0904
▁Music	-12.0908
lokapAla	-12.091
▁janam	-12.0911
▁sEnDav	-12.0912
▁Pu	-12.0913
eyAt	-12.0917
▁checked	-12.0917
▁Pope	-12.0919
▁boom	-12.0925
▁caraR	-12.0926
▁demand	-12.0926
▁rear	-12.093
▁Majesty	-12.0931
▁innocent	-12.0931
▁method	-12.0931
SmaSru	-12.0932
▁girlfriend	-12.0932
▁Report	-12.0932
▁mUzA	-12.0939
▁Mel	-12.0939
▁unit	-12.0948
brAhmaRI	-12.0949
satI	-12.0951
▁aim	-12.0955
▁aDarm	-12.096
▁branch	-12.0968
punarnavA	-12.0968
▁financial	-12.0968
▁savitar	-12.0968
▁cheap	-12.0968
▁reward	-12.0971
sure	-12.0971
miss	-12.0972
▁vraj	-12.0978
met	-12.0979
suyoDana	-12.0981
prasaNga	-12.0983
nAyaka	-12.0985
hand	-12.0987
gAyatra	-12.0987
▁tejas	-12.099
21	-12.099
▁pavitr	-12.0991
Bo	-12.0991
▁saMskAr	-12.0992
▁SoRit	-12.0994
▁naK	-12.0997
▁attend	-12.0997
valaya	-12.0999
▁Under	-12.0999
▁cent	-12.1001
SAMtanava	-12.1004
saMcaya	-12.1004
saMkzaya	-12.1004
araRi	-12.1004
▁advantage	-12.1004
▁economic	-12.1004
vIruD	-12.1005
▁Albert	-12.1005
▁Alice	-12.1006
▁Danny	-12.1006
▁pratizWA	-12.1008
▁yojan	-12.101
▁entirely	-12.101
aDyAtma	-12.1012
▁YOUR	-12.1014
pAdapa	-12.1014
▁dust	-12.1017
▁Sakyat	-12.1018
▁List	-12.1026
turaga	-12.1033
▁sarpi	-12.1034
garta	-12.1037
▁includes	-12.1038
▁origin	-12.104
▁exchange	-12.1041
▁kowi	-12.1043
▁Each	-12.1043
▁discussion	-12.1045
hisi	-12.1056
upadrava	-12.1058
lop	-12.1064
▁canton	-12.1065
▁Sk	-12.1071
▁thoughts	-12.1071
▁ALL	-12.1071
▁require	-12.1072
rADas	-12.1074
▁dAyAt	-12.1078
▁swear	-12.1078
▁Honey	-12.1079
▁aBram	-12.1079
▁Team	-12.108
▁chew	-12.108
▁extremely	-12.108
▁Us	-12.108
01	-12.1082
▁Ayatan	-12.1083
▁ven	-12.1084
▁niDan	-12.1085
▁defeated	-12.1085
▁rope	-12.1087
▁kissed	-12.109
ular	-12.1092
sfYjaya	-12.1094
ADAra	-12.1096
▁Ap	-12.1097
cries	-12.11
fBu	-12.1101
▁critic	-12.1104
▁closet	-12.1109
▁flu	-12.111
▁Stra	-12.1112
▁counter	-12.1112
▁troops	-12.1114
▁paw	-12.1115
EW	-12.1115
▁Should	-12.1115
▁Swiss	-12.1115
▁network	-12.1115
▁1991	-12.1115
▁curious	-12.1115
"?	-12.1116
▁brand	-12.1117
▁Down	-12.1117
▁prajAm	-12.1122
▁bold	-12.1127
▁conditions	-12.1129
aBiprAya	-12.1131
▁paying	-12.1133
Thank	-12.1133
Me	-12.1134
80	-12.114
▁ASray	-12.114
jan	-12.1148
40	-12.1152
SvayaTu	-12.1152
▁horror	-12.1152
▁mamma	-12.1153
▁estate	-12.1153
Agamana	-12.1154
▁dragon	-12.1154
▁determined	-12.1155
▁recently	-12.1155
▁journalist	-12.1157
ening	-12.1164
▁painted	-12.1165
▁DAny	-12.1167
▁selling	-12.117
▁results	-12.1174
▁Anan	-12.1177
▁janArdan	-12.1178
▁pulling	-12.1178
▁towns	-12.1181
▁oG	-12.1183
▁Gen	-12.1184
▁ends	-12.1185
SuSrUzA	-12.119
▁WITH	-12.119
▁kruDyat	-12.119
▁western	-12.119
▁otherwise	-12.1191
▁UK	-12.1194
▁meters	-12.1195
▁root	-12.12
kawi	-12.1201
BakzaRa	-12.1201
▁Hol	-12.1202
pariGa	-12.1204
ori	-12.1208
yAdava	-12.1209
▁200	-12.1211
▁BAr	-12.1213
▁aDip	-12.1216
vanu	-12.1217
▁60	-12.1219
▁strip	-12.122
▁desire	-12.1221
praBAta	-12.1221
▁anal	-12.1223
putraka	-12.1226
pon	-12.1227
▁appointed	-12.1227
▁bruvat	-12.1227
▁lonely	-12.1227
▁nuhhuh	-12.1227
▁concert	-12.1227
▁stroke	-12.1227
▁Anyway	-12.1228
▁aSnut	-12.1228
▁Leave	-12.1228
▁hUrCizyat	-12.1232
▁described	-12.1233
ille	-12.1237
hen	-12.124
▁kumB	-12.1241
▁award	-12.1242
▁kAYcan	-12.1242
▁vaya	-12.1243
rag	-12.1248
lton	-12.1249
mmer	-12.1252
▁Ol	-12.1252
ologist	-12.1262
▁net	-12.1265
▁slept	-12.1265
▁average	-12.1265
▁BAjayat	-12.1265
saMsad	-12.1265
▁crew	-12.1265
▁guilty	-12.1266
▁rug	-12.1267
▁ahnut	-12.1268
▁suffered	-12.127
▁committee	-12.127
▁Ok	-12.1271
▁jane	-12.1274
▁jAl	-12.1275
▁locked	-12.1276
▁tanU	-12.1276
break	-12.1284
▁bAnDav	-12.1285
▁Law	-12.1287
owed	-12.1289
▁rent	-12.129
▁waves	-12.129
▁Hungry	-12.1302
▁Vermont	-12.1303
▁1981	-12.1303
▁winner	-12.1304
▁kAzW	-12.1305
▁jAyant	-12.1305
▁akfRva	-12.1305
▁companion	-12.1306
tuzwi	-12.1306
Bara	-12.1307
pAyasa	-12.1309
▁student	-12.1309
vEqUrya	-12.1309
▁suggested	-12.131
pucCa	-12.131
▁AT	-12.1312
vasana	-12.1312
▁paty	-12.1313
ats	-12.1315
sindUra	-12.1317
veRu	-12.1318
dAqima	-12.1319
GrARa	-12.1319
Kadira	-12.1319
pariRAma	-12.1321
magnet	-12.1322
kaRwaka	-12.1322
sasya	-12.1325
MP	-12.1326
▁yon	-12.1326
paNka	-12.133
▁cart	-12.1332
▁Nick	-12.1339
cikitsA	-12.134
▁Department	-12.134
▁argument	-12.134
▁yojayizya	-12.134
kftavarman	-12.1341
▁Night	-12.1342
poza	-12.1342
▁divided	-12.1342
SIrzan	-12.1343
▁choo	-12.1344
cakravartin	-12.1352
▁vistar	-12.1352
▁Nu	-12.1353
▁pace	-12.1355
lines	-12.1355
uyAt	-12.1356
▁Jon	-12.1368
▁musician	-12.137
▁eaten	-12.137
▁Princess	-12.1372
▁candidate	-12.1378
▁sorrow	-12.1378
▁pfNkt	-12.1378
▁plates	-12.1379
▁jajYat	-12.1379
▁Gnant	-12.138
▁shouted	-12.1383
▁bak	-12.1388
vanti	-12.1388
▁nu	-12.139
▁Comp	-12.1392
▁saBA	-12.1399
MT	-12.1399
Le	-12.1402
diva	-12.1406
▁Stu	-12.1409
▁ruin	-12.1411
▁jajAt	-12.1412
SuRWI	-12.1416
saptarzi	-12.1416
comune	-12.1417
▁cricket	-12.1417
▁Jacob	-12.1417
gOrI	-12.1417
▁branches	-12.1417
▁airport	-12.1417
▁karmAR	-12.1422
▁cave	-12.1422
▁Sucyat	-12.1423
BEkza	-12.1428
ked	-12.1431
manoraTa	-12.1433
saciva	-12.1433
niSAcara	-12.1434
sAmAnya	-12.1434
Mark	-12.1436
▁Br	-12.1436
jayadraTa	-12.1438
▁divas	-12.1438
svarasa	-12.1441
anarTa	-12.1441
▁ozaDi	-12.1445
▁sheet	-12.1446
ability	-12.1449
▁pl	-12.145
dle	-12.1451
saMtAna	-12.1455
kEkeyI	-12.1455
▁Ethel	-12.1455
▁investigation	-12.1455
▁pizza	-12.1455
▁throne	-12.1455
MacWhinney	-12.1455
▁hidden	-12.1455
anDamUzA	-12.1455
▁elder	-12.1456
▁function	-12.1456
▁beast	-12.1457
▁Luc	-12.146
▁2017,	-12.146
▁warning	-12.1461
Mar	-12.1463
▁issues	-12.1465
boDi	-12.1476
▁pARqave	-12.1478
▁pAvak	-12.1481
▁characters	-12.1489
▁japat	-12.149
▁queer	-12.1493
▁Jones	-12.1495
istic	-12.1495
▁clay	-12.1497
east	-12.1498
▁32	-12.1499
▁designed	-12.1505
AyAsa	-12.151
▁Baye	-12.1513
▁Kan	-12.1521
▁dIp	-12.1521
▁dump	-12.1526
loud	-12.1528
Bavan	-12.1529
rack	-12.1531
▁mighty	-12.1531
▁document	-12.1532
▁Professor	-12.1532
▁false	-12.1532
▁horrible	-12.1532
▁Kansas	-12.1532
▁shower	-12.1532
▁jobs	-12.1533
rahasya	-12.1534
▁maraR	-12.1536
▁mAkzik	-12.1536
urvI	-12.1537
▁Open	-12.1539
nAmaDeya	-12.1541
▁tied	-12.1542
fo	-12.1542
kuNkuma	-12.1543
lepana	-12.1544
▁kOntey	-12.1548
utsAha	-12.1548
▁rasAyan	-12.1549
mayUra	-12.1549
yUTapa	-12.1549
ddy	-12.155
vyoza	-12.155
Mo	-12.1551
nivAsa	-12.1551
kftyA	-12.1552
mahIpAla	-12.1552
ines	-12.1552
posed	-12.1552
▁sons	-12.1553
sTAlIpAka	-12.1554
▁saKy	-12.1554
▁stack	-12.1557
rakzaRa	-12.1559
▁pavan	-12.1563
▁drugs	-12.1569
▁stands	-12.157
▁museum	-12.1571
▁scheme	-12.1571
preman	-12.1571
▁authority	-12.1572
▁affair	-12.1579
▁Pop	-12.1582
dding	-12.1583
▁Val	-12.1587
▁brahmAR	-12.1587
▁kft	-12.1589
graph	-12.159
▁crossed	-12.1591
yozA	-12.1591
▁darB	-12.1594
▁approach	-12.1596
▁bones	-12.1603
zoqaSin	-12.161
snuzA	-12.161
▁kangaroo	-12.161
▁physical	-12.161
▁Film	-12.161
▁owe	-12.161
▁incident	-12.161
devakI	-12.161
▁1993	-12.161
▁Road	-12.161
▁baseball	-12.1611
▁suffering	-12.1616
playing	-12.1618
udAna	-12.1619
▁experiment	-12.162
▁Ve	-12.1621
▁Sram	-12.1621
DarA	-12.1623
iDma	-12.1623
ASIviza	-12.1623
▁DyAn	-12.1623
▁hfd	-12.1627
aNkura	-12.1628
▁attacked	-12.1634
▁divi	-12.1634
Amiza	-12.1638
▁Leo	-12.1641
▁aside	-12.1642
88	-12.1642
tretA	-12.1643
▁threat	-12.1643
▁reports	-12.1647
brahmarzi	-12.1649
▁slightly	-12.1651
▁roles	-12.1653
aff	-12.1653
senApati	-12.1653
▁sales	-12.1654
prAvfz	-12.1655
prayAja	-12.1666
▁kvAT	-12.1666
▁mUl	-12.1666
vEvasvata	-12.1668
smara	-12.1668
pravAla	-12.1669
▁col	-12.167
which	-12.1671
▁display	-12.1674
▁candan	-12.1675
sUri	-12.1681
▁stranger	-12.1684
▁Sry	-12.1688
▁grape	-12.1688
▁stove	-12.1688
▁virus	-12.1688
▁1987	-12.1688
daSA	-12.169
▁DArA	-12.169
▁Seven	-12.169
▁sah	-12.1691
▁hurts	-12.1691
▁Back	-12.1692
▁Fer	-12.1693
cCat	-12.1693
▁Hot	-12.1694
pot	-12.1698
▁dEv	-12.1699
▁Such	-12.1699
dale	-12.1701
stoka	-12.1702
aki	-12.1703
▁Stan	-12.1705
KID	-12.1711
▁varca	-12.1722
kOsalyA	-12.1727
▁beneath	-12.1727
▁platform	-12.1727
▁freedom	-12.1727
▁1997	-12.1727
▁Senate	-12.1728
SalAkA	-12.1728
▁passage	-12.1728
ional	-12.1732
abja	-12.1733
▁muYcet	-12.1735
▁papa	-12.1737
▁Head	-12.1737
▁san	-12.1738
▁drawer	-12.1741
▁tra	-12.1743
puzya	-12.1745
ARD	-12.1752
▁lack	-12.1756
▁kfp	-12.1756
nemi	-12.176
▁struggle	-12.176
▁recognize	-12.176
22	-12.1762
noise	-12.1762
▁Jersey	-12.1767
▁assistant	-12.1768
▁Grace	-12.1768
▁wrap	-12.1772
bly	-12.1773
▁Arch	-12.1774
cted	-12.178
Sakala	-12.1783
▁cit	-12.1784
arbuda	-12.1784
Thou	-12.1785
▁anIk	-12.1789
gARqIva	-12.1789
▁vet	-12.179
▁RO	-12.179
nigraha	-12.1791
Here	-12.1792
▁fc	-12.1794
most	-12.1795
▁bless	-12.1796
▁yakzya	-12.1797
▁narak	-12.1798
Bujaga	-12.1799
▁arrest	-12.18
mount	-12.1803
▁eager	-12.1803
▁Ter	-12.1803
maTnAt	-12.1804
▁Bam	-12.1806
yavAgU	-12.1806
▁familiar	-12.1806
▁Betty	-12.1806
▁Everybody	-12.1806
▁division	-12.1807
▁mayor	-12.1807
▁SrAdD	-12.1807
ugh	-12.1807
valI	-12.1808
▁proposed	-12.1809
▁mut	-12.181
▁oldest	-12.1822
avakASa	-12.1826
▁sexual	-12.1828
pitched	-12.183
American	-12.183
▁boot	-12.1833
▁Steve	-12.1837
ella	-12.1838
devarAja	-12.184
saMsTA	-12.1843
Did	-12.1845
▁Minnesota	-12.1846
GFA	-12.1847
▁Run	-12.1849
iness	-12.185
▁Ken	-12.1853
▁vijay	-12.1853
AgAra	-12.1857
▁Helen	-12.1858
DAnA	-12.1859
▁yum	-12.1859
yatI	-12.1859
▁folks	-12.186
▁sved	-12.1869
tric	-12.1875
90	-12.1878
▁HER	-12.1879
▁trap	-12.188
▁ruDir	-12.1884
▁1972	-12.1886
▁Mexican	-12.1886
▁dunno	-12.1886
▁eighteen	-12.1886
▁switch	-12.1886
uttaravedi	-12.1886
▁gfham	-12.1887
▁originally	-12.1894
▁burned	-12.1894
Billboard	-12.1895
kAsIsa	-12.1896
▁Ser	-12.1897
duzkfta	-12.1898
▁Sue	-12.1899
▁explained	-12.1903
sPawika	-12.1903
now	-12.1904
▁belongs	-12.1904
list	-12.1906
▁nearer	-12.1908
dAraka	-12.191
▁vfdDi	-12.1913
▁devy	-12.1915
pointing	-12.1916
▁discover	-12.1917
▁express	-12.1917
95	-12.1921
kfpA	-12.1921
07	-12.1922
BAminI	-12.1926
▁Maggie	-12.1926
▁ahuRqa	-12.1926
▁symbol	-12.1926
▁bruvI	-12.1926
▁romantic	-12.1926
▁racing	-12.1927
▁wicked	-12.1927
▁1988	-12.1927
▁Fair	-12.193
cus	-12.1931
▁mArkaRqey	-12.1938
▁profit	-12.194
▁gettin	-12.1941
60	-12.1943
▁prayat	-12.1946
▁spite	-12.1946
▁End	-12.1946
▁Sayan	-12.1947
non	-12.1949
▁chin	-12.195
yellow	-12.1951
▁kalk	-12.1953
gasps	-12.1958
wl	-12.1959
makara	-12.1963
▁obliged	-12.1967
▁smooth	-12.1967
▁chemical	-12.1967
▁Jerry	-12.1967
▁stepped	-12.1967
▁Know	-12.1967
▁fever	-12.1968
▁gained	-12.1975
▁cheeks	-12.1977
86	-12.1977
▁whenever	-12.1977
jAta	-12.1977
▁holiday	-12.1978
▁safely	-12.1981
▁comedy	-12.1982
anucara	-12.1988
▁remains	-12.1989
▁prayog	-12.1989
▁Ari	-12.1996
▁BAvaye	-12.1999
▁arch	-12.2005
2/	-12.2006
pAMsu	-12.2007
▁fierce	-12.2007
▁happiness	-12.2007
▁gently	-12.2007
▁Health	-12.2007
▁pride	-12.2008
▁1950	-12.2008
▁holizyat	-12.2008
▁becomes	-12.2008
sikatA	-12.2008
lOha	-12.2009
▁attached	-12.2011
▁gathered	-12.2011
▁puMs	-12.2013
▁parties	-12.2015
▁performed	-12.2016
▁fellows	-12.2016
paRya	-12.2019
syandana	-12.2019
Sulva	-12.2019
snAyu	-12.202
sAyujya	-12.202
SacI	-12.2024
dvijasattama	-12.2024
darada	-12.2024
Bojya	-12.2027
hutASana	-12.2028
▁tantr	-12.2033
water	-12.2035
BerI	-12.2037
haWa	-12.2039
Darman	-12.2046
bed	-12.2047
ekASIti	-12.2048
▁appeal	-12.2048
▁sixteen	-12.2048
▁Police	-12.2048
▁label	-12.205
▁Pal	-12.2051
▁SAp	-12.2053
▁Awards	-12.2055
sAnu	-12.2056
▁lavaR	-12.2057
puwwa	-12.2058
▁curl	-12.2058
pet	-12.2061
▁vinAS	-12.2064
count	-12.2066
ADipatya	-12.2068
▁gArhapaty	-12.2068
▁screaming	-12.207
sizyat	-12.2075
OS	-12.2076
▁hated	-12.2078
▁comm	-12.2081
▁advance	-12.2082
89	-12.2083
ambuda	-12.2085
▁barhi	-12.2088
▁dUt	-12.209
▁Bertha	-12.2091
▁replaced	-12.2095
puw	-12.2096
▁justice	-12.2098
▁dAs	-12.2101
▁vasu	-12.2101
▁covers	-12.2103
▁murdered	-12.2105
praveSa	-12.2107
▁passengers	-12.211
▁remove	-12.2113
pers	-12.2114
avas	-12.2115
▁amar	-12.2116
▁temper	-12.2116
▁tin	-12.2118
▁dAsyant	-12.2121
▁brief	-12.2126
▁Guard	-12.2128
▁swallow	-12.213
▁Illinois	-12.213
▁southern	-12.213
▁studies	-12.213
▁Chicago	-12.213
▁Trump	-12.213
▁1989	-12.213
▁OH	-12.213
▁asizyant	-12.2132
▁cop	-12.2134
sPya	-12.214
Sakawa	-12.2143
▁guest	-12.2144
▁puM	-12.2145
ENT	-12.2145
sAmya	-12.2146
prAkAra	-12.2147
92	-12.2148
kulatTa	-12.215
rasendra	-12.2151
sObala	-12.2152
kumBakarRa	-12.2153
avatAra	-12.2156
▁jihvA	-12.2158
▁Mag	-12.2162
hold	-12.2165
puraMdara	-12.2171
▁relief	-12.2171
▁Again	-12.2171
▁link	-12.2171
▁Too	-12.2171
▁Middle	-12.2171
▁Though	-12.2171
▁DE	-12.2172
▁DON	-12.2174
▁properly	-12.2175
▁wire	-12.2176
▁starr	-12.2176
agnID	-12.2177
UrRA	-12.218
▁sute	-12.2181
▁devatAm	-12.2182
▁seats	-12.2182
bef	-12.2183
zaR	-12.2186
▁gotten	-12.2187
viBUti	-12.219
▁produce	-12.2191
▁wave	-12.2192
▁grace	-12.2194
▁niyam	-12.2195
nal	-12.2203
▁vain	-12.2206
▁Bank	-12.2206
▁beep	-12.2207
▁Madam	-12.2208
▁chose	-12.221
sia	-12.221
▁Andrew	-12.2212
caturdaSI	-12.2212
▁culture	-12.2212
▁temple	-12.2212
▁furniture	-12.2212
pfTu	-12.2212
▁favourite	-12.2213
▁cash	-12.2216
▁represented	-12.2216
▁reality	-12.2218
▁features	-12.2219
▁seek	-12.2222
▁finds	-12.2224
▁toast	-12.2224
▁hunting	-12.2232
99	-12.2234
uddeSa	-12.2234
▁Bikz	-12.2243
vAmadevya	-12.2244
▁gaman	-12.2247
▁2020,	-12.225
▁agnihotr	-12.2253
▁priy	-12.2253
▁progress	-12.2254
▁desperate	-12.2254
▁restaurant	-12.2254
▁enemies	-12.2254
▁microphone	-12.2254
▁1985	-12.2254
▁hozyat	-12.2254
▁savan	-12.2255
vAyasa	-12.2255
▁connection	-12.2257
SEneya	-12.2258
cation	-12.2259
ots	-12.2262
gent	-12.2264
▁Dane	-12.2264
▁critical	-12.2265
▁proved	-12.2266
▁Ahuti	-12.2268
avidyA	-12.2268
Kala	-12.2272
pArzata	-12.2274
▁Wall	-12.2274
kElAsa	-12.2275
mAgaDa	-12.2276
▁answers	-12.2278
wo	-12.2279
ils	-12.228
▁tanay	-12.228
▁washers	-12.2281
Yeah	-12.2281
When	-12.2281
▁guests	-12.2282
▁kziR	-12.2282
nde	-12.2283
▁Song	-12.2287
TION	-12.2288
▁stretch	-12.2289
▁Max	-12.2289
▁forms	-12.2292
▁delay	-12.2292
mAtA	-12.2293
▁mAnas	-12.2293
▁relax	-12.2295
▁pArayizya	-12.2295
▁pregnant	-12.2295
▁Institute	-12.2295
▁Stephen	-12.2295
▁Hmm	-12.2295
▁Nazi	-12.2296
ttered	-12.2296
▁proof	-12.2296
vartI	-12.2297
▁observed	-12.2298
boy	-12.2299
▁erase	-12.2299
▁yacCet	-12.2304
▁lifted	-12.2305
▁auto	-12.2309
▁detail	-12.2312
▁agre	-12.2313
▁haMs	-12.2314
lian	-12.2315
▁Georgia	-12.2317
tripura	-12.2318
▁ver	-12.2319
▁BAzat	-12.2321
▁obey	-12.2322
▁prajYApAramitA	-12.2325
phil	-12.2329
▁Bikzu	-12.2329
▁scare	-12.233
gger	-12.2335
log	-12.2337
guqUcI	-12.2337
▁Spirit	-12.2337
▁criminal	-12.2337
▁lamb	-12.2337
▁yajet	-12.2338
▁Tower	-12.2338
▁Bel	-12.2339
▁Virginia	-12.2343
empt	-12.2348
▁yUp	-12.2353
▁sailor	-12.2353
anDakAra	-12.2356
▁knees	-12.2361
▁triPalA	-12.2364
▁Indians	-12.2367
▁sooner	-12.2368
▁tend	-12.2368
AKyAna	-12.2372
▁oops	-12.2375
lag	-12.2379
▁regret	-12.2379
▁warrior	-12.2379
▁Bird	-12.238
▁terror	-12.2381
▁Stone	-12.2382
zati	-12.2383
▁delighted	-12.2387
▁circumstances	-12.2389
pIWa	-12.239
▁saMsAr	-12.2392
pAnIya	-12.2395
▁viDyat	-12.2396
parivAra	-12.2398
nirGoza	-12.2398
saMvAda	-12.2399
vEkrAnta	-12.2403
▁2016)	-12.2406
akAla	-12.2408
▁limit	-12.2415
▁damage	-12.2416
For	-12.2418
▁stole	-12.2419
paramARu	-12.2421
grAvan	-12.2421
vyakti	-12.2421
▁miserable	-12.2421
▁kitten	-12.2421
▁pAlayizya	-12.2422
▁begun	-12.2427
prAsa	-12.2429
visarga	-12.2431
▁pointed	-12.2432
▁bearing	-12.2432
▁sva	-12.2435
chu	-12.2437
late	-12.2437
▁nABi	-12.2439
▁HO	-12.244
▁chap	-12.2445
lopa	-12.2446
▁agent	-12.2446
▁2021.	-12.2447
anuvAka	-12.2448
his	-12.2449
▁III	-12.245
▁Sho	-12.2453
lot	-12.2454
gfhRIt	-12.2454
ctive	-12.2456
▁deserve	-12.2458
▁SoP	-12.2463
guggulu	-12.2464
▁expensive	-12.2464
▁puppet	-12.2464
▁garage	-12.2465
NT	-12.2465
▁dine	-12.2466
sPuwa	-12.2466
▁rapidly	-12.2466
▁plot	-12.2466
▁kOrav	-12.2469
▁waved	-12.247
pawala	-12.2472
▁ARE	-12.2474
▁Ji	-12.2476
▁apAn	-12.2477
▁kfcCr	-12.2478
kUla	-12.2478
▁ability	-12.2478
zan	-12.248
Arogya	-12.2481
JAK	-12.2482
▁Bol	-12.2486
▁bali	-12.2488
▁Plan	-12.2492
67	-12.2493
▁anger	-12.2495
▁Games	-12.2504
▁Count	-12.2506
▁scissors	-12.2506
▁sneak	-12.2506
GRF	-12.2506
▁grateful	-12.2506
▁spider	-12.2506
▁1979	-12.2507
Sravas	-12.2508
▁Kate	-12.2508
▁gang	-12.2508
▁patizyat	-12.251
▁introduced	-12.2511
▁addition	-12.2511
▁SAKA	-12.2511
▁Hal	-12.2514
sPu	-12.2516
▁kzOdr	-12.2518
▁marked	-12.2519
krAmaRa	-12.252
▁ruled	-12.2521
tree	-12.2522
ppy	-12.2526
sAhasa	-12.2526
saMramBa	-12.2527
▁appears	-12.2528
hfzIkeSa	-12.2528
anumAna	-12.2528
sOBadra	-12.2528
▁wha	-12.2529
nahuza	-12.2529
ffer	-12.253
aDara	-12.2531
▁2015)	-12.2534
arch	-12.2535
vyaya	-12.2544
talking	-12.2544
karRikA	-12.2545
▁fleet	-12.2547
▁1984	-12.2549
▁Education	-12.2549
▁ribbon	-12.2549
▁savitA	-12.2549
▁breast	-12.2549
▁parTayat	-12.2549
▁occurred	-12.2549
▁boxes	-12.2552
▁Oliver	-12.2554
▁Looks	-12.2556
▁ahuqat	-12.256
▁Jr	-12.2561
▁niScay	-12.2562
tandrA	-12.2563
▁araRy	-12.2563
jIvana	-12.2564
vicAra	-12.2566
tapati	-12.2568
▁supported	-12.2571
▁spy	-12.2571
▁prefer	-12.2573
ware	-12.2575
hatyA	-12.2576
▁Mont	-12.2581
87	-12.2581
uit	-12.2585
▁settle	-12.2586
band	-12.2586
▁occur	-12.2592
vrIq	-12.2592
▁JUST	-12.2592
▁Jewish	-12.2592
▁Iraq	-12.2592
▁1986	-12.2592
▁Battle	-12.2592
▁doggy	-12.2593
biBet	-12.2595
▁delightful	-12.2596
▁vidyAt	-12.2597
under	-12.2598
iparti	-12.2601
▁Siras	-12.2606
▁washed	-12.2609
▁sport	-12.2612
▁loB	-12.2612
aBiGAta	-12.2613
aByaNga	-12.2615
▁proceed	-12.2629
▁fed	-12.263
▁coal	-12.2631
rasaka	-12.2632
▁confess	-12.2632
▁Wild	-12.2633
▁fishing	-12.2635
▁Benjamin	-12.2635
▁Brennan	-12.2635
▁conflict	-12.2635
▁Hurry	-12.2635
▁hammer	-12.2636
▁jYAsya	-12.2636
▁tanv	-12.2637
samrAj	-12.2638
▁Human	-12.2641
▁leap	-12.2642
▁varze	-12.2642
imit	-12.2644
dASa	-12.2645
sounds	-12.2645
▁rod	-12.2647
▁product	-12.265
▁players	-12.2651
kzema	-12.2652
▁leaders	-12.2656
▁rAjam	-12.2658
iver	-12.2661
nidAna	-12.2662
▁moments	-12.2665
father	-12.2665
▁2022.	-12.267
Kaga	-12.2673
sTApana	-12.2677
▁Nurse	-12.2678
▁ahUrCat	-12.2678
▁politics	-12.2678
▁Heaven	-12.2678
▁XI	-12.2679
rest	-12.268
▁grab	-12.2681
▁jail	-12.2682
suraBi	-12.2683
had	-12.2683
▁yAcat	-12.2684
▁reply	-12.2686
▁avasTA	-12.2686
▁pond	-12.2694
▁vESvAnar	-12.2695
Savas	-12.2697
▁Way	-12.27
▁yelling	-12.2704
48	-12.2705
BfNga	-12.2708
▁suffer	-12.2709
fu	-12.271
mail	-12.2713
▁parzat	-12.2714
▁Andy	-12.2718
▁nibbled	-12.2722
▁Besides	-12.2722
▁ugly	-12.2722
▁napkin	-12.2722
▁device	-12.2725
▁vAcaye	-12.2725
deveSI	-12.2735
▁skanD	-12.2735
▁grandma	-12.2736
hoo	-12.2741
▁dollar	-12.2743
▁ham	-12.2746
▁Were	-12.2748
harmya	-12.275
malam	-12.275
▁sticking	-12.2753
▁keys	-12.2753
▁Ven	-12.2759
fit	-12.2761
▁landed	-12.2763
▁Francis	-12.2765
▁Football	-12.2766
▁aholat	-12.2766
▁vice	-12.2767
▁beg	-12.2772
▁required	-12.2773
▁attended	-12.2773
pAWA	-12.2775
▁Tal	-12.2777
praharaRa	-12.2779
brahmahatyA	-12.2782
tanmAtra	-12.2783
paNkaja	-12.2785
▁tribe	-12.2785
yAjYavalkya	-12.2786
vArzReya	-12.2788
phy	-12.2788
97	-12.2788
▁vaktr	-12.2789
▁Wal	-12.279
samudBava	-12.2791
▁lakz	-12.2793
tarpaRa	-12.2795
64	-12.2801
▁BO	-12.2801
▁disappear	-12.2803
▁shock	-12.2803
rick	-12.2804
▁Bakz	-12.2805
23	-12.2808
▁Dy	-12.2809
▁specific	-12.2809
maDyaMdina	-12.2809
saMkara	-12.2809
▁KNOW	-12.2809
▁Southern	-12.2809
▁federal	-12.2809
▁ashamed	-12.2809
▁neighborhood	-12.2809
▁Jennie	-12.2809
Badanta	-12.2809
kranda	-12.281
▁gray	-12.2811
▁Luke	-12.2811
▁mAnayizya	-12.2812
▁nayan	-12.2812
▁Lou	-12.2812
▁gOtam	-12.2815
pUjana	-12.2818
▁Les	-12.2819
▁Ban	-12.2821
55	-12.2822
ukti	-12.2823
AtiTya	-12.2824
▁aYjan	-12.2825
▁accepted	-12.2826
yajata	-12.2828
▁fri	-12.283
▁Janet	-12.2831
hotrA	-12.2835
▁lately	-12.2835
udBava	-12.2836
meDa	-12.2841
vasudeva	-12.2846
vidraDi	-12.2853
mETilI	-12.2853
▁Committee	-12.2853
▁jYApayizya	-12.2853
darvI	-12.2854
▁agnI	-12.2854
▁Alan	-12.2856
▁arranged	-12.2857
▁nAS	-12.2862
baka	-12.2864
44	-12.2865
▁provided	-12.2865
comp	-12.2865
stand	-12.2871
anubanDa	-12.2876
acCAvAka	-12.2877
▁lesson	-12.2877
upADyAya	-12.2878
▁punch	-12.2878
Sukla	-12.2879
▁Poor	-12.288
while	-12.2886
▁faithful	-12.2887
▁Chuck	-12.2888
Ch	-12.2894
NON	-12.2895
▁chill	-12.2895
▁kand	-12.2895
▁angel	-12.2895
▁jealous	-12.2898
▁instance	-12.2898
▁pepper	-12.2898
▁Clara	-12.2898
▁saving	-12.2898
▁Jackson	-12.2899
▁Also	-12.2899
▁servants	-12.2902
▁2016,	-12.2903
▁frame	-12.2904
▁bullet	-12.2905
▁fully	-12.2906
▁DUp	-12.2907
tsu	-12.2908
aSoka	-12.2912
lohita	-12.2913
▁sounded	-12.2914
Bukti	-12.2917
sAtvata	-12.292
mlecCa	-12.292
mUlaka	-12.292
janADipa	-12.2921
yer	-12.2922
sahasrAkza	-12.2923
dUra	-12.2924
pravIra	-12.2924
▁plum	-12.2928
gozWa	-12.2928
Sf	-12.2929
▁arc	-12.2929
▁jumping	-12.293
▁patny	-12.2931
▁mAnayet	-12.2931
▁Mill	-12.2933
▁sending	-12.2936
viBrama	-12.2936
▁kanak	-12.2937
grunt	-12.2937
▁sanD	-12.2939
▁miTun	-12.294
▁ayAt	-12.2941
sundarI	-12.2942
karuRA	-12.2942
▁thirteen	-12.2942
02	-12.2942
▁carrot	-12.2942
▁RIGHT	-12.2943
▁Stella	-12.2943
▁presidential	-12.2943
▁lep	-12.2943
▁disc	-12.2944
▁slipper	-12.2947
▁aSan	-12.295
▁wr	-12.295
sey	-12.2952
position	-12.2956
▁horseshoe	-12.2958
ozWa	-12.2963
mann	-12.2963
black	-12.2975
▁Sel	-12.2978
▁prop	-12.2985
▁tfzRA	-12.2985
▁DfYjat	-12.2987
▁ahoqat	-12.2987
▁statue	-12.2987
▁underneath	-12.2987
▁latter	-12.2987
▁ahnuvant	-12.2987
▁Prize	-12.2987
▁Norway	-12.2987
▁effects	-12.2988
▁disappointed	-12.2989
▁aSvam	-12.299
ika	-12.2991
▁Vol	-12.2991
▁agreement	-12.2992
▁recognized	-12.2994
▁Jos	-12.2994
▁gum	-12.2994
▁awarded	-12.2994
▁banDan	-12.2995
sound	-12.2996
▁kziRut	-12.3001
▁breathe	-12.3008
▁Marian	-12.301
▁vaNg	-12.3011
▁environment	-12.3013
▁depend	-12.3013
maker	-12.3014
▁nAman	-12.3015
SIrza	-12.3017
▁hook	-12.3019
▁Iran	-12.3019
▁Pla	-12.3019
▁kur	-12.302
▁secure	-12.3025
▁samIp	-12.3026
▁scar	-12.3026
▁pAYcAl	-12.3027
▁musical	-12.3027
▁dakz	-12.3027
upala	-12.3028
AvaraRa	-12.3028
▁rang	-12.3029
satyavatI	-12.3032
▁Spencer	-12.3032
▁nerve	-12.3032
▁slipped	-12.3032
▁daily	-12.3032
▁sacrifice	-12.3033
▁apparently	-12.3033
▁Fat	-12.3034
▁kratu	-12.3034
cular	-12.3035
▁mAnuz	-12.3038
kASi	-12.3039
▁mile	-12.3041
▁fold	-12.3041
▁cage	-12.3042
▁Mayor	-12.3044
pratyakza	-12.3046
shakes	-12.3047
▁sarg	-12.3049
▁90	-12.3049
sAmarTya	-12.305
▁Kh	-12.3051
lAja	-12.3052
vfnda	-12.3053
pAtana	-12.3055
prAdeSa	-12.3056
▁Want	-12.3057
▁hoped	-12.3058
▁priyat	-12.3058
▁parAkram	-12.3059
nisvana	-12.3061
▁Age	-12.3061
▁throwing	-12.3064
kampa	-12.3068
nftya	-12.307
▁niSA	-12.3071
▁yogin	-12.3071
kakza	-12.3072
▁Gaw	-12.3074
▁Staunton	-12.3077
vAsuki	-12.3077
▁Centre	-12.3077
▁eventually	-12.3077
▁temperature	-12.3077
▁Revolution	-12.3077
▁aircraft	-12.3077
ruz	-12.3077
BrAj	-12.3078
▁Sr	-12.3079
▁Carter	-12.308
▁2017.	-12.308
96	-12.3082
▁pitch	-12.3083
▁amAnaya	-12.3084
▁wing	-12.3085
gal	-12.3087
elli	-12.3089
SyAmA	-12.3089
only	-12.309
▁woke	-12.3094
▁roads	-12.3098
ananta	-12.3099
▁Pra	-12.31
▁adventure	-12.3104
▁gaRe	-12.3104
▁stared	-12.3105
▁panTA	-12.3109
▁BartA	-12.3109
load	-12.3114
azwi	-12.3116
▁kusum	-12.3118
Dur	-12.3121
▁Ukraine	-12.3122
▁commercial	-12.3122
▁muYcant	-12.3122
▁precious	-12.3122
▁ayojaya	-12.3122
▁Bundle	-12.3122
raSanA	-12.3122
▁jYAt	-12.3124
▁ruler	-12.3126
rous	-12.3132
▁Shaw	-12.3133
▁Kal	-12.3134
▁sits	-12.3136
!--	-12.3137
▁mama	-12.3137
▁rAje	-12.3138
▁mill	-12.3144
▁Carle	-12.3145
74	-12.3145
▁apples	-12.315
▁Ever	-12.3151
▁wondered	-12.3156
piece	-12.3157
upaBft	-12.316
kAntA	-12.3161
woo	-12.3164
▁belt	-12.3165
▁jaras	-12.3166
IGHT	-12.3167
▁diamond	-12.3167
▁Jews	-12.3167
▁crawl	-12.3167
▁mUrDA	-12.3168
▁Scottish	-12.3168
▁ladder	-12.3168
▁carpet	-12.3168
▁GET	-12.3169
▁Emily	-12.3169
cedi	-12.3172
niyut	-12.3172
garha	-12.3172
▁melt	-12.3174
Arjava	-12.3178
▁harizyat	-12.3179
▁UP	-12.318
kavya	-12.3184
▁sauce	-12.3185
▁rolling	-12.3187
▁tour	-12.3188
lozwa	-12.3189
kIwa	-12.3193
arm	-12.3196
mandara	-12.3199
▁und	-12.3202
Pena	-12.3206
▁earn	-12.3211
79	-12.3212
maYjizWA	-12.3213
▁expert	-12.3213
▁supply	-12.3213
▁thrill	-12.3213
▁magnetic	-12.3213
▁socks	-12.3214
▁engaged	-12.3215
vARI	-12.3215
SiKin	-12.3215
▁Americans	-12.3222
LI	-12.3222
▁shelter	-12.3223
▁screen	-12.3223
▁worm	-12.3225
▁waNkaR	-12.3227
▁cough	-12.3228
▁records	-12.3231
▁Ob	-12.3233
▁KaRq	-12.3235
▁coin	-12.3235
▁pushing	-12.3237
▁mfty	-12.3242
▁Aste	-12.3244
▁farmer	-12.3247
▁tooth	-12.3252
sIsa	-12.3254
▁guq	-12.3255
▁vrajat	-12.3255
stena	-12.3257
rAsnA	-12.3259
▁barrel	-12.3259
paramAtman	-12.3259
▁shopping	-12.3259
rAjYI	-12.326
▁possession	-12.3262
▁goals	-12.3262
▁forests	-12.3269
▁havy	-12.3271
▁rUpAR	-12.3281
▁gAyatrI	-12.3283
riza	-12.3286
▁kindly	-12.329
praSama	-12.3294
▁CAyA	-12.3296
dvArakA	-12.3297
▁ache	-12.3298
▁Ian	-12.3298
▁describe	-12.3299
vivara	-12.3303
nirguRqI	-12.3305
▁triumph	-12.3305
▁Science	-12.3305
▁apologize	-12.3305
▁graduated	-12.3305
▁ordinary	-12.3305
▁squeeze	-12.3305
▁belief	-12.3305
▁confidence	-12.3305
▁Francisco	-12.3305
▁Bezaj	-12.3306
▁rude	-12.3307
▁aye	-12.3307
▁friendship	-12.3307
▁connected	-12.3311
sPowa	-12.3313
▁Son	-12.3314
▁completed	-12.3316
abDi	-12.3317
▁escaped	-12.3319
lov	-12.3323
▁Arti	-12.3323
mETuna	-12.3323
▁SArdUl	-12.3326
▁BARq	-12.3326
rAkzasI	-12.3328
bAlaka	-12.3329
prastara	-12.3329
kaRva	-12.333
udumbara	-12.3331
▁Ray	-12.3331
maRqapa	-12.3331
Karpara	-12.3332
samBrama	-12.3333
prez	-12.3333
sanatkumAra	-12.3334
94	-12.3335
▁Pictures	-12.3335
▁prisoner	-12.3336
▁mus	-12.3338
▁Goz	-12.3341
Avali	-12.3344
▁Carlo	-12.3344
▁recover	-12.3346
▁tvac	-12.3348
vArttA	-12.3351
vasuMDarA	-12.3351
▁Caterpillar	-12.3351
▁Hampshire	-12.3351
▁awesome	-12.3351
▁unhappy	-12.3351
▁violent	-12.3351
▁apibat	-12.3351
▁sought	-12.3351
▁witness	-12.3351
▁1978	-12.3352
▁gfhRat	-12.3352
ambuja	-12.3352
▁bolt	-12.3352
garja	-12.3353
▁lamp	-12.3353
EE	-12.3354
tridiva	-12.3354
▁Agent	-12.3355
▁ok	-12.3356
hase	-12.3358
ERS	-12.3362
aruRa	-12.3366
point	-12.3369
▁stronger	-12.337
new	-12.3374
ferring	-12.3374
▁Rangers	-12.3377
▁tanu	-12.3381
yajYapati	-12.3383
49	-12.3387
▁hills	-12.3389
▁Pol	-12.3389
kakuB	-12.3398
▁Wrestling	-12.3398
▁borrow	-12.3398
▁nonsense	-12.3398
GRM	-12.3398
▁seized	-12.3398
▁maDun	-12.3398
▁talent	-12.34
▁trained	-12.34
▁whispers	-12.3401
DE	-12.3403
rajju	-12.3404
▁wounded	-12.3406
▁greatly	-12.3407
talpa	-12.3408
dos	-12.3417
▁Bavan	-12.3422
atyaya	-12.3423
▁washing	-12.3427
yUza	-12.3427
▁Var	-12.3428
▁rAjany	-12.3431
SAkya	-12.3431
▁Ay	-12.3432
▁mAlA	-12.3432
▁ukT	-12.3433
▁Eva	-12.3435
▁Satr	-12.3437
atisAra	-12.3443
zizyat	-12.3444
▁boyfriend	-12.3445
▁Dear	-12.3446
▁Ryan	-12.3447
KING	-12.3448
▁daDi	-12.3449
46	-12.3452
▁nah	-12.3455
▁tAl	-12.3457
wan	-12.3458
▁Srut	-12.3459
kuSala	-12.3464
cAmara	-12.3465
lAGava	-12.3465
dvApara	-12.3468
aBayA	-12.3468
aDyakza	-12.3469
dUzaRa	-12.3469
kapota	-12.347
rAyaspoza	-12.3471
hiNgula	-12.3471
pravargya	-12.3471
pUruza	-12.3471
puNKa	-12.3473
SvaSura	-12.3474
69	-12.348
▁sanDyA	-12.3481
▁upper	-12.3483
sign	-12.349
SarmizWA	-12.3491
devadAlI	-12.3491
▁Sweden	-12.3491
▁alcohol	-12.3491
▁audience	-12.3491
▁flood	-12.3491
▁basketball	-12.3492
▁1976	-12.3492
▁Voice	-12.3492
▁secretary	-12.3493
▁stamp	-12.3496
▁SAst	-12.3496
pfTA	-12.3498
▁Colin	-12.3499
▁satisfied	-12.3499
▁Whoa	-12.35
▁2015.	-12.3501
atory	-12.3502
pushes	-12.3503
▁sugrIv	-12.3508
cita	-12.351
▁Tour	-12.3514
Asyan	-12.3514
▁srakzyat	-12.3515
78	-12.3518
AnAha	-12.352
▁Garm	-12.3524
▁vision	-12.3527
paSupati	-12.3529
▁mahI	-12.3529
▁SAsan	-12.353
ique	-12.353
▁neighbour	-12.3539
pativratA	-12.3539
▁polite	-12.3539
▁Aldworth	-12.3539
▁animated	-12.3539
▁brilliant	-12.3539
▁lecture	-12.3539
▁significant	-12.3539
▁Melissa	-12.3539
▁multiple	-12.3539
▁route	-12.3539
▁Jenny	-12.3539
▁Brooke	-12.3539
▁Light	-12.354
▁Jeff	-12.3541
jet	-12.3545
▁awfully	-12.3548
▁Amay	-12.3549
▁Stay	-12.3554
▁purAR	-12.3555
▁custom	-12.3556
▁parameSvar	-12.3559
anas	-12.3566
09	-12.3567
ried	-12.3567
SOrya	-12.3568
▁buD	-12.357
▁seated	-12.357
▁yAsyat	-12.3571
eraRqa	-12.3573
vacan	-12.3573
▁closely	-12.3574
▁affect	-12.3575
▁Ahav	-12.3576
▁yaju	-12.3576
▁Jud	-12.3576
▁80	-12.3579
▁praDAn	-12.3584
▁reference	-12.3586
▁1930	-12.3587
▁Booth	-12.3587
▁lung	-12.3588
▁resolved	-12.3588
▁dull	-12.3588
▁farther	-12.3588
▁prajYA	-12.3595
▁Islamic	-12.3596
SroRi	-12.3596
sson	-12.3598
▁factory	-12.3599
bol	-12.36
▁lAB	-12.3601
anDas	-12.3603
mfDa	-12.3605
plava	-12.3606
▁costs	-12.361
mAtula	-12.3611
▁workers	-12.3613
revAKaRqa	-12.3613
▁purIz	-12.3614
loDra	-12.3615
caRqAla	-12.3615
▁armed	-12.3615
▁Shall	-12.3617
revA	-12.3617
75	-12.3618
vatsara	-12.3618
rAhu	-12.362
kapila	-12.3624
▁arrive	-12.3625
▁bark	-12.3626
▁spill	-12.3627
mAtaMga	-12.3634
parIkzA	-12.3634
▁mercy	-12.3634
▁1983	-12.3634
▁footballer	-12.3634
▁Berlin	-12.3634
▁management	-12.3635
▁fk	-12.3635
▁accused	-12.3635
▁scale	-12.3635
far	-12.3639
▁stones	-12.364
▁Cad	-12.3645
▁dIkzA	-12.3648
aMSaka	-12.3651
▁pret	-12.3653
▁MAN	-12.3654
▁tricks	-12.3655
▁contain	-12.3659
▁founder	-12.3662
AjyaBAga	-12.3666
OT	-12.367
▁apAraya	-12.3671
member	-12.3672
▁consist	-12.3675
▁sUtra	-12.3676
▁dirt	-12.3678
five	-12.368
vApI	-12.3681
vArARasI	-12.3681
hikkA	-12.3681
▁puNgav	-12.3681
kzapA	-12.3681
▁chamber	-12.3682
hemanta	-12.3682
▁silk	-12.3682
▁1969	-12.3682
▁shh	-12.3684
▁THERE	-12.3684
kaliNga	-12.3684
▁Sister	-12.3687
▁jAti	-12.3688
▁Simon	-12.369
▁Dora	-12.369
▁officially	-12.369
▁yoD	-12.3696
gets	-12.3697
▁praise	-12.37
▁dEvat	-12.3704
▁Duck	-12.3706
arizwa	-12.3708
▁Bave	-12.3708
▁archer	-12.3709
▁fate	-12.371
▁carcant	-12.3711
udan	-12.3711
▁kOSik	-12.3712
▁eastern	-12.3712
Arya	-12.3715
▁mock	-12.3719
▁follows	-12.3719
smaraRa	-12.3719
▁Agam	-12.372
setu	-12.3724
▁attacks	-12.3724
▁historical	-12.3725
Sava	-12.3728
▁annAdy	-12.3729
▁multi	-12.3729
▁Barbara	-12.373
▁consequence	-12.373
▁equipment	-12.373
▁pilot	-12.373
▁towel	-12.373
▁Bobby	-12.373
▁Mouse	-12.373
▁Bible	-12.3731
SilAjatu	-12.3731
caya	-12.3732
▁Yep	-12.3733
▁cheat	-12.3738
▁etc	-12.3738
▁purse	-12.3739
▁handed	-12.3739
oes	-12.3742
nivid	-12.3746
vESvadeva	-12.3746
star	-12.3747
▁bloody	-12.3749
kapola	-12.3753
▁neighbor	-12.3757
kAkutsTa	-12.3757
kzetrajYa	-12.3757
▁cries	-12.3759
nareSvara	-12.376
▁puRy	-12.3767
▁jYizyat	-12.3767
pAyu	-12.3768
▁vizam	-12.3769
▁employ	-12.3773
▁karz	-12.3776
FF	-12.3777
▁recent	-12.3777
jarAsaMDa	-12.3778
viSvajit	-12.3778
songwriter	-12.3778
▁entrance	-12.3778
▁permission	-12.3778
▁sample	-12.3778
▁Wolf	-12.3778
▁housing	-12.3778
BEzajya	-12.3778
▁repair	-12.3778
▁pardon	-12.3778
▁jury	-12.3779
▁billion	-12.3779
veDas	-12.3785
▁VI	-12.3785
lation	-12.3786
did	-12.379
▁difficulty	-12.3791
▁prakAS	-12.3792
▁causes	-12.3792
▁jam	-12.3796
▁shy	-12.3796
▁smit	-12.3796
▁doctors	-12.3797
ramBA	-12.3797
kun	-12.38
▁Milan	-12.3801
▁sec	-12.3802
hands	-12.3805
▁nAd	-12.3806
▁systems	-12.381
66	-12.3811
prokzaRI	-12.3812
▁ringing	-12.3813
bbing	-12.3814
04	-12.3817
▁recall	-12.382
76	-12.382
urvaSI	-12.3826
▁Welcome	-12.3826
▁UEFA	-12.3826
jamadagni	-12.3826
▁Death	-12.3826
carzaRi	-12.3826
▁Basil	-12.3827
▁1968	-12.3827
piSita	-12.3827
Damani	-12.3827
IrzyA	-12.3828
▁banana	-12.3828
▁Kong	-12.3829
▁flame	-12.3829
▁vidyut	-12.383
▁sambanD	-12.383
nindA	-12.3831
▁dvijottam	-12.3831
▁rAD	-12.3831
jambu	-12.3831
▁DAsya	-12.3833
▁pun	-12.3835
valla	-12.3837
samAsa	-12.3839
91	-12.384
tman	-12.3841
exits	-12.3844
▁Fri	-12.3845
kzepa	-12.3846
anulepana	-12.3848
68	-12.3849
dUrvA	-12.3853
▁bare	-12.3856
hole	-12.3856
vern	-12.3857
RING	-12.3859
guhya	-12.3861
▁SradDA	-12.3866
▁Aylmer	-12.3875
▁Dragon	-12.3875
▁Lieutenant	-12.3875
▁instrument	-12.3875
▁saNkAS	-12.3875
aratni	-12.3875
▁hanyAt	-12.3875
▁1982	-12.3875
awavI	-12.3875
▁debate	-12.3875
▁SfRuyAt	-12.3876
▁writes	-12.3876
▁Wales	-12.3876
▁semi	-12.3877
▁Golden	-12.3877
geha	-12.3878
▁Thus	-12.3878
pUru	-12.3881
▁Dog	-12.3884
▁Bokzyat	-12.3885
▁intention	-12.3886
▁DarmarAj	-12.3889
manvantara	-12.3895
karpUra	-12.3896
pradIpa	-12.3898
SatruGna	-12.3898
stotriya	-12.39
By	-12.3902
nyagroDa	-12.3903
krOYca	-12.3903
aries	-12.3906
vyAla	-12.3907
ander	-12.3907
▁candram	-12.3909
saMsTAna	-12.3909
aNkuSa	-12.3909
▁ray	-12.391
▁dvIp	-12.3914
▁[2	-12.3919
▁saMyug	-12.392
▁praBav	-12.3921
hiraRyakaSipu	-12.3924
azwamI	-12.3924
▁unusual	-12.3924
▁worn	-12.3924
▁Darjat	-12.3925
coming	-12.3925
▁Syrian	-12.3926
▁protection	-12.3928
▁deer	-12.3928
▁BUzaR	-12.3928
aNGri	-12.3928
▁twist	-12.3929
▁Tilly	-12.393
dAman	-12.3934
▁dfzwi	-12.3935
▁Ang	-12.3935
akzata	-12.3943
ajIrRa	-12.3943
jarati	-12.3943
▁aDvar	-12.3946
▁charged	-12.3947
▁whisper	-12.3949
▁eWat	-12.395
▁replace	-12.395
▁drops	-12.3953
33	-12.3956
jalada	-12.3959
gate	-12.3963
▁vAd	-12.3963
when	-12.3968
mahas	-12.3971
kardama	-12.3972
▁delicate	-12.3973
▁principle	-12.3973
▁nominated	-12.3973
▁rifle	-12.3973
▁highly	-12.3974
▁Somebody	-12.3974
▁snip	-12.3974
▁option	-12.3974
▁peep	-12.3975
too	-12.3975
▁Arab	-12.3976
▁colored	-12.3982
nother	-12.3985
▁bears	-12.3985
jarAyu	-12.3987
vAsanA	-12.399
▁sAman	-12.3991
▁engineer	-12.3993
SikzA	-12.3993
▁victims	-12.3996
▁ravi	-12.3997
▁powers	-12.3998
▁SE	-12.4003
upayoga	-12.4005
▁Office	-12.4007
▁photo	-12.4008
ography	-12.401
▁Cap	-12.4014
known	-12.4016
▁mon	-12.4017
▁aSvin	-12.4019
▁dive	-12.4019
▁mood	-12.4021
▁Christopher	-12.4023
▁Greece	-12.4023
▁Northern	-12.4023
▁senior	-12.4023
▁Company	-12.4023
nizkfti	-12.4023
▁1971	-12.4023
suBadrA	-12.4023
apAmArga	-12.4023
▁sector	-12.4024
▁antik	-12.403
▁Fort	-12.4031
▁Ruth	-12.4032
▁amanTat	-12.4033
▁SAnti	-12.4035
▁Lau	-12.4035
sAtmya	-12.404
▁viBAg	-12.4041
gErika	-12.4042
utpAda	-12.4044
upakrama	-12.4044
▁rage	-12.4045
tritaya	-12.4046
hAsa	-12.4046
viraha	-12.405
pUrvAhRa	-12.405
grunts	-12.4051
nimeza	-12.4052
▁lit	-12.4052
klama	-12.4052
pratigraha	-12.4052
saMSraya	-12.4052
▁slave	-12.4054
MAN	-12.4054
jaGana	-12.4061
utkara	-12.4064
also	-12.4065
Just	-12.4067
▁stops	-12.4067
▁instant	-12.4069
▁Region	-12.4071
BE	-12.4072
▁potato	-12.4072
damayantI	-12.4073
aTarvan	-12.4073
▁altogether	-12.4073
▁puppy	-12.4073
▁mistress	-12.4073
▁argue	-12.4073
Without	-12.4074
▁laughter	-12.4075
aSvatTAman	-12.4076
AND	-12.4084
▁realized	-12.4085
yuj	-12.4091
oy	-12.4095
still	-12.4095
ois	-12.4095
▁Cher	-12.4095
Cedana	-12.4097
▁Holy	-12.4098
▁Asia	-12.4099
▁varg	-12.41
▁nfpati	-12.41
bAlA	-12.4111
mis	-12.4114
24	-12.4117
5/	-12.4117
▁teachers	-12.4118
▁tvAn	-12.412
pfTvI	-12.4123
▁Festival	-12.4123
▁Moscow	-12.4123
▁wolf	-12.4123
▁evolution	-12.4123
▁1945	-12.4123
▁committed	-12.4123
▁cabin	-12.4124
▁Nations	-12.4124
▁intended	-12.4128
▁ayujya	-12.4128
▁Nine	-12.413
▁Point	-12.4132
▁climbed	-12.4135
▁huRqet	-12.4136
heti	-12.414
mber	-12.4141
▁Hong	-12.4141
▁madam	-12.4141
▁trains	-12.4142
rAji	-12.4142
47	-12.4145
fish	-12.4147
avasAna	-12.4148
AgrayaRa	-12.4149
▁SAl	-12.4153
▁mini	-12.4154
lated	-12.4156
away	-12.4157
▁types	-12.4165
▁income	-12.4167
▁Des	-12.4167
▁CAN	-12.417
39	-12.417
EC	-12.4173
▁Security	-12.4173
▁Taylor	-12.4173
▁shift	-12.4173
▁Cambridge	-12.4173
▁yojayant	-12.4173
▁debt	-12.4173
▁pattern	-12.4173
▁feast	-12.4173
▁Jimmy	-12.4173
▁unknown	-12.4174
SaNku	-12.4174
lid	-12.4177
▁BAskar	-12.4179
note	-12.4186
paYcaka	-12.4192
tutTa	-12.4192
▁spirits	-12.4193
niraya	-12.42
satkAra	-12.42
vinDya	-12.4202
kubera	-12.4202
takzaka	-12.4203
siMhanAda	-12.4204
▁details	-12.4206
▁shade	-12.4206
SoBA	-12.4209
mAraRa	-12.4209
pUrRamAsa	-12.421
vAsara	-12.421
▁wit	-12.4211
vikraya	-12.4211
▁Soon	-12.4216
japya	-12.4217
▁Matt	-12.4218
hol	-12.4219
two	-12.4221
cock	-12.4221
priyaNgu	-12.4223
▁triangle	-12.4223
▁Personal	-12.4223
▁drain	-12.4224
Aroha	-12.4224
▁impact	-12.4225
▁Director	-12.4225
▁shit	-12.4227
▁bitter	-12.4228
nft	-12.4231
▁raSmi	-12.4231
Th	-12.4236
▁mft	-12.4236
▁vfR	-12.4237
93	-12.4238
screams	-12.4238
▁kfty	-12.4239
▁Sub	-12.424
▁ser	-12.4243
▁vitt	-12.4246
▁kleS	-12.4246
77	-12.4247
Asyam	-12.4247
▁Israeli	-12.4248
▁returns	-12.4251
▁hotAr	-12.4251
▁Part	-12.4251
▁stamB	-12.4257
98	-12.4259
▁Bert	-12.4259
▁vAsav	-12.4261
▁manizya	-12.4264
pizwi	-12.427
▁peas	-12.4272
▁explanation	-12.4274
▁illegal	-12.4274
▁Keith	-12.4274
▁steel	-12.4274
ativizA	-12.4275
▁dvizw	-12.4275
bAlya	-12.4275
▁authorities	-12.4275
yasizyat	-12.4275
▁dining	-12.4275
▁Blo	-12.4275
▁Bl	-12.4276
▁Eastern	-12.4278
▁eagerly	-12.4279
▁apatat	-12.428
▁BrAtfvy	-12.428
▁prasav	-12.428
▁increased	-12.4284
▁soap	-12.4286
▁granT	-12.4287
▁Anna	-12.4288
▁DAma	-12.4289
TP	-12.4291
ogne	-12.4292
▁lands	-12.4292
vIti	-12.4293
▁vahn	-12.4294
▁folk	-12.4307
cEtra	-12.4308
mongst	-12.4312
▁deliver	-12.4315
▁500	-12.4317
▁speaker	-12.4319
vert	-12.4322
dampati	-12.4322
brahmaRaspati	-12.4325
▁responsibility	-12.4325
▁Raymond	-12.4325
▁household	-12.4326
▁illness	-12.4327
▁juhut	-12.4328
yatAm	-12.4329
▁earned	-12.4333
▁belonged	-12.4337
Cadi	-12.4338
patana	-12.4338
kuRqa	-12.434
▁Vaud	-12.4343
pradiS	-12.4343
▁Moon	-12.4344
ites	-12.4345
▁joint	-12.4346
parimARa	-12.435
Gu	-12.4351
▁Mol	-12.4353
valmIka	-12.4354
▁Arm	-12.4354
▁pApAm	-12.4355
mahendra	-12.4356
haritAla	-12.4357
citrasena	-12.4357
vESravaRa	-12.4357
▁pill	-12.4357
cAtvAla	-12.4358
parijana	-12.4358
▁customer	-12.4358
tryambaka	-12.4359
rite	-12.4361
vAmadeva	-12.4362
anumati	-12.4366
▁drinks	-12.4366
▁roz	-12.4368
▁actual	-12.4373
daSana	-12.4376
▁Flossie	-12.4377
▁technology	-12.4377
▁torture	-12.4377
▁Dale	-12.4378
▁pASayizya	-12.4378
▁fox	-12.4385
zyante	-12.4386
MI	-12.4386
▁louder	-12.4387
▁chairs	-12.439
▁hfzyat	-12.4391
ann	-12.4391
▁sew	-12.4393
▁vimAn	-12.4394
▁sixth	-12.4396
▁pretending	-12.4396
▁yer	-12.4398
mie	-12.4399
viSvAsa	-12.4405
▁traditional	-12.4407
girl	-12.4407
▁hid	-12.4407
avaBfTa	-12.4408
▁SfRutA	-12.4414
▁Newman	-12.4414
ADmAna	-12.4417
enters	-12.4418
aRu	-12.4421
parAvat	-12.4422
foot	-12.4424
▁scientists	-12.4426
▁parAyaR	-12.4428
▁slight	-12.4428
▁scientific	-12.4428
▁fetch	-12.4428
▁yojayet	-12.4428
▁ajYApaya	-12.4428
▁importance	-12.4428
▁curtain	-12.4428
▁Bunny	-12.4429
utkarza	-12.4429
etti	-12.443
▁HIS	-12.4431
▁occupied	-12.4436
▁tank	-12.4436
sPuw	-12.4439
dad	-12.4439
▁Jay	-12.444
yAga	-12.444
oper	-12.444
70	-12.4445
LIN	-12.445
posing	-12.4451
LES	-12.4452
▁millions	-12.4454
▁kings	-12.446
rT	-12.446
▁cord	-12.446
▁Aha	-12.4461
arocaka	-12.4462
rocana	-12.4464
▁OUT	-12.4465
▁skill	-12.4466
jAnIt	-12.4475
▁data	-12.4476
Brian	-12.4477
Some	-12.448
▁kzaye	-12.448
▁Portugal	-12.448
▁industrial	-12.448
▁Sweet	-12.448
▁turkey	-12.448
▁1977	-12.448
▁1964	-12.448
▁stool	-12.448
Bramara	-12.448
▁Mount	-12.4481
▁Vice	-12.4486
▁aMh	-12.4486
▁ganDam	-12.4486
▁Must	-12.4488
▁signs	-12.449
▁han	-12.4495
▁driven	-12.4495
vasati	-12.4496
▁voted	-12.4498
▁letting	-12.4501
upakaraRa	-12.4502
▁rev	-12.4503
Your	-12.4503
Sulka	-12.4504
sani	-12.4505
fire	-12.4507
tAlu	-12.4507
▁vedanA	-12.4507
▁humans	-12.451
Gawotkaca	-12.451
sEnika	-12.4513
gajapuwa	-12.4516
26	-12.4521
jvalana	-12.4521
crow	-12.4523
▁launch	-12.4526
bun	-12.453
kzattf	-12.4532
anukampA	-12.4532
▁Argentina	-12.4532
▁Rimbolt	-12.4532
▁nephew	-12.4532
▁Douglas	-12.4532
▁sunshine	-12.4532
▁evidently	-12.4534
▁gavi	-12.4538
▁iz	-12.4539
▁Center	-12.4539
BUnAga	-12.454
▁Top	-12.4543
▁devadev	-12.4544
rasarAja	-12.4545
▁ajYAt	-12.4549
▁icCA	-12.4549
▁environmental	-12.4552
▁DAraR	-12.4556
▁Bat	-12.4557
▁Hard	-12.4565
vfji	-12.4566
▁marble	-12.4569
▁wipe	-12.4569
FE	-12.457
wise	-12.457
dattAm	-12.4571
▁ABaraR	-12.4571
61	-12.4575
▁Championships	-12.4579
▁pole	-12.458
yuNkt	-12.458
sAti	-12.4582
▁svaDA	-12.4584
pratizWiti	-12.4584
▁Bishop	-12.4584
▁Twenty	-12.4584
▁jfmBat	-12.4584
▁seventeen	-12.4584
▁stupid	-12.4584
▁surgery	-12.4584
▁umbrella	-12.4584
▁website	-12.4584
▁dawn	-12.4584
▁cartoon	-12.4585
▁Snow	-12.4586
vAla	-12.4589
gara	-12.4589
▁Social	-12.459
AlApa	-12.4591
▁stable	-12.4592
▁Sandra	-12.4593
kAminI	-12.4594
▁DArtarAzwr	-12.4594
▁donkey	-12.4594
vapuH	-12.4596
▁jAyayizya	-12.4599
▁anft	-12.4599
Ardraka	-12.4604
▁expecting	-12.4611
▁pAR	-12.4612
▁Fun	-12.4615
turn	-12.4619
ulUka	-12.462
bou	-12.4627
▁Trans	-12.4628
▁apAlaya	-12.4633
▁needle	-12.4636
▁injured	-12.4637
▁maMsya	-12.4637
▁nuclear	-12.4637
saptati	-12.4637
▁foolish	-12.4638
▁vasizyat	-12.4638
▁connect	-12.4639
cUta	-12.4639
▁visitors	-12.4641
stead	-12.4641
▁peasant	-12.4644
▁Train	-12.4644
▁koS	-12.4645
▁2020.	-12.4651
▁mAly	-12.4652
Amra	-12.4652
rAti	-12.4652
lets	-12.4652
▁worthy	-12.4652
TT	-12.4653
▁Pass	-12.4656
dyumna	-12.4658
▁parade	-12.4658
▁shout	-12.4661
kOtuka	-12.4661
hila	-12.4664
vAditra	-12.4666
yuyuDAna	-12.4667
aBijana	-12.4667
dAyAda	-12.4667
prahlAda	-12.4667
nidarSana	-12.4667
▁march	-12.4669
jImUta	-12.4669
mAtuluNga	-12.4669
gANgeya	-12.4671
▁maid	-12.4671
put	-12.4674
Kanu	-12.4676
ruca	-12.4677
leg	-12.4678
▁votes	-12.4678
▁harder	-12.4683
kola	-12.4684
▁dinosaurs	-12.4686
cover	-12.4687
svAhA	-12.469
dvAdaSI	-12.469
prasenajit	-12.469
vajrin	-12.469
▁confused	-12.469
▁counsel	-12.469
▁solemn	-12.469
▁violence	-12.469
▁session	-12.469
▁Oxfordshire	-12.469
▁1946	-12.469
▁hoqant	-12.469
spfhA	-12.469
gokarRa	-12.4691
antra	-12.4691
▁selected	-12.4693
▁stolen	-12.4693
▁barely	-12.4694
▁symptoms	-12.4697
yuvati	-12.4698
▁apAt	-12.4699
look	-12.4699
▁healthy	-12.4703
ndo	-12.4705
▁brings	-12.4706
antarAtman	-12.471
aMSuka	-12.4711
▁ugh	-12.4713
gives	-12.4715
▁lin	-12.4716
▁steam	-12.4721
▁shortly	-12.4722
apavarga	-12.4723
▁puroqAS	-12.4724
▁mAtre	-12.4731
▁ewat	-12.4739
from	-12.474
uparasa	-12.4741
▁vasant	-12.4742
▁crisis	-12.4743
▁lobster	-12.4743
▁paYcizyat	-12.4743
▁Nonna	-12.4743
▁pavizya	-12.4743
▁pursue	-12.4744
baby	-12.4745
▁nursery	-12.4745
pulls	-12.4747
making	-12.4749
▁succeeded	-12.4749
54	-12.475
▁pAlayet	-12.4755
SivA	-12.4756
fir	-12.476
vyaTa	-12.4765
▁Eh	-12.4766
▁manAMs	-12.4767
▁mahApurAR	-12.4769
▁sanDi	-12.4781
▁astaye	-12.4781
▁apaty	-12.4783
kzara	-12.4783
hir	-12.4785
▁lab	-12.4786
▁mist	-12.4786
▁touching	-12.4787
▁Bram	-12.4793
▁fu	-12.4793
tviz	-12.4796
▁editor	-12.4797
▁distress	-12.4797
▁survey	-12.4797
▁keen	-12.4797
▁activity	-12.4797
▁1959	-12.4797
Alasya	-12.4797
▁advise	-12.4797
▁majority	-12.4798
▁gAv	-12.4798
▁comin	-12.4799
gaRqa	-12.48
▁narADip	-12.4802
▁Linda	-12.4802
▁Kira	-12.4803
▁vacation	-12.4805
56	-12.4806
▁golf	-12.4807
▁resources	-12.4813
▁speaks	-12.4813
▁puzkar	-12.4814
olo	-12.4815
him	-12.4815
dorf	-12.4815
uzRa	-12.4819
gAruqa	-12.482
mahABUta	-12.4823
SiSira	-12.4826
pratizeDa	-12.4828
prapitAmaha	-12.4829
agAra	-12.4829
aparAhRa	-12.483
▁mADav	-12.483
pradyumna	-12.4831
pulastya	-12.4833
veSyA	-12.4834
▁holidays	-12.4835
▁affairs	-12.4839
▁fuss	-12.4841
63	-12.4843
▁Islands	-12.4843
▁bent	-12.4843
▁SIlat	-12.4848
Look	-12.4849
zRAt	-12.4849
▁scholar	-12.485
paraSvaDa	-12.485
▁executive	-12.485
▁grain	-12.485
▁proposal	-12.485
▁icecream	-12.485
ground	-12.485
▁powder	-12.485
▁railway	-12.4851
▁1974	-12.4851
▁vasat	-12.4852
▁organized	-12.4854
ool	-12.4855
kaca	-12.4855
▁captured	-12.4855
▁goat	-12.4858
▁Bru	-12.4863
▁bore	-12.4866
▁kazAy	-12.4867
▁pressed	-12.4868
PS	-12.487
vami	-12.4871
sagara	-12.4873
payasyA	-12.4874
▁Aren	-12.488
priyA	-12.4881
yasyati	-12.4882
03	-12.4883
▁hol	-12.4886
▁Talk	-12.4887
▁madat	-12.4893
pARqaveya	-12.4893
▁Ash	-12.4897
▁Columbia	-12.4904
▁Shakespeare	-12.4904
▁worship	-12.4904
▁widow	-12.4904
▁yujyant	-12.4905
mbaram	-12.4905
▁loving	-12.4905
▁SIkayat	-12.4905
▁strain	-12.4906
▁ajAyaya	-12.4906
▁Nat	-12.4908
▁adopted	-12.4909
▁previously	-12.491
▁arrangement	-12.491
arGa	-12.4913
▁cows	-12.4914
imp	-12.4919
Silpa	-12.4919
▁HIM	-12.4919
▁amAty	-12.4924
▁slaves	-12.4926
▁sUte	-12.4931
Boja	-12.4932
DOmya	-12.4933
▁ending	-12.4934
▁scr	-12.4935
▁raining	-12.4935
anurUpa	-12.4936
▁vfzwi	-12.4936
▁fighter	-12.4937
▁sADan	-12.4938
▁Dave	-12.4938
utpAta	-12.4938
utsarga	-12.4938
▁cops	-12.4943
vfdDa	-12.4943
▁commander	-12.4945
▁kfqe	-12.4946
padmaka	-12.4947
▁directions	-12.4947
▁seasons	-12.4947
▁dAtA	-12.4955
▁severe	-12.4956
▁muhyat	-12.4959
▁potential	-12.4959
▁sprang	-12.4959
▁thief	-12.4959
▁Tokyo	-12.4959
▁shining	-12.4959
▁consent	-12.4959
▁costume	-12.4959
hon	-12.4959
▁Esther	-12.4959
▁basically	-12.4959
▁cliff	-12.4959
▁viSvAmitr	-12.4959
▁lane	-12.4963
hop	-12.4964
boo	-12.4967
El	-12.4968
mfD	-12.4969
rage	-12.497
▁nickname	-12.4974
cast	-12.4976
▁nidrA	-12.4977
▁AD	-12.4981
▁tuz	-12.4981
▁fled	-12.4983
svastyayana	-12.4983
kumuda	-12.4983
bimba	-12.4985
suvarga	-12.4986
raktapitta	-12.4988
ranDra	-12.4989
BS	-12.4989
BallAtaka	-12.4992
▁Flo	-12.4993
ruza	-12.4997
▁runD	-12.5001
▁hoo	-12.5002
Sambara	-12.5005
vAdya	-12.5006
▁Bud	-12.5011
BujaMga	-12.5012
▁buck	-12.5012
bird	-12.5013
SarIrin	-12.5013
saMtoza	-12.5013
kAkamAcI	-12.5013
▁Reliance	-12.5013
▁envelope	-12.5013
▁motorcycle	-12.5013
▁sufficient	-12.5013
▁Clark	-12.5013
▁vidANkurutA	-12.5013
▁jozayat	-12.5013
▁vrAjayat	-12.5013
▁Celia	-12.5014
▁Anything	-12.5014
▁1975	-12.5014
▁yajant	-12.5014
dog	-12.5015
▁parizyat	-12.5015
▁flies	-12.5015
▁online	-12.5016
sAdana	-12.5019
aGora	-12.5028
▁mAz	-12.5029
lier	-12.5029
▁sUkt	-12.5034
▁rolled	-12.5035
▁hath	-12.5036
▁bfhaspat	-12.5037
▁Hank	-12.5038
▁trEloky	-12.5038
▁dim	-12.5041
vibuDa	-12.5046
▁darp	-12.5048
▁suhfd	-12.505
▁artists	-12.505
▁cleaning	-12.5052
▁Romans	-12.5055
horn	-12.5058
self	-12.5061
▁acted	-12.5062
▁presented	-12.5065
▁relations	-12.5065
puronuvAkyA	-12.5068
▁BaYjat	-12.5068
▁changing	-12.5068
▁huRqant	-12.5068
▁jYApayet	-12.5068
▁heavily	-12.5068
▁XX	-12.5068
▁insult	-12.5068
▁Kur	-12.5069
▁1947	-12.5069
▁duties	-12.5069
▁COME	-12.5069
upahAra	-12.5069
▁0	-12.507
▁palAS	-12.5072
doha	-12.5074
▁yozit	-12.5077
boat	-12.5077
▁abd	-12.5078
▁svan	-12.5078
klid	-12.5079
▁bud	-12.5079
▁poo	-12.5081
viSezaRa	-12.5081
yugala	-12.5083
▁Reg	-12.509
▁holant	-12.509
vAmana	-12.5096
get	-12.5096
▁products	-12.5101
bell	-12.5107
mill	-12.5107
bad	-12.5112
▁Islam	-12.5112
▁kuS	-12.5114
▁prAyaScitt	-12.5115
▁pannag	-12.5118
▁Russians	-12.512
▁cheerful	-12.5121
itz	-12.5121
▁Turkish	-12.5124
▁anxiety	-12.5124
▁attorney	-12.5124
▁disgust	-12.5124
▁possibility	-12.5124
▁quality	-12.5124
▁squirrel	-12.5124
pfcI	-12.5124
▁creep	-12.5124
▁essay	-12.5124
▁emergency	-12.5124
▁stir	-12.5124
▁Brazilian	-12.5124
parAjaya	-12.5125
▁Justice	-12.5125
▁poem	-12.5126
▁SudDi	-12.5126
▁solve	-12.5126
▁Persian	-12.5127
▁gazed	-12.5128
Palaka	-12.5128
▁vEr	-12.513
DAraRA	-12.513
▁chairman	-12.513
kalpanA	-12.5132
hear	-12.5132
avaSeza	-12.5136
▁vede	-12.5138
▁jaw	-12.5142
Kura	-12.5146
ello	-12.5148
kOtUhala	-12.515
num	-12.5152
▁35	-12.5152
ott	-12.5154
▁juzat	-12.5154
upalabDi	-12.5154
rAjasUya	-12.5157
▁vAhan	-12.5157
cyavana	-12.5159
tArkzya	-12.516
▁cAp	-12.5162
▁cheek	-12.5166
▁ticket	-12.5166
pAWa	-12.5167
▁Samat	-12.5168
▁ESvary	-12.5171
▁descend	-12.5173
▁pine	-12.5173
SaMtanu	-12.5179
▁negative	-12.5179
▁Apollo	-12.5179
▁nickel	-12.5179
▁mAdyat	-12.5179
▁thunder	-12.5179
▁behave	-12.5179
▁tummy	-12.5179
▁wreck	-12.5179
▁blew	-12.518
▁vigrah	-12.518
▁hUrCant	-12.518
▁Bridge	-12.518
sible	-12.5181
▁classes	-12.5181
▁ban	-12.5182
58	-12.5184
dict	-12.5185
▁advanced	-12.5188
Artava	-12.5189
45	-12.5193
▁packed	-12.5193
▁Sim	-12.5193
Sram	-12.5195
viniScaya	-12.5197
▁Ye	-12.5199
vizARa	-12.5199
nIra	-12.5201
ckle	-12.5203
27	-12.5208
▁prezya	-12.5209
viDAtf	-12.5212
▁Bajat	-12.5214
diti	-12.5217
▁dressing	-12.5218
▁Tam	-12.5222
▁SarkarA	-12.5223
85	-12.5223
life	-12.5224
▁rakzas	-12.5226
daMSa	-12.5228
28	-12.5233
▁Turkey	-12.5235
▁activities	-12.5235
▁steak	-12.5235
prasUti	-12.5235
▁Polish	-12.5235
▁basis	-12.5235
bility	-12.5236
starts	-12.5237
devadAru	-12.5237
▁compared	-12.5238
▁manu	-12.5241
IE	-12.5241
▁stocking	-12.5246
▁marks	-12.5246
pawu	-12.5248
▁latA	-12.5252
kaRA	-12.5253
varA	-12.5253
▁ward	-12.5255
▁mahiz	-12.5258
▁pretends	-12.5261
mates	-12.5266
▁prime	-12.527
rAG	-12.5271
atIsAra	-12.5273
mfgayA	-12.5273
force	-12.5274
▁tune	-12.5274
aunt	-12.5278
▁Stand	-12.5279
▁cintA	-12.528
▁introduce	-12.5285
▁Korea	-12.5286
alABa	-12.5287
vallI	-12.5289
kamaRqalu	-12.5291
AhitAgni	-12.5291
▁Colonel	-12.5291
▁Pennsylvania	-12.5291
▁Scholarship	-12.5291
▁Through	-12.5291
▁complex	-12.5291
▁Scarfe	-12.5291
▁whistle	-12.5291
▁Division	-12.5291
▁1956	-12.5291
▁Singh	-12.5292
▁venture	-12.5292
▁arRav	-12.5293
KyAti	-12.5294
▁amBa	-12.5296
▁Bfty	-12.5298
DUSa	-12.5298
▁kziyat	-12.53
▁dIpyat	-12.5302
▁Fur	-12.5303
DS	-12.5303
rov	-12.5304
▁tIr	-12.5305
rod	-12.5306
▁pronounced	-12.5306
▁commission	-12.5307
▁Corn	-12.5308
ArADana	-12.5315
trARa	-12.5323
grAha	-12.5324
kukkuwa	-12.5325
kekaya	-12.5326
▁samiD	-12.5326
vAjapeya	-12.5327
▁bil	-12.5327
BUDara	-12.5327
▁chat	-12.5327
och	-12.5327
PER	-12.5328
▁kuRqal	-12.5329
saMsparSa	-12.5329
▁tak	-12.5329
sevana	-12.5329
utsaNga	-12.5331
viSiKa	-12.5331
inDI	-12.5332
vyajana	-12.5335
any	-12.5338
leKA	-12.5339
▁banks	-12.5341
▁fee	-12.5341
▁aml	-12.5342
83	-12.5342
gopA	-12.5344
▁gfhapati	-12.5345
▁ajYAn	-12.5347
harItakI	-12.5348
upanizad	-12.5348
▁impression	-12.5348
▁Patrick	-12.5348
▁generation	-12.5348
▁squad	-12.5348
▁interfere	-12.5348
▁strict	-12.5348
▁labour	-12.5348
▁kzevat	-12.5348
▁punishment	-12.5348
▁consul	-12.5348
▁Jungle	-12.5349
▁thoroughly	-12.5349
tvak	-12.5349
vftrahan	-12.5349
▁huqant	-12.5349
▁Ezyat	-12.535
▁inquired	-12.535
▁iyAt	-12.535
▁Ready	-12.5351
▁buying	-12.5353
▁tur	-12.5353
▁youngest	-12.5358
vrAtya	-12.5359
▁dude	-12.5362
▁dared	-12.5366
print	-12.5369
▁blowing	-12.537
52	-12.5375
bach	-12.5376
Sukti	-12.538
▁aBrak	-12.5383
▁vapA	-12.5384
▁muYcizya	-12.5384
upaBoga	-12.5386
▁Chang	-12.5387
▁mUrti	-12.5387
▁camps	-12.5389
▁asTi	-12.539
▁survive	-12.5398
kraya	-12.5404
nAwya	-12.5404
▁Hungarian	-12.5404
▁Hungary	-12.5404
▁Lincoln	-12.5404
▁bronze	-12.5404
▁Commission	-12.5404
▁duhitar	-12.5404
▁pumpkin	-12.5405
▁charges	-12.5405
uSanas	-12.5405
▁1967	-12.5405
▁1940	-12.5405
▁cArayizya	-12.5405
▁Driyat	-12.5406
▁capable	-12.5406
▁threatened	-12.541
blo	-12.5415
▁nowhere	-12.5416
▁bottles	-12.5418
▁poured	-12.5419
word	-12.5421
▁THEY	-12.5422
▁sarasvatI	-12.5422
viyoga	-12.5426
▁deco	-12.5427
then	-12.543
▁Op	-12.5434
▁mistakes	-12.5435
chen	-12.5441
AtmajA	-12.5442
ured	-12.5443
pUga	-12.5448
▁cakzus	-12.5448
▁pointing	-12.5448
▁parR	-12.5449
▁Brand	-12.545
linda	-12.5451
▁succeed	-12.5455
cord	-12.5456
▁cents	-12.5456
ural	-12.5458
▁agnizwom	-12.5459
SrezWin	-12.5462
▁execution	-12.5462
▁suicide	-12.5462
▁yuYjat	-12.5462
▁Mountain	-12.5462
▁Nikki	-12.5462
▁Until	-12.5462
kaliNgasenA	-12.5462
▁1948	-12.5462
power	-12.5463
▁efforts	-12.5464
hanu	-12.5468
▁solid	-12.5469
hums	-12.547
manyata	-12.5477
▁claims	-12.5478
jamBa	-12.5482
▁fits	-12.5487
many	-12.5487
koRa	-12.5487
cihna	-12.5488
▁Willy	-12.5489
using	-12.5491
vEzamya	-12.5492
jAmadagnya	-12.5495
maRqUka	-12.5499
pawwa	-12.55
paryaNka	-12.55
samUha	-12.5501
▁daDI	-12.5503
SramaRa	-12.5503
will	-12.5507
▁banDu	-12.5509
▁invite	-12.551
sparSana	-12.5512
▁refuse	-12.5513
▁saMhitA	-12.5513
▁programs	-12.5514
▁harzat	-12.5514
meza	-12.5517
▁entertain	-12.5517
ambikA	-12.5519
mEtrI	-12.5519
▁calendar	-12.5519
▁carcayizya	-12.5519
▁happily	-12.5519
▁horrid	-12.5519
▁ummhm	-12.5519
▁bishop	-12.5519
▁invitation	-12.5519
▁robber	-12.5519
▁zebra	-12.5519
▁Metropolitan	-12.5519
▁carcet	-12.5519
▁duhitA	-12.5519
▁ahnuyAt	-12.5519
janakAtmajA	-12.552
▁prospect	-12.552
parzad	-12.552
continues	-12.552
▁Irene	-12.552
▁Find	-12.5521
▁Order	-12.5521
script	-12.5521
▁Poland	-12.5522
mont	-12.5523
▁Eight	-12.5523
▁gat	-12.5525
▁spoons	-12.5526
jiriRot	-12.5529
▁Forest	-12.5531
malla	-12.5532
dition	-12.5533
▁aloud	-12.5533
▁Kaqg	-12.5535
▁sTiti	-12.5536
▁rAjanya	-12.5537
▁sAyak	-12.5537
▁begged	-12.5539
▁degrees	-12.5542
▁spending	-12.5544
▁Line	-12.5549
▁Dean	-12.555
▁Check	-12.5552
▁SlezmA	-12.5559
kaNka	-12.556
srAva	-12.5561
▁trail	-12.5563
▁SAk	-12.5565
▁Bou	-12.5567
ancy	-12.5568
▁feathers	-12.557
umApati	-12.557
71	-12.5575
dviz	-12.5577
jizRu	-12.5577
viBAvasu	-12.5577
▁impatient	-12.5577
▁Drummond	-12.5577
▁purchase	-12.5577
▁spaghetti	-12.5577
▁valuable	-12.5577
▁admitted	-12.5578
▁SoBat	-12.558
▁aditi	-12.558
viBava	-12.5582
▁BY	-12.5583
▁vadizya	-12.5583
▁Girls	-12.5583
viBAzA	-12.5584
▁stern	-12.5584
▁SC	-12.5586
▁vivAh	-12.5587
▁Marine	-12.559
▁clothing	-12.559
▁Julie	-12.5593
mith	-12.5597
▁Aw	-12.5597
imid	-12.5598
▁breathing	-12.56
▁Justin	-12.5602
ulmuka	-12.5604
▁skip	-12.5604
▁gla	-12.5615
▁pfTivyA	-12.5616
▁ari	-12.5618
▁Bfgu	-12.5621
nada	-12.5621
▁SravaR	-12.5622
▁bend	-12.5623
akAra	-12.5624
▁Tree	-12.5624
hizka	-12.5625
▁citizens	-12.5629
▁units	-12.563
▁guitar	-12.5633
▁distinct	-12.5634
▁resist	-12.5635
devarzi	-12.5635
▁Probably	-12.5635
▁Windows	-12.5635
▁quarrel	-12.5635
▁plebe	-12.5635
▁Wonder	-12.5635
▁pUrizyat	-12.5635
tArakA	-12.5635
▁representative	-12.5635
▁backwards	-12.5635
▁1973	-12.5635
▁Hoover	-12.5636
▁SAmyat	-12.5636
▁childhood	-12.5636
▁Raby	-12.5637
▁daughters	-12.5637
▁Hope	-12.5638
▁IkzaR	-12.5638
▁anyhow	-12.564
▁hun	-12.5641
paper	-12.5641
▁Tin	-12.5642
anuvAkyA	-12.5642
▁transfer	-12.5643
rodasI	-12.5644
taras	-12.5644
▁echo	-12.5647
▁comic	-12.5648
▁Sky	-12.5649
▁Rick	-12.565
42	-12.565
▁Monte	-12.565
▁elections	-12.5654
▁kzat	-12.5654
▁yOvan	-12.5659
upavana	-12.566
CL	-12.5662
▁yujyet	-12.5662
BAzita	-12.5662
▁shovel	-12.5662
jAmbUnada	-12.5663
▁SOc	-12.5664
vErAgya	-12.5665
laNGana	-12.5665
Sibira	-12.5666
puRqarIka	-12.5666
svAtantrya	-12.5667
▁beating	-12.5668
▁figured	-12.5669
UM	-12.567
anupAna	-12.5671
dASArha	-12.5671
kuwaja	-12.5672
▁Lill	-12.5672
SOnaka	-12.5673
kesara	-12.5675
dahana	-12.5677
upasTAna	-12.5679
napAt	-12.5681
arms	-12.5686
kAzWA	-12.5687
▁spoil	-12.5687
TS	-12.569
▁Ag	-12.5692
nirvfti	-12.5693
SatAvarI	-12.5693
maTurA	-12.5693
▁Special	-12.5694
▁syllable	-12.5694
▁Lewis	-12.5694
▁jajAyAt	-12.5694
▁distant	-12.5694
▁1965	-12.5694
▁existence	-12.5694
▁confident	-12.5695
chy	-12.5696
▁Margot	-12.5697
▁BUT	-12.5698
▁Egyptian	-12.5698
▁Sen	-12.5699
card	-12.57
-1	-12.5701
woman	-12.5701
▁affected	-12.5701
saKa	-12.5702
ridge	-12.5703
▁suggestion	-12.5707
▁vyAD	-12.5707
▁avAdaya	-12.5709
gomuKa	-12.5711
▁dread	-12.5712
sArTa	-12.5716
▁tales	-12.572
keli	-12.572
▁Ow	-12.5731
▁element	-12.5742
▁Cast	-12.5745
▁spark	-12.5745
▁Vale	-12.5747
▁Wil	-12.5748
▁wealth	-12.5748
sakTi	-12.5752
▁surrounded	-12.5752
▁Harvey	-12.5752
▁thrust	-12.5752
▁goddess	-12.5752
▁Harris	-12.5753
▁merely	-12.5753
▁Morgan	-12.5753
▁vAjin	-12.5754
▁yuDyat	-12.5754
▁pArayet	-12.5755
jatru	-12.5756
ending	-12.5757
▁fucking	-12.5758
51	-12.576
▁(18	-12.576
▁dvez	-12.5763
▁narmadA	-12.5763
▁momma	-12.5767
ngel	-12.5768
▁carizyat	-12.5768
▁hip	-12.5768
▁Rh	-12.5768
▁Woman	-12.5769
▁HERE	-12.5769
▁commonly	-12.5769
▁PalAn	-12.5771
▁pee	-12.5771
▁addressed	-12.5771
mAtraka	-12.5776
nayuta	-12.578
▁jAraR	-12.5784
▁counting	-12.5787
▁vasti	-12.5789
▁Rob	-12.5791
▁UN	-12.5792
▁vegetables	-12.5793
Dfz	-12.5794
▁feature	-12.5795
apasmAra	-12.5796
▁brahmacary	-12.5796
▁damn	-12.5799
wait	-12.5801
▁sleepy	-12.5802
▁parent	-12.5804
cky	-12.5805
damu	-12.5808
▁Kam	-12.581
▁Exactly	-12.5812
▁Harvard	-12.5812
▁Pakistan	-12.5812
▁solution	-12.5812
▁insurance	-12.5812
▁generous	-12.5812
▁vartizyat	-12.5812
▁annual	-12.5812
▁SIBat	-12.5812
▁1942	-12.5812
▁Bozo	-12.5812
▁drift	-12.5812
▁dropping	-12.5812
▁Having	-12.5813
▁Glen	-12.5813
▁chick	-12.5816
chin	-12.5816
eyed	-12.5819
▁normally	-12.582
danti	-12.5821
▁Dfzwadyumn	-12.5822
sOvIra	-12.5823
vinatA	-12.5827
▁Sid	-12.5827
▁Sruti	-12.5828
apas	-12.583
▁manT	-12.583
82	-12.5834
▁Moor	-12.5836
▁rein	-12.5837
durita	-12.584
▁gagan	-12.5841
saDasTa	-12.5842
prajanana	-12.5843
▁amitr	-12.5844
▁bind	-12.5845
▁stores	-12.5846
Socis	-12.5848
▁svasti	-12.5848
▁formal	-12.5848
niHSvAsa	-12.5848
prakopa	-12.5849
viveka	-12.5849
yUTa	-12.585
yAtuDAna	-12.5851
puRqarIkAkza	-12.5852
mastaka	-12.5852
svedana	-12.5853
saMyama	-12.5853
Bagadatta	-12.5854
kadamba	-12.5854
mOna	-12.5854
▁subjects	-12.5856
BUman	-12.586
▁aDipati	-12.5863
▁interrupt	-12.5865
▁boD	-12.5866
DUza	-12.587
▁vikalp	-12.587
nner	-12.587
▁minor	-12.5871
nezwf	-12.5871
▁Aubrey	-12.5871
▁Museum	-12.5871
▁application	-12.5871
▁appointment	-12.5871
▁naughty	-12.5871
▁tunnel	-12.5871
▁ciriR	-12.5871
▁creation	-12.5871
▁Children	-12.5871
▁breed	-12.5871
▁raRe	-12.5872
▁concept	-12.5872
▁Iranian	-12.5872
jAgf	-12.5872
▁considerable	-12.5872
gli	-12.5876
▁eatin	-12.5876
▁citrak	-12.5876
vErAja	-12.5877
▁Korean	-12.5877
▁nizk	-12.5877
run	-12.5879
avyaya	-12.5881
though	-12.5881
▁naturally	-12.5882
81	-12.5883
BAgya	-12.5886
pAdukA	-12.5889
▁heman	-12.5891
trayI	-12.5891
deSanA	-12.5892
▁ding	-12.5892
chester	-12.5898
▁vyasan	-12.5906
▁Victor	-12.5907
▁dreamed	-12.5908
▁Lion	-12.591
upaGAta	-12.5911
▁Slok	-12.5911
anu	-12.5914
vyaYjana	-12.5914
▁BAvayizy	-12.5919
▁janapad	-12.5924
▁exact	-12.5929
▁Federal	-12.5931
▁Follow	-12.5931
▁Matthew	-12.5931
▁enormous	-12.5931
▁suitcase	-12.5931
▁sweep	-12.5931
padminI	-12.5931
sUci	-12.5931
▁Absolutely	-12.5931
▁1943	-12.5931
▁Valley	-12.5931
bandin	-12.5932
▁boring	-12.5932
▁Whit	-12.5934
▁labor	-12.5935
▁revealed	-12.5935
▁briefly	-12.5936
▁Astay	-12.5937
▁Lucy	-12.5938
sAdin	-12.594
7/	-12.594
▁verse	-12.5942
▁saNgrah	-12.5946
EST	-12.5948
▁paryant	-12.5949
Man	-12.595
▁candle	-12.5951
high	-12.5955
▁Hang	-12.5956
▁shared	-12.5959
tUrya	-12.5961
▁graham	-12.5963
sPura	-12.5963
▁sarit	-12.5971
41	-12.5976
lash	-12.598
▁aDar	-12.598
▁iqA	-12.598
▁nArI	-12.5981
0.	-12.5981
▁bin	-12.5984
▁camas	-12.5989
▁operate	-12.599
▁mUrDAn	-12.5991
▁Jordan	-12.5991
▁festival	-12.5991
▁reckon	-12.5991
▁dragged	-12.5991
▁awoh	-12.5991
▁intense	-12.5991
nikfti	-12.5993
ipped	-12.5994
taskara	-12.5994
▁paryAy	-12.5996
▁tAp	-12.5997
▁Mmm	-12.5997
▁Parker	-12.6002
▁remarked	-12.6002
▁Nord	-12.6007
pratIkAra	-12.601
▁asyant	-12.6011
nov	-12.6013
▁views	-12.6018
mahAvrata	-12.6019
▁Mid	-12.602
▁gOrav	-12.602
▁aSve	-12.6024
sOvarcala	-12.6026
mOktika	-12.6027
CAga	-12.6027
SU	-12.6028
won	-12.6028
apAya	-12.6029
ADAna	-12.603
kaYcuka	-12.603
SAlva	-12.603
samavAya	-12.6031
paricCada	-12.6033
vrAta	-12.6037
▁sap	-12.6041
udge	-12.6042
▁knight	-12.6044
▁burnt	-12.6045
▁SIlayat	-12.6048
▁aBay	-12.605
sAmiDenI	-12.6052
saMkarzaRa	-12.6052
▁FIFA	-12.6052
▁Grafton	-12.6052
▁LIKE	-12.6052
▁grief	-12.6052
▁junction	-12.6052
▁persuade	-12.6052
kfttikA	-12.6052
▁Channel	-12.6052
nalinI	-12.6052
▁pirate	-12.6052
▁Crown	-12.6052
pinAkin	-12.6052
▁ozaD	-12.6052
▁vidur	-12.6053
SacIpati	-12.6053
saMDAna	-12.6054
▁Wind	-12.6054
▁Trust	-12.6055
vAsavadattA	-12.6055
▁stopping	-12.6055
▁beaten	-12.6056
Uha	-12.6058
▁dealing	-12.606
vivAda	-12.6062
▁Cub	-12.6063
▁indizyat	-12.6063
▁claimed	-12.6064
May	-12.6066
▁durg	-12.6069
▁dime	-12.6074
▁saNg	-12.6078
sumanas	-12.6078
▁dugD	-12.6079
▁Bow	-12.608
▁compete	-12.6082
toraRa	-12.6084
▁rukm	-12.6086
▁wag	-12.6087
▁tryin	-12.6092
▁midst	-12.6092
▁HI	-12.6095
▁bur	-12.6097
noises	-12.6101
▁prayer	-12.6103
fine	-12.6104
daRqaka	-12.6104
agraja	-12.6105
▁respond	-12.6106
styl	-12.6107
▁channels	-12.6108
▁cleared	-12.6108
mIna	-12.6112
tftIyA	-12.6113
▁Assembly	-12.6113
▁WWE	-12.6113
▁arrival	-12.6113
▁greenbelt	-12.6113
▁license	-12.6113
whimper	-12.6113
▁contest	-12.6113
▁vandizya	-12.6113
▁quack	-12.6113
▁refrigerator	-12.6113
▁1951	-12.6113
▁1952	-12.6113
▁Edie	-12.6113
▁Gulf	-12.6113
▁reserve	-12.6113
▁click	-12.6114
▁mfdn	-12.6116
▁izvAs	-12.6116
▁Armenian	-12.6116
▁policeman	-12.6118
avaBAsa	-12.6119
chair	-12.6121
▁shine	-12.6121
----"	-12.6121
▁yuck	-12.6123
▁Page	-12.6125
▁avanda	-12.6126
▁CD	-12.6127
▁Pete	-12.6129
bisa	-12.6131
▁loan	-12.6133
▁aBAvay	-12.6134
groan	-12.6134
▁sometime	-12.6134
29	-12.6138
bla	-12.6138
DUsa	-12.6139
malaya	-12.6143
cIra	-12.6144
▁garuq	-12.6147
pizwI	-12.6148
▁agents	-12.6152
▁actions	-12.6154
BLE	-12.6156
▁vfdD	-12.616
▁utpal	-12.6161
▁clo	-12.617
▁yell	-12.6172
▁Sab	-12.6172
▁jewel	-12.6174
▁diploma	-12.6174
▁Eddie	-12.6174
▁column	-12.6174
▁crept	-12.6174
▁increasing	-12.6174
▁effective	-12.6174
▁savage	-12.6174
▁necklace	-12.6174
▁drank	-12.6174
▁charts	-12.6174
▁primary	-12.6174
▁SAmayat	-12.6175
▁stiff	-12.6175
▁thirsty	-12.6175
▁KyAti	-12.6176
▁Move	-12.6176
▁dravat	-12.6178
UGH	-12.6179
▁ko	-12.6181
▁mEtrey	-12.6182
brAhmaRAcCaMsin	-12.6184
▁rail	-12.6185
▁anugrah	-12.6188
oul	-12.6189
▁Vava	-12.6191
▁kavac	-12.6193
▁kzayat	-12.62
▁whale	-12.6201
Sini	-12.6204
▁Cross	-12.6204
utTAna	-12.6205
cAturmAsya	-12.6207
43	-12.6208
navanIta	-12.6209
manmaTa	-12.6211
pratyekabudDa	-12.6213
pradoza	-12.6213
uzRIza	-12.6215
cAndrAyaRa	-12.6216
▁App	-12.6217
▁Gun	-12.6217
ganDamAdana	-12.6218
lio	-12.622
somadatta	-12.622
goDUma	-12.6222
▁companions	-12.6229
nagarI	-12.623
500	-12.623
jAhnavI	-12.6236
saMnyAsa	-12.6236
▁Catherine	-12.6236
▁Rachel	-12.6236
▁assault	-12.6236
▁guarantee	-12.6236
▁pennies	-12.6236
▁phrase	-12.6236
▁mAdayat	-12.6236
▁Euro	-12.6236
▁legend	-12.6236
▁naBa	-12.6238
▁vartsyat	-12.624
yazwi	-12.6241
▁flip	-12.6247
▁pOr	-12.6247
----------------	-12.6251
▁gene	-12.6251
▁balAn	-12.6253
dakziRAgni	-12.6257
Kati	-12.6259
dAtaH	-12.626
▁enjoying	-12.626
▁mental	-12.6263
▁kAk	-12.6266
▁saNgam	-12.6267
▁Buck	-12.6267
apUpa	-12.6269
pratipatti	-12.6272
stava	-12.6274
▁visited	-12.6276
▁jirayizyat	-12.6277
▁Angel	-12.6279
pAlana	-12.628
ancing	-12.6283
▁moo	-12.6284
▁ISAn	-12.6284
▁velA	-12.6286
▁dan	-12.6289
▁Carl	-12.6291
shot	-12.6291
▁prepare	-12.6292
▁vez	-12.6296
surata	-12.6297
svaDiti	-12.6298
▁volunteer	-12.6298
▁Anthony	-12.6298
▁ajezat	-12.6298
▁independence	-12.6298
▁yuYjI	-12.6298
▁roar	-12.6299
▁reform	-12.63
▁Kelly	-12.6301
▁NOW	-12.6301
▁raTantar	-12.6301
▁Mister	-12.6301
indrajit	-12.6304
▁druRat	-12.6305
▁Darizya	-12.6306
▁Doesn	-12.6306
▁Girl	-12.6307
▁Khan	-12.6308
▁appropriate	-12.6308
▁34	-12.6311
lomaSa	-12.6312
▁stuffed	-12.6314
▁understanding	-12.6314
▁deeply	-12.6316
▁marbles	-12.6318
▁300	-12.632
touches	-12.6325
upAdAna	-12.6325
▁hatch	-12.6326
▁Arts	-12.6329
▁madan	-12.633
▁tag	-12.633
▁vedi	-12.6334
▁apASaya	-12.6336
▁staring	-12.634
▁develop	-12.6346
akti	-12.6354
▁involve	-12.6354
▁grant	-12.6354
▁jezizyat	-12.6355
rou	-12.6355
▁sahAy	-12.6358
▁vEdy	-12.6359
▁Hand	-12.636
▁mfd	-12.636
taqit	-12.636
▁mocayizya	-12.636
▁permanent	-12.636
▁tfpn	-12.636
▁Diandra	-12.636
▁Skinner	-12.636
▁burden	-12.6361
▁joking	-12.6361
▁brick	-12.6362
▁abuse	-12.6362
▁knot	-12.6362
vAq	-12.6363
▁Native	-12.6363
▁Fight	-12.6363
▁wishes	-12.6364
▁discovery	-12.6367
Bitti	-12.637
▁stretched	-12.637
▁lover	-12.6373
triBuvana	-12.6374
▁limb	-12.6375
▁climbing	-12.6376
▁cousins	-12.6383
syat	-12.6384
▁Grandma	-12.6391
rig	-12.6391
▁Atap	-12.6395
▁Hay	-12.6395
▁partly	-12.6396
▁ayut	-12.6399
▁exception	-12.6399
vyApAra	-12.64
▁Post	-12.64
mArjAra	-12.6401
vazawkAra	-12.6402
made	-12.6402
sArasa	-12.6403
prapaYca	-12.6403
namaskAra	-12.6405
tanayA	-12.6405
▁nand	-12.6405
▁sale	-12.6409
anurAga	-12.6409
▁whispering	-12.6411
▁sPow	-12.6413
▁beard	-12.6416
▁Lane	-12.6417
Danada	-12.6418
▁patant	-12.6419
rAK	-12.6419
▁kamal	-12.6422
saMkawa	-12.6423
gaBasti	-12.6423
▁BBC	-12.6423
▁principal	-12.6423
▁saNkalp	-12.6423
▁literature	-12.6423
▁uniform	-12.6423
▁revolution	-12.6423
▁snack	-12.6423
▁pibant	-12.6423
▁institution	-12.6423
jIvantI	-12.6424
▁Civil	-12.6424
▁midnight	-12.6424
▁Nathan	-12.6424
▁1966	-12.6424
▁1944	-12.6424
▁edition	-12.6424
avApti	-12.6424
AGAra	-12.6424
▁alongside	-12.6426
▁parASar	-12.6427
mudgara	-12.6429
raYjana	-12.643
▁marched	-12.6431
reading	-12.6432
▁Track	-12.6433
▁belly	-12.6436
inDana	-12.6439
cuse	-12.6441
▁aSvameD	-12.6442
▁Bring	-12.6445
ben	-12.6449
▁tick	-12.645
paraSu	-12.6454
▁Lor	-12.6458
▁Sri	-12.6458
lANgalI	-12.646
▁returning	-12.6464
▁patients	-12.6465
TED	-12.6468
▁45	-12.647
▁kfRu	-12.6477
▁Hospital	-12.6487
▁Hulk	-12.6487
▁Junior	-12.6487
▁essential	-12.6487
▁gallant	-12.6487
▁satisfaction	-12.6487
▁instruction	-12.6487
▁Geography	-12.6487
▁avartat	-12.6487
▁Kevin	-12.6487
▁Morning	-12.6487
▁Spring	-12.6488
▁moral	-12.6488
kleda	-12.6489
▁nearby	-12.649
dArikA	-12.649
▁Cattr	-12.6492
FR	-12.6493
▁growth	-12.6494
▁scan	-12.6499
FRI	-12.6504
62	-12.6505
▁SlezmAR	-12.6506
▁grAs	-12.6508
▁feeding	-12.6511
▁aDvary	-12.6518
▁mustn	-12.6523
Have	-12.6525
▁parking	-12.6528
▁aSvI	-12.6532
IP	-12.6534
▁ducks	-12.6539
prajAti	-12.654
▁rub	-12.6542
Datta	-12.6542
▁mady	-12.6542
▁recommend	-12.6543
▁constant	-12.6547
zen	-12.6547
pUya	-12.6549
▁Bangladesh	-12.655
▁Society	-12.655
▁inspired	-12.655
▁spfSat	-12.655
▁ajemat	-12.655
▁Hemings	-12.655
▁Prague	-12.655
▁Baker	-12.6552
▁oven	-12.6552
▁Honor	-12.6554
▁devil	-12.6556
▁rebel	-12.6557
mouth	-12.6558
Brown	-12.6558
▁launched	-12.6558
▁businessman	-12.6558
▁70	-12.6565
▁maR	-12.6565
wuv	-12.6565
ASvina	-12.6567
▁AjYA	-12.6567
▁patch	-12.6571
57	-12.6574
▁SaktyA	-12.6574
SOri	-12.6576
▁brahmavarcas	-12.6577
▁tastes	-12.6577
▁avAcay	-12.6579
▁Cer	-12.658
▁crib	-12.6581
▁pASayet	-12.6582
aDikaraRa	-12.6584
zed	-12.6586
kalmaza	-12.6588
uSIra	-12.6589
kalaha	-12.659
pawola	-12.6591
▁represent	-12.6591
upakAra	-12.6592
SaSANka	-12.6592
cEtya	-12.6593
avadAna	-12.6594
padArTa	-12.6594
daSagrIva	-12.6597
▁Inv	-12.6598
▁vAh	-12.6604
▁searching	-12.6605
▁jezyat	-12.6608
▁disturb	-12.6608
▁Radio	-12.6609
Mhizyat	-12.6613
roy	-12.6613
ounce	-12.6613
org	-12.6613
▁basic	-12.6614
trAtf	-12.6614
SarvarI	-12.6614
dalam	-12.6614
glAni	-12.6614
▁collapse	-12.6614
▁skirt	-12.6614
▁Meanwhile	-12.6614
▁preserve	-12.6615
▁1963	-12.6615
▁wrapped	-12.6615
AsandI	-12.6615
▁asmarat	-12.6615
▁Franklin	-12.6615
▁flung	-12.6615
▁hostage	-12.6615
▁blast	-12.6616
▁lasted	-12.6616
▁vAdayizya	-12.6617
▁unlike	-12.6617
▁rAkzase	-12.6618
▁represents	-12.662
rata	-12.662
▁confirmed	-12.6621
samAna	-12.6624
netf	-12.6625
▁dough	-12.6632
▁spots	-12.6633
▁opera	-12.6633
▁vege	-12.6633
▁imagined	-12.6635
▁nothin	-12.6635
▁Daisy	-12.6636
brahmadatta	-12.6639
▁Exp	-12.6639
mAGa	-12.664
▁nATa	-12.664
▁offering	-12.6641
uv	-12.6642
vidruma	-12.6643
talks	-12.6643
▁prakft	-12.6646
▁leads	-12.6653
▁saucer	-12.6654
AvasaTa	-12.6654
train	-12.666
dials	-12.6664
reaches	-12.6665
▁talkin	-12.6665
▁fake	-12.667
▁nimb	-12.6671
▁deveS	-12.6671
▁awards	-12.6671
conscious	-12.6678
▁prior	-12.6679
▁Jessie	-12.6679
▁economy	-12.6679
▁Fergus	-12.6679
▁merged	-12.6679
▁Bugs	-12.6679
garBiRI	-12.6679
▁zero	-12.6679
▁jinvizyat	-12.6679
▁Carolina	-12.6679
▁conclusion	-12.6679
▁Holmes	-12.6679
▁Member	-12.6679
▁pork	-12.668
▁hastily	-12.668
▁Biza	-12.668
▁sunny	-12.6682
65	-12.6683
kka	-12.6684
▁bars	-12.6684
▁scored	-12.6691
going	-12.6694
▁kindness	-12.6695
▁remaining	-12.6695
▁Joey	-12.6697
▁Chu	-12.6704
▁Sin	-12.6707
▁Julia	-12.6707
▁Read	-12.671
▁Sean	-12.6711
▁yamayat	-12.6712
DruvA	-12.6712
ulUKala	-12.6714
▁yAnt	-12.6715
▁tribes	-12.6717
kitava	-12.6717
▁spelling	-12.6718
▁ew	-12.6722
▁thankful	-12.6723
cora	-12.6731
kaRa	-12.6733
ives	-12.674
▁review	-12.6741
▁tube	-12.6741
▁lied	-12.6741
▁dvandv	-12.6744
▁Pacific	-12.6744
▁YEAH	-12.6744
▁composed	-12.6744
▁criteria	-12.6744
▁tfMhat	-12.6744
dfzad	-12.6744
▁Becket	-12.6745
▁porch	-12.6745
▁visitor	-12.6745
▁vanaspati	-12.6746
NK	-12.6747
sArivA	-12.6747
rich	-12.6748
▁annoyed	-12.675
▁responded	-12.6751
▁gAsyat	-12.6751
▁Lisa	-12.6751
bound	-12.6754
31	-12.6756
▁issued	-12.6757
▁headquarters	-12.6758
vyADa	-12.6759
▁juhvat	-12.6761
IST	-12.6762
vibanDa	-12.6764
▁shouting	-12.6766
▁Alay	-12.6766
gAtu	-12.6768
▁Ron	-12.677
▁haha	-12.6771
kAntAra	-12.6774
kiwwa	-12.6776
amftA	-12.6777
pUrvaja	-12.6777
▁Carol	-12.6777
▁bench	-12.6778
jani	-12.678
taqAga	-12.678
caturgfhIta	-12.678
▁Elaya	-12.6781
sAntva	-12.6781
mfRAla	-12.6782
▁mono	-12.6783
dolAyantra	-12.6783
dvijaSrezWa	-12.6785
▁cared	-12.6785
puRqra	-12.6786
pratApa	-12.6787
▁Tag	-12.6787
drOpadeya	-12.6787
▁checking	-12.6787
sadBAva	-12.679
udvega	-12.6791
tilaka	-12.6792
▁mild	-12.6793
pralApa	-12.6793
▁Mir	-12.6794
▁gather	-12.6796
▁vize	-12.6797
nberg	-12.68
▁confirm	-12.6803
devadatta	-12.6803
badara	-12.6803
pataMga	-12.6809
yOgaMDarAyaRa	-12.6809
tAqana	-12.6809
▁ABOUT	-12.6809
▁Grammy	-12.6809
▁Vienna	-12.6809
▁absorb	-12.6809
▁attitude	-12.6809
▁preparation	-12.6809
▁genus	-12.6809
squeal	-12.6809
▁warrant	-12.6809
▁Elite	-12.6809
▁Lucas	-12.681
▁prices	-12.681
▁bond	-12.681
▁cabinet	-12.6811
▁EcCat	-12.6811
vocalization	-12.6811
▁mAr	-12.6811
▁landing	-12.6811
yakzman	-12.6812
▁pArayant	-12.6812
mond	-12.6816
▁detect	-12.6819
Miss	-12.6819
▁cArayet	-12.6819
cott	-12.682
section	-12.6821
GO	-12.6821
▁parva	-12.6821
▁vipAk	-12.6824
▁hUrCet	-12.6827
holding	-12.6829
▁svarUp	-12.6833
fzwi	-12.6842
▁strongly	-12.6843
kalApa	-12.6845
laugh	-12.6845
-2	-12.6845
▁Tele	-12.6845
▁Ul	-12.6848
sAraRa	-12.6849
SoTa	-12.6853
▁puzyat	-12.6854
▁meDA	-12.6854
sADu	-12.6855
▁AdI	-12.6855
▁None	-12.6856
SnAt	-12.6856
▁sanniD	-12.6858
▁viparyay	-12.6858
▁lean	-12.6859
▁cells	-12.6861
▁dyuti	-12.6864
road	-12.6865
TING	-12.6867
;"	-12.6867
▁Ker	-12.6868
▁script	-12.6874
▁Start	-12.6874
vidArI	-12.6875
▁SiKI	-12.6875
▁scold	-12.6875
▁composer	-12.6875
▁genius	-12.6875
▁glorious	-12.6875
▁intelligence	-12.6875
▁jYApayant	-12.6875
▁shepherd	-12.6875
▁suspicion	-12.6875
▁niece	-12.6875
▁Jefferson	-12.6875
varAnanA	-12.6875
▁juhuyAt	-12.6875
vijayA	-12.6876
▁arose	-12.6876
▁mandate	-12.6876
praharza	-12.6877
▁dresses	-12.6877
▁threaten	-12.6878
▁dates	-12.6879
kAlikA	-12.688
▁Same	-12.6881
▁Howard	-12.6883
▁charming	-12.6883
▁apply	-12.6883
sUkara	-12.6884
rasAtala	-12.6889
plat	-12.689
▁Christians	-12.6893
▁smar	-12.6895
state	-12.6902
kan	-12.6912
▁38	-12.6923
kakzyA	-12.6928
▁kIrti	-12.6932
▁sapatn	-12.6932
▁sattr	-12.6933
camp	-12.6934
▁float	-12.6935
Gf	-12.6935
▁conquer	-12.6935
59	-12.6936
▁buDyat	-12.6939
aSmarI	-12.6941
puroDA	-12.6941
▁frank	-12.6941
▁Between	-12.6941
▁Chantilly	-12.6941
▁Ocean	-12.6941
▁Peggy	-12.6941
▁constituency	-12.6941
▁expense	-12.6941
▁identity	-12.6941
▁liberal	-12.6941
▁macaroni	-12.6941
▁abroad	-12.6941
▁adapt	-12.6941
▁Harwood	-12.6942
▁detective	-12.6942
▁Dream	-12.6943
yakzma	-12.6945
roDa	-12.6945
▁reaction	-12.6945
▁constantly	-12.6945
post	-12.6946
sureSvara	-12.6948
▁limited	-12.6951
▁ONE	-12.6953
▁lapsya	-12.6953
▁purohit	-12.6953
SUdrA	-12.6955
▁vAdayet	-12.6959
▁Gray	-12.696
▁heading	-12.696
▁tftIyasavan	-12.6961
▁hon	-12.6962
▁objection	-12.6966
-4	-12.6966
▁intend	-12.6968
▁emotion	-12.6972
dOrbalya	-12.6974
ninada	-12.6976
nIlotpala	-12.6979
pence	-12.6979
kaTana	-12.6982
▁smfti	-12.6982
▁feared	-12.6983
padmarAga	-12.6984
nirdeSa	-12.6985
puruhUta	-12.6986
▁Band	-12.6987
maDUka	-12.6988
SudDodana	-12.6988
ErAvata	-12.6989
DUrta	-12.699
pizwa	-12.699
hearted	-12.699
▁inform	-12.6995
▁Diana	-12.7
▁prakAr	-12.7003
▁Flor	-12.7005
▁vidyAm	-12.7007
▁taw	-12.7008
naptf	-12.7008
▁academic	-12.7008
continent	-12.7008
▁cigarette	-12.7008
▁organisation	-12.7008
SAstf	-12.7008
▁quote	-12.7008
▁WHO	-12.7008
▁closing	-12.7008
▁Palace	-12.7008
▁1957	-12.7008
▁1954	-12.7008
▁shaking	-12.7008
▁1955	-12.7008
▁spray	-12.7009
▁Graham	-12.7009
▁Wayne	-12.7009
saptaka	-12.7009
▁poz	-12.701
▁ouch	-12.701
▁latest	-12.7018
▁contribution	-12.7018
toda	-12.7027
SamyA	-12.7029
keeper	-12.703
▁guh	-12.7031
▁protected	-12.7031
fza	-12.7035
▁samit	-12.7035
▁reader	-12.7035
▁praBfti	-12.7037
▁studying	-12.7038
▁Boo	-12.7042
upaDA	-12.7047
▁bass	-12.7049
vayasya	-12.7049
▁iNgizyat	-12.7051
vimukti	-12.7056
▁Pur	-12.7057
▁suhf	-12.706
▁Bla	-12.7066
▁aspect	-12.7067
▁Olive	-12.7067
▁Burn	-12.707
vAruRI	-12.7075
ucCraya	-12.7075
zazWI	-12.7075
BUriSravas	-12.7075
▁jayant	-12.7075
▁tremendous	-12.7075
▁yield	-12.7075
▁Czech	-12.7075
▁ancestor	-12.7075
▁extraordinary	-12.7075
▁tejAMs	-12.7075
▁sarasvaty	-12.7075
ajAtaSatru	-12.7075
▁causing	-12.7075
▁EKat	-12.7075
▁Brooks	-12.7075
▁1961	-12.7075
▁Antonio	-12.7076
kumAraka	-12.7077
▁Maryland	-12.7077
▁Class	-12.7078
▁kzoB	-12.7079
▁hiMs	-12.7082
pravAda	-12.7084
▁kuYjar	-12.7084
▁elements	-12.7087
53	-12.7087
steya	-12.7087
▁sailed	-12.709
▁peaceful	-12.7094
ulation	-12.7095
▁passion	-12.7099
mAra	-12.7105
▁Peru	-12.7107
dantin	-12.7111
anuyAja	-12.7122
atiSaya	-12.7123
▁Joan	-12.7124
hang	-12.7126
▁alley	-12.7129
mmed	-12.7129
▁gee	-12.7131
▁torn	-12.7137
▁identify	-12.7143
▁Gladys	-12.7143
▁Hebrew	-12.7143
▁Nintendo	-12.7143
▁conscience	-12.7143
▁inhabitants	-12.7143
▁miracle	-12.7143
▁territory	-12.7143
▁valentine	-12.7143
▁nodded	-12.7143
arunDatI	-12.7143
▁clue	-12.7143
▁bilv	-12.7143
▁jolly	-12.7143
▁1949	-12.7143
▁summon	-12.7143
▁kavi	-12.7143
▁kite	-12.7143
▁Hugh	-12.7143
▁weary	-12.7144
▁LET	-12.7145
▁peak	-12.7145
▁lalAw	-12.7146
Darmaputra	-12.7149
▁Cool	-12.7149
lUza	-12.715
race	-12.7154
▁prayers	-12.7154
▁weigh	-12.7158
▁Oak	-12.7159
▁pAlayant	-12.7159
▁incredible	-12.7161
▁commanded	-12.7162
▁kzepsyat	-12.7168
view	-12.717
SaSa	-12.7175
▁OKAY	-12.7177
ease	-12.718
open	-12.7181
jAtarUpa	-12.7182
kurukzetra	-12.7185
gel	-12.7187
OzaDI	-12.7187
cIvara	-12.7188
sajAta	-12.7188
▁tickle	-12.7189
▁Blan	-12.719
prayAga	-12.7191
▁dancer	-12.7192
▁yells	-12.7196
▁upadeS	-12.7205
▁govind	-12.7208
kiMkara	-12.7211
pattrin	-12.7211
▁raMsya	-12.7211
▁LITTLE	-12.7211
▁concentration	-12.7211
▁revenge	-12.7211
▁ridiculous	-12.7211
▁jelly	-12.7211
▁vanished	-12.7211
▁funeral	-12.7211
▁mystery	-12.7211
▁Doubs	-12.7211
rajasvalA	-12.7211
gARqIvaDanvan	-12.7211
▁1958	-12.7211
▁remarkable	-12.7212
yamati	-12.7213
rase	-12.7214
▁acarbat	-12.7215
▁Cook	-12.7217
▁Bakzy	-12.7218
▁tfkzat	-12.7218
▁hired	-12.7219
▁Sive	-12.722
▁demanded	-12.7223
heim	-12.7229
▁hint	-12.7232
▁avyakt	-12.7232
▁Family	-12.7235
▁photos	-12.7238
▁puzwi	-12.7238
▁Gary	-12.7239
▁manTant	-12.7246
▁Cou	-12.7249
▁gloves	-12.7251
One	-12.7252
puzpaka	-12.7252
runs	-12.7253
bbed	-12.7253
73	-12.7261
▁Roll	-12.7264
▁namAMs	-12.7266
Keda	-12.7275
▁mAnayant	-12.7276
▁Rhode	-12.7276
▁mokzya	-12.7277
antevAsin	-12.7279
tiryagyoni	-12.7279
▁unexpected	-12.7279
▁ENgat	-12.7279
▁LOOK	-12.7279
▁Rodney	-12.7279
▁hippopotamus	-12.7279
▁receiving	-12.7279
▁violin	-12.7279
dAridrya	-12.7279
▁orphan	-12.7279
vitasti	-12.7279
▁steady	-12.7279
▁Desmond	-12.7279
▁Nepal	-12.7279
▁Lawyer	-12.7279
▁alaBa	-12.7279
▁ashore	-12.7279
▁1929	-12.7279
▁woof	-12.728
▁Close	-12.728
mAtariSvan	-12.728
▁boil	-12.7281
▁drill	-12.7282
rAjikA	-12.7283
udayana	-12.7289
▁yards	-12.729
▁stated	-12.7292
▁regarded	-12.7293
▁acarat	-12.7293
burn	-12.7294
after	-12.7295
▁Real	-12.7296
▁crashed	-12.7296
▁Akfti	-12.7297
▁whoever	-12.7298
your	-12.7299
kUpI	-12.7299
▁sentences	-12.7299
▁SEE	-12.7303
▁Representatives	-12.7306
▁growl	-12.7308
four	-12.7308
▁Cop	-12.7309
▁Bizaj	-12.731
▁web	-12.7312
▁muscles	-12.7316
AnupUrvya	-12.7319
▁antak	-12.732
upalamBa	-12.7325
ANgirasa	-12.7326
FT	-12.7327
upasarga	-12.7328
▁der	-12.7333
▁contribut	-12.7337
▁mukt	-12.7338
▁Among	-12.7339
▁shave	-12.734
Aspada	-12.7345
▁answering	-12.7345
vAcaspati	-12.7348
pfSni	-12.7348
vyuzwi	-12.7348
▁Ghost	-12.7348
▁devoted	-12.7348
▁fortunate	-12.7348
▁Bourg	-12.7348
▁cloak	-12.7348
▁councillor	-12.7348
▁carbon	-12.735
▁vfzaB	-12.7355
▁portion	-12.7357
Suci	-12.7357
karRikAra	-12.7359
attempts	-12.7361
▁fame	-12.737
▁vasuDA	-12.7371
▁plea	-12.7374
▁electric	-12.7377
aBimAna	-12.738
Silpin	-12.738
▁comrades	-12.7385
▁puzzled	-12.7386
SUlin	-12.7386
▁danced	-12.7386
cakzas	-12.7392
trivarga	-12.7394
kokila	-12.7395
SfNgavera	-12.7397
cikitsita	-12.7398
▁pradAn	-12.7398
mahoraga	-12.7398
▁avarat	-12.7406
sort	-12.7406
▁encourage	-12.7411
stitut	-12.7412
▁narendr	-12.7413
saMDA	-12.7415
▁SvA	-12.7417
▁Alfred	-12.7418
▁merchant	-12.7418
▁peculiar	-12.7418
▁sweetheart	-12.7418
▁sympathy	-12.7418
▁voyage	-12.7418
▁behalf	-12.7418
▁nasty	-12.7418
▁vadet	-12.7418
▁1953	-12.7418
▁1962	-12.7418
SiSna	-12.7418
▁Evans	-12.7418
▁furious	-12.7418
▁gross	-12.7418
▁disappointment	-12.7418
▁flock	-12.7419
▁broom	-12.742
▁dwell	-12.7421
▁associated	-12.7421
▁groom	-12.7421
▁toilet	-12.7422
▁drupad	-12.7423
▁jvalat	-12.7423
Mhet	-12.7426
▁spa	-12.7426
▁whip	-12.7427
▁collected	-12.743
▁ram	-12.7431
▁Barizya	-12.7431
▁Gil	-12.7432
JOA	-12.7439
▁MP	-12.7446
▁Fall	-12.7447
▁contains	-12.7449
Arabic	-12.7449
▁Indeed	-12.745
▁vAcayizy	-12.7454
▁endure	-12.7463
devala	-12.747
▁arrange	-12.7474
▁Sete	-12.7478
sugata	-12.7478
▁mag	-12.7479
nawa	-12.748
sapatnI	-12.7481
Comt	-12.7486
▁suKayat	-12.7486
SAlmalI	-12.7487
puroDas	-12.7487
▁Michigan	-12.7487
▁Public	-12.7487
▁Swedish	-12.7487
▁terribly	-12.7487
▁Mansfield	-12.7487
▁hoqet	-12.7487
▁historian	-12.7487
▁jAnat	-12.7488
▁monarch	-12.7488
▁1939	-12.7488
▁2024	-12.7488
▁phase	-12.7488
scope	-12.749
▁robe	-12.749
▁assist	-12.7491
▁maTnIt	-12.7491
▁36	-12.7491
▁painter	-12.7493
▁SiKar	-12.7497
▁expressed	-12.7499
LP	-12.7499
▁cadet	-12.7499
▁terrorist	-12.75
▁ket	-12.7502
first	-12.7502
yakft	-12.7503
▁Steven	-12.7504
pizwikA	-12.7505
EVER	-12.7507
▁shelf	-12.7507
▁vartant	-12.7513
▁whoop	-12.7514
nick	-12.7516
stick	-12.7517
▁compet	-12.752
marta	-12.7523
AnfSaMsya	-12.7527
samiti	-12.753
anirudDa	-12.7538
▁Din	-12.7545
▁ASay	-12.7547
▁viSat	-12.7548
▁Mart	-12.7549
▁Donna	-12.755
▁EzR	-12.7551
BraMSa	-12.7551
▁celebrate	-12.7552
▁convict	-12.7552
▁Half	-12.7553
▁virA	-12.7557
saptamI	-12.7558
pArzRi	-12.7558
revatI	-12.7558
Certainly	-12.7558
digenous	-12.7558
▁Dakota	-12.7558
▁confusion	-12.7558
▁defense	-12.7558
▁refuge	-12.7558
▁surrounding	-12.7558
▁Pierre	-12.7558
▁expand	-12.7558
▁Cousin	-12.7558
▁retreat	-12.7558
▁unconscious	-12.7559
▁poetry	-12.7559
▁HOW	-12.7559
▁kzezyat	-12.7559
LW	-12.756
▁BAgaDey	-12.756
madirA	-12.756
body	-12.7561
▁mice	-12.7562
▁instantly	-12.7563
▁Athen	-12.7565
▁tapsyat	-12.7565
▁uttar	-12.7566
▁guards	-12.7566
▁referee	-12.7567
▁DNA	-12.7567
cup	-12.7568
▁vakz	-12.7569
▁37	-12.7571
▁krat	-12.7572
▁alike	-12.7572
final	-12.7573
▁tw	-12.7574
▁Ford	-12.7578
▁publish	-12.7583
▁azwak	-12.7586
hl	-12.7586
SastraBft	-12.7588
rAkA	-12.7588
▁bay	-12.759
▁vasum	-12.7591
▁faced	-12.7591
▁aNgAr	-12.7591
▁aboard	-12.7592
▁react	-12.7594
Bre	-12.7594
▁fuck	-12.7595
valkala	-12.7596
▁patet	-12.7599
kalevara	-12.76
yaBAvay	-12.76
▁protests	-12.7601
sadman	-12.7603
yugAnta	-12.7603
maDyAhna	-12.7604
payoDara	-12.7605
sampAta	-12.7606
vAhlIka	-12.7606
vyavAya	-12.7607
master	-12.7607
tAmbUla	-12.7608
vilAsa	-12.7611
nistriMSa	-12.7611
pracAra	-12.7613
nAsatya	-12.7613
▁strangers	-12.7615
▁carbizyat	-12.7619
▁svADyAy	-12.762
▁vismay	-12.7621
▁caru	-12.7622
anaNga	-12.7629
taraMga	-12.7629
▁Ewok	-12.7629
▁Foreign	-12.7629
▁hamburger	-12.7629
▁traitor	-12.7629
▁utterance	-12.7629
▁steep	-12.7629
▁Senator	-12.7629
▁Katie	-12.7629
sadasya	-12.7629
Svitra	-12.7629
▁metres	-12.7629
▁nakul	-12.7629
▁copies	-12.7629
▁praB	-12.763
▁shone	-12.763
▁sweetie	-12.763
▁conductor	-12.7631
stamba	-12.7631
▁Instead	-12.7632
BUBft	-12.7632
▁rapper	-12.7632
▁leak	-12.7632
Sabara	-12.7632
▁Bush	-12.7633
▁prIt	-12.7635
▁atiTi	-12.764
▁acAraya	-12.7641
▁MI	-12.7641
▁treaty	-12.7643
craft	-12.7644
▁kicked	-12.7644
▁pitcher	-12.7647
▁tIkzR	-12.7649
CadiH	-12.765
▁kzuD	-12.7651
▁odan	-12.7652
kAmalA	-12.7655
▁Eta	-12.7658
▁roller	-12.766
▁adventures	-12.7667
▁crossing	-12.7669
▁urag	-12.7669
▁regional	-12.7676
08	-12.7677
▁jemizyat	-12.7681
kuca	-12.7683
▁dugDe	-12.7684
▁ease	-12.7692
▁Roy	-12.7693
upon	-12.7698
brAhmI	-12.77
▁acknowledg	-12.77
LAUGHING	-12.77
piDAna	-12.77
▁Twila	-12.77
▁Venezuela	-12.77
▁acquaintance	-12.77
▁despite	-12.77
▁executed	-12.77
▁jAyayet	-12.77
▁sleeve	-12.77
▁injury	-12.77
▁vindAt	-12.77
▁1938	-12.77
Franch	-12.7701
▁sruv	-12.7701
▁mArjayat	-12.7701
▁vandet	-12.7702
▁Bacon	-12.7703
▁participated	-12.7703
akrUra	-12.7704
▁Navy	-12.7704
▁decent	-12.7704
▁troop	-12.7704
▁convinced	-12.7704
▁vartet	-12.7707
35	-12.7708
▁insist	-12.7709
▁skand	-12.7709
▁recovered	-12.771
writing	-12.7715
crying	-12.7715
Very	-12.7717
hip	-12.7717
▁Leon	-12.772
▁Hunt	-12.7721
oops	-12.7723
▁Anti	-12.7733
▁mode	-12.7735
narapati	-12.7736
▁akfRv	-12.7742
▁acarcaya	-12.7746
▁daMzwr	-12.775
▁tuzyat	-12.7752
SEtya	-12.7752
▁kaMs	-12.7754
spanda	-12.7755
zzle	-12.7756
▁Cass	-12.7757
▁maDuk	-12.7757
uttarA	-12.7758
▁kARq	-12.776
▁annoy	-12.7766
▁obvious	-12.7769
aSvaganDA	-12.7772
hAwaka	-12.7772
sureSvarI	-12.7772
babbling	-12.7772
▁Cochran	-12.7772
▁Corbyn	-12.7772
▁Gloria	-12.7772
▁Jennifer	-12.7772
▁association	-12.7772
▁butterflies	-12.7772
▁oxygen	-12.7772
▁eKizyat	-12.7772
▁disaster	-12.7772
▁strawberry	-12.7772
▁Therefore	-12.7772
▁shouts	-12.7772
▁Johann	-12.7772
▁theatre	-12.7772
stUpa	-12.7773
San	-12.7773
▁spear	-12.7773
▁sandeh	-12.7773
▁NEW	-12.7773
▁makin	-12.7774
▁investment	-12.7774
▁harsh	-12.7775
▁Silver	-12.7775
▁scientist	-12.7775
flex	-12.7776
▁Gook	-12.7776
▁Horn	-12.7776
salokatA	-12.7778
▁Heart	-12.779
miSra	-12.7791
▁Station	-12.7793
▁pAnt	-12.7793
▁acal	-12.7794
▁kesar	-12.7795
▁panTAn	-12.7795
azwakA	-12.7796
▁skills	-12.7796
SvApada	-12.7803
headed	-12.7805
sAhAyya	-12.7806
Sakuna	-12.7808
AranAla	-12.7811
▁Romania	-12.7811
▁Hero	-12.7813
▁ajin	-12.7814
prADAnya	-12.7816
cezwita	-12.7816
muRqa	-12.7816
▁fkz	-12.7817
kUrca	-12.7821
▁peer	-12.7822
vEnateya	-12.7823
nipAta	-12.7823
paYcamUla	-12.7824
maheSa	-12.7824
prEza	-12.7824
kiMSuka	-12.7824
vyatikrama	-12.7825
cakravAka	-12.7826
prastAva	-12.7826
sambADa	-12.7826
hArdikya	-12.7826
vizwamBa	-12.7827
jagannATa	-12.7827
Kecara	-12.7827
▁jiriRvant	-12.783
▁SAriputr	-12.783
▁craft	-12.7831
lau	-12.7832
vfzaRa	-12.7835
jayA	-12.7835
SC	-12.7835
SAla	-12.7836
DarmaparyAya	-12.7837
▁adopt	-12.7838
▁assume	-12.7838
▁Druv	-12.7844
jyotizmatI	-12.7845
vihaMga	-12.7845
▁grasp	-12.7845
▁Nottingham	-12.7845
▁clergy	-12.7845
▁defence	-12.7845
▁impressed	-12.7845
▁infection	-12.7845
▁leather	-12.7845
▁swept	-12.7845
▁technique	-12.7845
▁remote	-12.7845
▁nomination	-12.7845
▁Number	-12.7845
▁Thanksgiving	-12.7845
▁Miriam	-12.7845
▁reject	-12.7845
kArpAsa	-12.7845
▁predict	-12.7846
▁blah	-12.7846
▁tennis	-12.7846
▁WANT	-12.7846
▁entertainment	-12.7847
▁Merry	-12.7847
▁frost	-12.7847
▁ceased	-12.7849
▁varAh	-12.7849
▁sAmA	-12.7852
▁suparR	-12.7855
▁theater	-12.7855
▁balloons	-12.7856
▁Juan	-12.7857
▁vedizyant	-12.7857
standing	-12.7863
▁SIrza	-12.7864
▁flap	-12.7864
▁stotr	-12.7865
▁yut	-12.7866
▁vyoma	-12.7866
guha	-12.787
▁gIt	-12.7872
▁SIkat	-12.7872
▁depends	-12.7874
▁tradition	-12.7875
▁laNkA	-12.788
dvipad	-12.7881
galBa	-12.7883
lage	-12.7885
trita	-12.789
paYcatva	-12.7892
Sveta	-12.7892
fashioned	-12.7894
▁Atrey	-12.7896
▁crab	-12.7897
▁lawn	-12.7897
SUrpa	-12.7897
visarpa	-12.7899
vAstu	-12.79
▁improve	-12.7906
▁aNguzW	-12.791
▁BUmyA	-12.791
▁brahm	-12.7911
▁chips	-12.7911
subrahmaRyA	-12.7913
▁SoDan	-12.7914
▁bAzp	-12.7915
▁Colombia	-12.7918
▁administration	-12.7918
▁apaYcat	-12.7918
▁atmosphere	-12.7918
▁breeze	-12.7918
▁communication	-12.7918
▁satellite	-12.7918
▁stomachache	-12.7918
▁variety	-12.7918
▁inherit	-12.7918
▁Diego	-12.7918
▁Psych	-12.7918
▁flesh	-12.7918
▁Cecil	-12.7918
▁opposition	-12.7918
▁Biography	-12.7918
BAgavata	-12.7918
▁emerg	-12.7918
▁scorn	-12.7919
BrAnti	-12.7919
▁Story	-12.7919
▁rattle	-12.7919
AkUti	-12.7921
pUrRAhuti	-12.7921
▁stress	-12.7922
▁relation	-12.7923
▁Grandpa	-12.7925
▁Urk	-12.7926
▁mistaken	-12.7927
▁Sulb	-12.7928
face	-12.7931
said	-12.7933
yavAcay	-12.7942
troph	-12.7943
ppen	-12.7948
▁Lan	-12.7952
pAYcAlI	-12.7953
ruta	-12.7957
aByaYjana	-12.7963
▁grIvA	-12.7971
fgveda	-12.7973
▁SaNk	-12.7975
▁sadan	-12.7976
▁cadets	-12.7979
elect	-12.7981
▁paNk	-12.7987
niveSa	-12.7988
jyotsnA	-12.7991
nAzwrA	-12.7991
viSrAnti	-12.7991
▁Production	-12.7991
▁Detective	-12.7991
▁batteries	-12.7991
▁centuries	-12.7991
▁combination	-12.7991
▁description	-12.7991
▁hockey	-12.7991
▁memories	-12.7991
▁Better	-12.7991
▁Leader	-12.7991
▁Amanda	-12.7991
▁municipalities	-12.7991
▁frown	-12.7991
▁anthem	-12.7991
▁alternative	-12.7992
▁headache	-12.7992
▁blade	-12.7992
▁Foundation	-12.7992
▁gasped	-12.7992
▁Bevis	-12.7992
Con	-12.7993
▁dislike	-12.7994
▁elayizya	-12.7994
upanayana	-12.7996
▁dadAt	-12.7997
kAra	-12.7998
▁interrupted	-12.7999
Sikza	-12.8004
▁separated	-12.8007
▁Soz	-12.8009
▁char	-12.801
▁bees	-12.8024
▁attempts	-12.8031
▁cab	-12.8033
sOhfda	-12.8034
sTErya	-12.8035
praRiDAna	-12.8035
uttamANga	-12.8036
▁dating	-12.8039
amlavetasa	-12.804
prakarza	-12.804
hmm	-12.8041
nitamba	-12.8042
catuzpaTa	-12.8042
dvEpAyana	-12.8043
pradeha	-12.8044
mukuwa	-12.8046
vision	-12.8046
avajYA	-12.8047
gAlava	-12.8047
navati	-12.8048
▁guYjA	-12.8049
▁Speak	-12.8052
kabanDa	-12.8053
lder	-12.8056
▁hut	-12.8059
▁capture	-12.806
▁permit	-12.806
tapana	-12.8063
establish	-12.8065
vepaTu	-12.8065
akzOhiRI	-12.8065
jAnakI	-12.8065
kirAta	-12.8065
▁Atlantic	-12.8065
▁Conference	-12.8065
▁Eloise	-12.8065
▁GIRL	-12.8065
▁accompanied	-12.8065
▁ketchup	-12.8065
▁ruDyat	-12.8065
▁sovereign	-12.8065
▁tfmPat	-12.8065
▁Horse	-12.8065
▁sannipAt	-12.8065
▁accent	-12.8065
▁cotton	-12.8065
▁extinct	-12.8065
▁transform	-12.8065
▁Except	-12.8065
▁?[	-12.8066
▁mantriR	-12.8066
cullI	-12.8066
▁1920	-12.8066
▁Finally	-12.8068
▁laying	-12.8069
▁reviews	-12.807
▁shells	-12.8075
▁consideration	-12.8076
ody	-12.8077
BrURa	-12.8077
▁blessing	-12.8078
campaka	-12.808
▁sailing	-12.8083
▁arS	-12.8083
build	-12.8083
▁seventh	-12.8084
Will	-12.8085
lipi	-12.8086
trapu	-12.8089
Dear	-12.809
ended	-12.8091
pITa	-12.8091
▁holy	-12.8094
▁Victoria	-12.8095
▁charm	-12.8098
▁math	-12.8102
siMhAsana	-12.8105
ctic	-12.8107
▁Tak	-12.8107
▁farmers	-12.8108
▁nicely	-12.8109
▁warn	-12.8111
▁ahorAtr	-12.8121
▁brow	-12.8124
▁headed	-12.8125
cavya	-12.8129
▁Game	-12.8137
leKya	-12.8138
rukmiRI	-12.814
viSvAtman	-12.814
SUnyatA	-12.814
Dynamite	-12.814
▁Salzburg	-12.814
▁glory	-12.814
▁numerous	-12.814
▁surrender	-12.814
▁Wendy	-12.814
▁1935	-12.814
▁1941	-12.814
BfNgarAja	-12.8141
▁Norman	-12.8142
▁McC	-12.8142
▁glow	-12.8143
▁Olympic	-12.8146
▁catuzway	-12.8147
main	-12.8148
▁combat	-12.8151
▁ruined	-12.8152
AragvaDa	-12.8153
▁paused	-12.8154
▁kArmuk	-12.8155
▁mAhAtmy	-12.8159
▁pARq	-12.8161
▁Officer	-12.8163
arcA	-12.8166
▁neighbors	-12.8172
▁mUrCA	-12.8174
berry	-12.8176
▁dohat	-12.8179
▁majjA	-12.8182
izer	-12.8183
▁painful	-12.8186
anuvAsana	-12.8188
32	-12.8191
ncies	-12.8193
▁murderer	-12.82
Sibi	-12.8203
kov	-12.8203
▁Won	-12.8209
▁tyAg	-12.821
gle	-12.8212
▁rapid	-12.8212
hivi	-12.8213
▁Mario	-12.8213
▁Conservative	-12.8215
▁bruvAt	-12.8215
▁despair	-12.8215
▁emperor	-12.8215
▁expedition	-12.8215
▁messenger	-12.8215
▁facing	-12.8215
▁Samuel	-12.8215
▁Banbury	-12.8215
ruru	-12.8215
▁budget	-12.8215
▁provision	-12.8215
▁Leonard	-12.8215
▁1926	-12.8215
▁gym	-12.8216
▁convert	-12.8216
▁ignore	-12.8216
karIza	-12.8216
▁unique	-12.8216
▁Davis	-12.8217
▁zone	-12.8217
▁Tomorrow	-12.8217
▁stout	-12.8218
▁Conway	-12.8218
▁retain	-12.8218
▁teasing	-12.8218
▁swell	-12.822
▁seeds	-12.8222
indrARI	-12.8223
▁nearest	-12.8224
▁employed	-12.8225
▁assure	-12.8226
▁kit	-12.8228
upaSama	-12.823
▁translate	-12.8232
▁maDv	-12.8232
humming	-12.8234
INE	-12.8235
▁Kind	-12.8237
EXP	-12.8238
praRaya	-12.8238
Apta	-12.8239
kIrtana	-12.8239
Bedana	-12.824
IDE	-12.8241
SPE	-12.8243
▁longest	-12.8247
▁deposit	-12.8247
▁drag	-12.825
▁Need	-12.8253
▁Shin	-12.8254
▁nAry	-12.826
sTaRqila	-12.826
vidaTa	-12.8263
CU	-12.8263
prasravaRa	-12.8264
mADurya	-12.8265
yajamAna	-12.8265
vedANga	-12.8266
hariRa	-12.8268
▁Doug	-12.8268
▁niveSan	-12.8269
SAlagrAma	-12.8269
kacCapa	-12.827
pInasa	-12.827
prAtaranuvAka	-12.827
▁fright	-12.827
nUpura	-12.8271
poor	-12.8271
parityAga	-12.8271
viparyAsa	-12.8272
mUzaka	-12.8273
▁kaSyap	-12.8273
thy	-12.8274
▁brahmaRI	-12.8277
▁tApas	-12.8278
pUraRa	-12.8279
fzI	-12.828
▁nyAy	-12.8281
▁unfortunate	-12.8287
▁bush	-12.8289
saMdarSana	-12.8291
saMkoca	-12.8291
saMnikarza	-12.8291
BagaMdara	-12.8291
jaritf	-12.8291
jagadguru	-12.8291
SreRi	-12.8291
▁Afghanistan	-12.8291
▁jAyayant	-12.8291
▁paYcant	-12.8291
▁technical	-12.8291
▁absence	-12.8291
▁beloved	-12.8291
▁bundle	-12.8291
▁creating	-12.8291
▁domestic	-12.8291
▁Tiger	-12.8291
mayUKa	-12.8291
▁umhum	-12.8291
GfRA	-12.8291
▁Things	-12.8291
▁Airport	-12.8291
▁Almost	-12.8291
mumbles	-12.8292
upacaya	-12.8292
vasta	-12.8292
▁sticky	-12.8293
agniveSa	-12.8293
▁lick	-12.8293
▁carcayant	-12.8298
▁tfPat	-12.83
▁apsar	-12.8301
▁dart	-12.8303
▁Socat	-12.8308
▁dvip	-12.8309
RC	-12.8314
▁mr	-12.8315
▁kissing	-12.8318
anaDyAya	-12.8319
▁gud	-12.8323
erson	-12.8326
▁sUtak	-12.833
▁varet	-12.8338
▁Sol	-12.8342
Damana	-12.8343
want	-12.8344
ugg	-12.8354
▁janamejay	-12.8354
▁Mass	-12.8361
kzoBa	-12.8363
▁maric	-12.8367
▁imagination	-12.8367
▁immense	-12.8367
▁pajamas	-12.8367
▁resolution	-12.8367
▁mortal	-12.8367
▁freak	-12.8367
▁muttered	-12.8367
▁ajinvat	-12.8367
▁invented	-12.8367
▁splash	-12.8367
mfqa	-12.8367
▁error	-12.8368
▁pUzaR	-12.8369
▁fuel	-12.8369
▁Knight	-12.837
▁sofa	-12.837
▁Martha	-12.837
vimala	-12.8372
▁snowman	-12.8373
vedikA	-12.8374
galha	-12.8375
▁roared	-12.8375
▁maiden	-12.8376
▁delivered	-12.8377
▁Raj	-12.8379
▁correctly	-12.8379
▁yogI	-12.838
▁jinvant	-12.8381
▁Griffiths	-12.8382
▁Fra	-12.8383
gocara	-12.8387
bbie	-12.8388
▁tfRut	-12.8391
▁Dark	-12.8394
picu	-12.8396
think	-12.8397
LING	-12.8397
kajjalI	-12.8403
▁Sikz	-12.8404
toy	-12.8405
5,000	-12.8407
hawk	-12.8408
Nay	-12.8413
somaka	-12.8415
SaraBa	-12.8423
▁attach	-12.8424
ambarIza	-12.8426
dolA	-12.8428
onia	-12.8428
▁manvat	-12.8432
▁extreme	-12.844
TC	-12.8443
mUrvA	-12.8444
▁PLAYING	-12.8444
▁Philippines	-12.8444
▁briefcase	-12.8444
▁trembling	-12.8444
▁assassin	-12.8444
▁vault	-12.8444
▁oath	-12.8444
▁forehead	-12.8444
▁alliance	-12.8444
▁northwest	-12.8444
▁charity	-12.8445
mOli	-12.8445
▁1925	-12.8445
▁Morris	-12.8445
▁Forget	-12.8445
▁Garden	-12.8445
▁Live	-12.8446
vetasa	-12.8448
▁wool	-12.845
▁assured	-12.8451
▁Rio	-12.8455
ramata	-12.8456
▁Jen	-12.8458
dAruka	-12.8458
▁wherever	-12.846
dIpana	-12.8461
▁epi	-12.8469
▁Dance	-12.847
▁Karl	-12.8471
giriSa	-12.8473
▁saNGAt	-12.8476
manIzA	-12.8484
▁annAn	-12.8486
prakaraRa	-12.8487
▁catching	-12.849
AsvAda	-12.8495
dvirada	-12.8495
svAhAkAra	-12.8496
aBilAza	-12.8498
droRakalaSa	-12.85
zazwika	-12.8502
kiraRa	-12.8502
raGunandana	-12.8502
lubDaka	-12.8503
nilaya	-12.8504
vfzaDvaja	-12.8504
▁tanat	-12.851
smfRot	-12.8511
▁halt	-12.8512
pota	-12.8515
fold	-12.8516
▁gAyatr	-12.8518
ntu	-12.8519
▁utsav	-12.8521
▁commit	-12.8521
tittiri	-12.8521
caturhotf	-12.8522
mAnDAtf	-12.8522
patatrin	-12.8522
suzwuti	-12.8522
nirbanDa	-12.8522
▁Double	-12.8522
▁destruction	-12.8522
▁earliest	-12.8522
▁liberty	-12.8522
▁manufacture	-12.8522
▁swiss	-12.8522
▁tissue	-12.8522
▁extent	-12.8522
▁Sounds	-12.8522
▁suburb	-12.8522
▁mocayet	-12.8522
▁Hawk	-12.8522
▁icCant	-12.8522
▁Storm	-12.8522
▁decade	-12.8522
▁lump	-12.8522
▁Julius	-12.8522
▁thumb	-12.8522
▁rival	-12.8522
▁Ellen	-12.8523
▁saddle	-12.8523
▁drown	-12.8523
▁Karen	-12.8525
▁Roland	-12.8525
▁Neci	-12.8526
▁chip	-12.8526
▁followers	-12.8526
▁thread	-12.8527
▁obtained	-12.8527
▁Baron	-12.8528
▁babe	-12.853
▁survived	-12.853
▁Sakun	-12.8535
▁carbant	-12.8537
▁hunger	-12.8537
kapilA	-12.8539
friend	-12.8541
baDnAt	-12.8542
Ekya	-12.8547
▁skate	-12.8547
kOSalya	-12.8548
▁huqet	-12.8549
hiq	-12.855
▁Blood	-12.8551
▁notable	-12.8554
▁HAN	-12.8555
▁Momma	-12.8555
▁heels	-12.8561
▁meow	-12.8561
▁veD	-12.8569
▁Syen	-12.8573
▁hav	-12.8576
▁sustain	-12.8578
lessly	-12.858
▁duHSAsan	-12.858
▁piSAc	-12.8584
▁Est	-12.8591
▁troubled	-12.8596
▁nIl	-12.8597
▁fiction	-12.8599
▁Belgium	-12.86
▁Deputy	-12.86
▁Nettie	-12.86
▁applied	-12.86
▁elevator	-12.86
▁gimme	-12.86
▁landscape	-12.86
▁mysterious	-12.86
▁popsicle	-12.86
▁promotion	-12.86
▁recognition	-12.86
▁smoking	-12.86
▁universe	-12.86
▁wrestling	-12.86
▁Environment	-12.86
▁Studio	-12.86
▁depth	-12.86
▁Nicholas	-12.86
aRiman	-12.86
▁slope	-12.86
▁retirement	-12.86
▁1928	-12.86
▁ewizyat	-12.86
[...]
